{"towing": 28379, "##34": 22022, "resisted": 13335, "fee": 7408, "declaring": 13752, "##havan": 24652, "fingerprints": 27556, "lesley": 23920, "dump": 15653, "sweating": 18972, "##imeter": 19198, "dates": 5246, "capable": 5214, "##ites": 7616, "freeway": 10846, "##\u03c4": 29734, "##ki": 3211, "sock": 28407, "orchestras": 19505, "blasts": 25829, "1849": 9037, "bk": 23923, "\u099a": 1356, "cindy": 15837, "##\u222a": 30132, "##ris": 6935, "vogel": 27063, "locker": 12625, "guys": 4364, "##lity": 18605, "sms": 22434, "##jar": 16084, "shirts": 11344, "obstruction": 27208, "antonio": 4980, "refusing": 11193, "charlie": 4918, "rigged": 25216, "establishes": 21009, "encouraging": 11434, "fiancee": 19455, "unwanted": 18162, "\u5e7f": 1842, "##gizing": 28660, "airplane": 13297, "ego": 13059, "shifter": 18189, "wheels": 7787, "pick": 4060, "conducted": 4146, "##32": 16703, "approximately": 3155, "\uff1f": 1994, "clerks": 26706, "irish": 3493, "judged": 13224, "aquatic": 13582, "triangle": 9546, "##parts": 26950, "punch": 8595, "relieved": 7653, "castro": 11794, "europeans": 13481, "##ration": 8156, "##\u1d3a": 30030, "##tub": 28251, "membranes": 24972, "goo": 27571, "battlefield": 11686, "##yce": 29297, "325": 19652, "speaker": 5882, "because": 2138, "hear": 2963, "educate": 16957, "fission": 27521, "fellows": 13572, "greyish": 26916, "adapting": 25357, "systematic": 11778, "##\u306b": 30194, "##ney": 5420, "traction": 16493, "licenses": 15943, "propellers": 23405, "selangor": 28904, "[unused238]": 243, "capital": 3007, "aurora": 13158, "manipulated": 20063, "quran": 21288, "rib": 19395, "##iana": 11410, "oneself": 25763, "carroll": 10767, "hovered": 18190, "reminding": 15906, "bukit": 29007, "pathway": 12732, "filters": 17736, "##mins": 21266, "pines": 17527, "##rcus": 29006, "instrumentation": 16015, "passive": 13135, "1906": 5518, "\u10da": 1447, "eastman": 24252, "miniatures": 28615, "mankind": 14938, "middle": 2690, "##hir": 11961, "servicing": 26804, "salazar": 25315, "consumer": 7325, "##sner": 20479, "memorials": 22899, "objection": 22224, "charlotte": 5904, "attaining": 26615, "speeds": 10898, "stamford": 22469, "lace": 12922, "reputation": 5891, "consult": 23363, "##ple": 10814, "lingering": 15304, "belgian": 6995, "modernist": 19770, "collier": 20466, "resembling": 15525, "pleasantly": 27726, "dean": 4670, "##tf": 24475, "amsterdam": 7598, "retracted": 28214, "\u300b": 1640, "dfb": 28894, "natives": 12493, "##sto": 16033, "magician": 16669, "cedar": 11354, "gleam": 24693, "\u2229": 1604, "\u0cb0": 1401, "watching": 3666, "##rce": 19170, "bowl": 4605, "[unused582]": 587, "spearheaded": 27721, "excluded": 12421, "##\u7687": 30443, "ore": 10848, "recession": 19396, "##geny": 17487, "tugs": 29306, "ba": 8670, "##lb": 20850, "flowed": 13230, "rocky": 6857, "partly": 6576, "72": 5824, "sebastien": 28328, "nicaragua": 15448, "antigua": 26023, "##gum": 22850, "122": 13092, "phenomena": 13352, "confronts": 17628, "yeast": 21957, "[unused320]": 325, "watched": 3427, "cramer": 29433, "sail": 9498, "parma": 19177, "##pher": 27921, "[unused343]": 348, "pushing": 6183, "terrorist": 9452, "winds": 7266, "##zard": 26154, "havre": 28890, "manipulate": 17708, "interfere": 15115, "winning": 3045, "\u30ef": 1736, "gunter": 27834, "##nagar": 14346, "signalling": 21919, "epoch": 25492, "conscience": 13454, "walls": 3681, "explode": 15044, "backward": 8848, "celaena": 29252, "adjective": 24931, "##logue": 24277, "maritime": 7803, "49ers": 18156, "##pod": 27633, "moan": 13673, "##\u00f8y": 27688, "prevalence": 20272, "disputes": 11936, "unveiled": 11521, "amendments": 16051, "pep": 27233, "mccormick": 23213, "second": 2117, "metz": 24424, "burt": 18611, "200": 3263, "acheron": 21427, "scanned": 11728, "stove": 16247, "ve": 2310, "##mia": 10092, "backed": 6153, "##borough": 10235, "mccall": 25790, ")": 1007, "diaries": 18707, "candidate": 4018, "gillespie": 21067, "gentle": 7132, "fm": 4718, "predictable": 21425, "entered": 3133, "\u1d63": 1508, "assumptions": 17568, "bells": 10118, "[unused845]": 850, "minnie": 26188, "1730": 23272, "tumbled": 18303, "asteroid": 12175, "francais": 22357, "showtime": 23811, "spell": 6297, "grammar": 8035, "treat": 7438, "tease": 18381, "ascending": 22316, "invade": 18445, "liz": 9056, "\u2079": 1543, "ascot": 29036, "261": 24441, "shaft": 9093, "duke": 3804, "imp": 17727, "experimented": 20918, "census": 2883, "350": 8698, "cookie": 17387, "zambia": 15633, "belgium": 5706, "suggestions": 15690, "wanda": 20848, "day": 2154, "asher": 17243, "assistant": 3353, "##ooped": 20671, "##lifting": 26644, "picture": 3861, "manual": 6410, "see": 2156, "confederacy": 18179, "vigorously": 22400, "confederates": 24627, "khan": 4967, "rouge": 12801, "apprentice": 13357, "##tream": 25379, "masters": 5972, "\u6cbb": 1900, "retiring": 9150, "1666": 27407, "stripe": 18247, "tends": 12102, "\u6b4c": 1886, "##shing": 12227, "woodland": 11051, "##\u4e94": 30279, "rewarded": 14610, "amulet": 25087, "clarify": 25037, "sloppy": 28810, "oscar": 7436, "[unused963]": 968, "disconnected": 23657, "##under": 20824, "gaping": 21226, "bitter": 8618, "localized": 22574, "##ards": 18117, "gerald": 9659, "##earing": 27242, "\u09a6": 1364, "muriel": 27616, "nato": 10079, "##\u09b9": 29913, "urges": 23876, "catherine": 6615, "forested": 15205, "papyrus": 29575, "confirms": 23283, "letting": 5599, "[unused928]": 933, "##ring": 4892, "mentor": 10779, "[unused819]": 824, "jumping": 8660, "uci": 14504, "assent": 27195, "vomit": 23251, "umm": 26114, "celia": 18020, "##version": 27774, "##\u027e": 29692, "establishing": 7411, "mona": 13813, "crushed": 10560, "rupert": 14641, "burnham": 25295, "accurate": 8321, "intellectual": 7789, "bubba": 19606, "allow": 3499, "delivered": 5359, "chanting": 22417, "rustling": 29188, "dar": 18243, "windshield": 19521, "enhancing": 20226, "chao": 22455, "earl": 4656, "##air": 11215, "dogg": 28844, "alleviate": 24251, "##tale": 22059, "nakamura": 23981, "wang": 7418, "musicals": 20103, "threw": 4711, "pipe": 8667, "investigative": 15025, "##nsen": 29428, "sf": 16420, "transmitted": 11860, "brewer": 18710, "##oom": 17650, "curriculum": 8882, "##asa": 16782, "gatherings": 21403, "##bus": 8286, "\u203a": 1533, "cab": 9298, "veracruz": 23741, "racer": 14878, "medals": 6665, "131": 14677, "##nia": 6200, "##ffin": 15379, "paulo": 9094, "break": 3338, "moroccan": 17494, "##hane": 28006, "zac": 29250, "torpedo": 9862, "campeonato": 17675, "sucker": 26476, "southwest": 4943, "##dam": 17130, "cinema": 5988, "convenience": 15106, "1820s": 28504, "of": 1997, "concerned": 4986, "resin": 24604, "susannah": 20471, "##pw": 28400, "kemp": 20441, "pinched": 18521, "incredibly": 11757, "branding": 16140, "##\uff08": 30513, "raceway": 23018, "##\u0580": 29784, "bombed": 18897, "fined": 16981, "occupants": 18837, "lord": 2935, "decided": 2787, "scott": 3660, "##cta": 25572, "newcomer": 16866, "mistakes": 12051, "##ieri": 21939, "perch": 21836, "crimes": 6997, "ran": 2743, "feud": 13552, "chained": 22075, "##aria": 10980, "recipes": 19328, "##ee": 4402, "virginia": 3448, "##drive": 23663, "bogota": 21240, "##bala": 25060, "##lyn": 9644, "steel": 3886, "rate": 3446, "flirting": 20661, "\uff0c": 1989, "joke": 8257, "bite": 6805, "brewery": 12161, "arkansas": 6751, "heterosexual": 28229, "##zhi": 19436, "stockholm": 8947, "north": 2167, "gi": 21025, "closely": 4876, "##vating": 26477, "##uous": 8918, "tangent": 27250, "texas": 3146, "100": 2531, "meaningless": 25120, "realizing": 9301, "missiles": 10815, "##zz": 13213, "pain": 3255, "scrolls": 23074, "mining": 5471, "accommodations": 26167, "##cl": 20464, "[unused451]": 456, "threaten": 15686, "closes": 14572, "mont": 18318, "leaked": 15748, "bombs": 9767, "commemorating": 20646, ",": 1010, "connects": 8539, "noble": 7015, "##virus": 23350, "commanding": 7991, "supplemental": 27024, "iii": 3523, "pic": 27263, "demonstration": 10467, "mile": 3542, "disapproval": 21406, "consisted": 5031, "replace": 5672, "strikers": 26049, "##\u0436": 29743, "521": 26963, "nana": 17810, "##cb": 27421, "yamaha": 24031, "thoughts": 4301, "vanguard": 18332, "weaken": 23021, "breathless": 16701, "strikes": 9326, "programming": 4730, "berkshire": 15570, "siren": 19558, "rouen": 27030, "rowe": 20538, "breached": 25769, "compatibility": 21778, "1918": 4271, "clutch": 15357, "pitt": 15091, "mobilized": 27526, "cartoonist": 19659, "labourers": 24043, "##ldon": 19932, "shi": 11895, "##vor": 14550, "##\u2090": 30089, "creatures": 7329, "namely": 8419, "outdoor": 7254, "angelica": 19458, "##cit": 26243, "hedge": 17834, "[unused157]": 162, "perceive": 23084, "spying": 22624, "##dington": 21504, "struck": 4930, "president": 2343, "foods": 9440, "[unused280]": 285, "[unused306]": 311, "willard": 19138, "debts": 13930, "##pour": 27757, "##\uff1f": 30520, "##iy": 28008, "turnover": 20991, "judging": 13325, "lines": 3210, "##ub": 12083, "\u7fa9": 1936, "peace": 3521, "rasped": 28459, "insists": 16818, "turbine": 14027, "straight": 3442, "[unused87]": 88, "[unused741]": 746, "feat": 8658, "improve": 5335, "ruler": 7786, "[unused832]": 837, "sim": 21934, "delicate": 10059, "butcher": 14998, "recognizable": 20123, "##clops": 28659, "##walk": 17122, "era": 3690, "stripping": 23987, "mediterranean": 7095, "soc": 27084, "og": 13958, "moment": 2617, "alice": 5650, "bordered": 11356, "javanese": 27344, "ghetto": 17276, "##\u00ac": 29655, "risked": 22374, "groceries": 26298, "98": 5818, "highlighted": 11548, "##\u5ddd": 30361, "fritz": 12880, "boston": 3731, "populations": 7080, "tunnel": 5234, "hit": 2718, "bazaar": 22774, "jr": 3781, "swiss": 5364, "mane": 23055, "wallet": 15882, "wise": 7968, "acacia": 24766, "##olo": 12898, "commodities": 21955, "christianity": 7988, "byzantine": 8734, "##zyn": 23749, "streaks": 21295, "211": 19235, "zombies": 14106, "bobbed": 29579, "duc": 26363, "hardness": 23608, "insistent": 29204, "crystalline": 24628, "vengeance": 14096, "##gren": 13565, "##mut": 28120, "skier": 21294, "##\u1110": 30003, "##\u062e": 29821, "miami": 5631, "\u092e": 1331, "quinn": 8804, "sprayed": 25401, "repairing": 26296, "\u0280": 1127, "unfinished": 14342, "##ield": 12891, "[unused349]": 354, "fl": 13109, "thriving": 20319, "escaping": 13002, "mateo": 19327, "##\u6771": 30405, "moods": 27824, "derek": 7256, "warring": 28509, "depictions": 20818, "cube": 14291, "ever": 2412, "grain": 8982, "##\u2207": 30123, "hearth": 22885, "##nu": 11231, "city": 2103, "\u014b": 1106, "virtue": 11870, "recommendation": 12832, "##\uff01": 30512, "mused": 22335, "320": 13710, "radha": 26498, "spectra": 29237, "##ead": 13775, "\u2012": 1515, "starvation": 22611, "mythological": 21637, "mca": 22432, "\u624b": 1858, "spells": 11750, "platinum": 8899, "wizard": 10276, "trans": 9099, "##abad": 10542, "gingerly": 26961, "rosario": 17496, "inched": 25330, "fame": 4476, "wrongly": 29116, "##stra\u00dfe": 24967, "zoning": 27462, "prior": 3188, "interior": 4592, "superhero": 16251, "##elin": 18809, "extract": 14817, "tomas": 12675, "##eva": 13331, "[unused7]": 8, "eerie": 18823, "replies": 14054, "computation": 22334, "##via": 9035, "lodged": 20451, "sanford": 21153, "downhill": 19448, "barrio": 25676, "##sar": 10286, "reprint": 25364, "##uance": 26620, "sudanese": 25603, "neighbours": 14754, "bronx": 14487, "dublin": 5772, "##\u0e15": 29947, "passion": 6896, "parameters": 11709, "clemson": 25906, "##\u30c1": 30236, "1980s": 3865, "tend": 7166, "degree": 3014, "\u5973": 1815, "ponder": 29211, "featured": 2956, "championed": 28683, "pianist": 9066, "atari": 18978, "conferences": 9281, "##nikov": 22576, "132": 14078, "pavel": 18635, "\u30d2": 1719, "hacking": 23707, "##acle": 18630, "recognizing": 14622, "[unused993]": 998, "hind": 17666, "seton": 28796, "knight": 5000, "educators": 19156, "termed": 12061, "bits": 9017, "##\u043e": 14150, "hinges": 25484, "##md": 26876, "[unused133]": 138, "[unused536]": 541, "surprises": 20096, "mcgill": 17919, "giving": 3228, "ya": 8038, "fetal": 25972, "denial": 14920, "schmidt": 12940, "\u30a1": 1692, "neatly": 15981, "discount": 19575, "##sse": 11393, "waters": 5380, "responsibility": 5368, "fertility": 17376, "209": 19348, "exploitation": 14427, "traverse": 20811, "enormous": 8216, "broadcasts": 8960, "face": 2227, "##psy": 18075, "##ctive": 15277, "\u0e2a": 1420, "constrained": 27570, "\u0127": 1103, "tuition": 15413, "contingent": 15445, "triassic": 29529, "routinely": 19974, "twenty": 3174, "##rted": 17724, "illicit": 25049, "intact": 10109, "exploring": 11131, "sister": 2905, "petty": 11612, "customized": 28749, "restrictive": 25986, "wrong": 3308, "speeding": 21485, "accepts": 13385, "masonic": 21152, "car": 2482, "##lke": 28143, "lowell": 15521, "connie": 16560, "##lk": 13687, "calmed": 20869, "\u9053": 1957, "matthew": 5487, "ashe": 13402, "standalone": 26609, "##\u5bbf": 30352, "cramped": 22766, "inflated": 29561, "confirm": 12210, "confidently": 28415, "spears": 13957, "adequate": 11706, "females": 3801, "goth": 25976, "shadowed": 25843, "libraries": 8860, "belmont": 17449, "wc": 15868, "##uses": 25581, "\u1102": 1456, "##tary": 18219, "migrants": 16836, "smeared": 25400, "##ishly": 19983, "rebirth": 22785, "fern": 20863, "##ais": 15593, "##mx": 22984, "progressed": 12506, "faber": 21720, "reptiles": 20978, "given": 2445, "administrative": 3831, "das": 8695, "\u1d47": 1497, "simon": 4079, "micah": 17665, "buffy": 18467, "volkswagen": 18817, "auguste": 20758, "quartet": 8530, "232": 20666, "lying": 4688, "hampson": 21780, "sarcastically": 23800, "retreating": 17512, "banner": 9484, "##meter": 22828, "courts": 5434, "rebuilt": 7183, "brush": 8248, "managing": 6605, "indifference": 25920, "[unused223]": 228, "messy": 18307, "negotiate": 13676, "java": 9262, "plan": 2933, "baghdad": 13952, "##bery": 22509, "vocabulary": 16188, "issued": 3843, "kitchener": 27154, "##\u00a7": 29650, "levine": 17780, "[unused227]": 232, "viet": 19710, "national": 2120, "underwear": 14236, "slicing": 26514, "loading": 10578, "yo": 10930, "##ema": 14545, "##85": 27531, "lanes": 10914, "palais": 22113, "##ono": 17175, "sulawesi": 29078, "tackles": 10455, "bologna": 14102, "passing": 4458, "sneaking": 20727, "comb": 22863, "architect": 4944, "##cia": 7405, "127": 13029, "##like": 10359, "rough": 5931, "##hoe": 14490, "tess": 15540, "wave": 4400, "stanis\u0142aw": 26133, "##arium": 17285, "groningen": 29070, "fades": 26784, "apparent": 6835, "complied": 26946, "##\u092d": 29866, "[unused871]": 876, "mas": 16137, "segregation": 18771, "1830": 9500, "henry": 2888, "##uppe": 29547, "monasteries": 15947, "scored": 3195, "[unused105]": 110, "marriage": 3510, "inducted": 8120, "##aceous": 25560, "indirect": 14958, "privy": 14452, "allegedly": 9382, "emi": 12495, "tilting": 21788, "horrified": 14603, "##enne": 24336, "barangay": 20937, "wanna": 10587, "cartridges": 22998, "celebrated": 6334, "philadelphia": 4407, "plight": 24525, "grupo": 26678, "eighteenth": 12965, "vectors": 19019, "##oki": 23212, "##aday": 28039, "hamid": 24811, "execute": 15389, "##num": 19172, "granite": 9753, "##01": 24096, "concentration": 6693, "##way": 4576, "choke": 16769, "355": 26271, "comprised": 11539, "wildly": 13544, "phil": 6316, "##\u2074": 30073, "##_": 29638, "\u90fd": 1961, "##50": 12376, "junk": 18015, "myriad": 25028, "try": 3046, "equivalence": 27841, "\u1d62": 1507, "##cute": 26869, "##kis": 14270, "citation": 11091, "behave": 16582, "transitions": 22166, "folded": 6999, "\u3055": 1656, "pierce": 9267, "stanley": 6156, "parramatta": 22820, "##mum": 27147, "vegas": 7136, "gum": 16031, "lowlands": 26411, "lacking": 11158, "act": 2552, "natural": 3019, "judaism": 13725, "[unused633]": 638, "manufacturers": 8712, "martina": 23508, "botswana": 19414, "lakshmi": 21352, "kangaroo": 21652, "communicating": 20888, "suzy": 28722, "regal": 21279, "##wc": 16526, "demonstrators": 28337, "##ic": 2594, "paintings": 5265, "##chon": 24561, "hydroelectric": 18541, "jordanian": 26276, "mer": 21442, "##\u0576": 29778, "disbanded": 8532, "plays": 3248, "musically": 21385, "prospective": 17464, "mhz": 11413, "essay": 9491, "devout": 26092, "rosary": 28291, "offers": 4107, "troupe": 16017, "etienne": 16821, "divided": 4055, "hurting": 11878, "iqbal": 28111, "\u66f2": 1870, "weighted": 18215, "antics": 27440, "##rga": 28921, "highways": 10292, "storytelling": 20957, "capitalist": 19640, "tripoli": 21841, "seeming": 16064, "enzyme": 9007, "##tly": 14626, "lacked": 10858, "cfl": 18830, "devote": 23313, "elegant": 11552, "[unused865]": 870, "marital": 23143, "##unt": 16671, "digger": 28661, "[unused331]": 336, "johnny": 5206, "solitude": 22560, "ying": 20879, "diesel": 7937, "[unused78]": 79, "[unused742]": 747, "bully": 20716, "trieste": 25199, "sloane": 17558, "##ffi": 26989, "torino": 24737, "neighborhoods": 11681, "maddie": 17805, "revelation": 11449, "explored": 10641, "fees": 9883, "composed": 3605, "luz": 26214, "\u116a": 1476, "screams": 11652, "pup": 26781, "tent": 9311, "##nco": 15305, "4a": 26424, "76": 6146, "pharmacy": 13882, "siege": 6859, "[unused494]": 499, "rock": 2600, "generals": 11593, "\u06c1": 1308, "intersects": 17349, "driven": 5533, "hotter": 22302, "hormones": 20752, "berkeley": 8256, "bjp": 24954, "##wley": 20609, "loneliness": 20334, "utterly": 12580, "vein": 12818, "ae": 29347, "domino": 23968, "stat": 28093, "lasts": 16180, "irregularities": 28868, "stalks": 29594, "depict": 17120, "reach": 3362, "wakefield": 16045, "seller": 14939, "##vati": 20203, "##rized": 18425, "jiangsu": 28091, "seychelles": 27438, "kilda": 22633, "paso": 17161, "water": 2300, "rice": 5785, "keeps": 7906, "momentum": 11071, "thermal": 9829, "prescott": 20719, "impact": 4254, "fernando": 9158, "booths": 27612, "##xin": 20303, "darted": 14051, "1811": 13086, "alliance": 4707, "pac": 14397, "renewable": 13918, "contestant": 10832, "##lem": 16930, "bolted": 18088, "[unused266]": 271, "very": 2200, "##olio": 29401, "jaenelle": 20757, "trafford": 26894, "##\u044f": 17432, "views": 5328, "conrad": 10931, "##lei": 23057, "begged": 12999, "wholesale": 17264, "us": 2149, "roared": 14242, "clinging": 17892, "unclear": 10599, "anita": 12918, "service": 2326, "[unused388]": 393, "forearm": 16148, "##nat": 19833, "inwardly": 28710, "ignorance": 18173, "##dio": 20617, "bunny": 16291, "edit": 10086, "##cape": 19464, "##cm": 27487, "cross": 2892, "blasted": 18461, "oceanic": 18955, "\u0433": 1183, "repealed": 21492, "pink": 5061, "slung": 20078, "republished": 24476, "southbound": 19751, "acknowledges": 28049, "##j": 3501, "baker": 6243, "##tious": 20771, "claw": 15020, "appropriated": 29223, "aluminium": 14794, "give": 2507, "da": 4830, "264": 21611, "\u045a": 1216, "differential": 11658, "handful": 9210, "[unused489]": 494, "monetary": 12194, "contaminated": 19450, "qc": 25196, "bump": 16906, "prompt": 25732, "##ib": 12322, "tin": 9543, "stephenson": 19789, "phosphate": 17344, "[unused745]": 750, "toxic": 11704, "pursuant": 27081, "terrific": 27547, "##vere": 28943, "read": 3191, "cargo": 6636, "##mo": 5302, "outputs": 27852, "odessa": 19693, "hammersmith": 28420, "[unused307]": 312, "colder": 21399, "nowhere": 7880, "##ega": 29107, "piazza": 22463, "killer": 6359, "electrified": 18042, "bangladesh": 7269, "albanians": 25267, "##\u5317": 30307, "##ren": 7389, "usc": 15529, "sinatra": 19643, "shields": 11824, "##ams": 13596, "2021": 25682, "escort": 8620, "sea": 2712, "collects": 17427, "trembled": 14823, "##lton": 13947, "##owe": 29385, "innocence": 12660, "##etched": 29574, "freedoms": 22467, "consul": 11801, "chilled": 23362, "funk": 11962, "san": 2624, "uncover": 26944, "999": 25897, "blessed": 10190, "guerrero": 16938, "##imov": 25299, "allison": 10786, "sporadic": 24590, "[unused740]": 745, "papal": 12156, "barlow": 17803, "[SEP]": 102, "##nai": 26416, "condemned": 10033, "palma": 23985, "##crow": 24375, "\u3063": 1663, "##arus": 29133, "shane": 8683, "proceed": 10838, "##no": 3630, "vendors": 17088, "consumers": 10390, "##lce": 23314, "declines": 26451, "##scent": 27654, "embodied": 25405, "##ados": 28118, "inflammatory": 20187, "##\u5e78": 30367, "smyth": 28103, "defunct": 11984, "champion": 3410, "progressing": 27673, "##working": 21398, "growled": 8881, "##erie": 17378, "automatic": 6882, "hip": 5099, "strawberry": 16876, "abbreviation": 22498, "matter": 3043, "epilogue": 24297, "peninsular": 22682, "mechanics": 9760, "\u10e3": 1454, "hostess": 22566, "insisting": 22604, "stocked": 24802, "bryan": 8527, "candy": 9485, "literal": 18204, "##shire": 7430, "singers": 8453, "##etz": 26327, "kaitlyn": 28584, "coincide": 19680, "county": 2221, "##uary": 24384, "easily": 4089, "progression": 14967, "moisture": 14098, "70th": 26934, "grafton": 28680, "praise": 8489, "yarmouth": 28792, "##\u8033": 30463, "poznan": 18320, "posts": 8466, "recorder": 14520, "nancy": 7912, "justin": 6796, "crying": 6933, "write": 4339, "##rio": 9488, "scranton": 26123, "adventurer": 29506, "shorts": 9132, "misunderstanding": 24216, "[unused626]": 631, "poles": 10567, "##lance": 23078, "##vine": 20534, "inquired": 24849, "course": 2607, "burr": 22715, "collided": 17745, "edo": 18314, "[unused143]": 148, "##we": 8545, "##lde": 17920, "##ritan": 25279, "1777": 16144, "##\u20ac": 30102, "[unused272]": 277, "claims": 4447, "##gonal": 20028, "theatre": 3004, "maintenance": 6032, "tread": 29449, "ke": 17710, "##rdial": 25070, "issue": 3277, "minors": 18464, "experienced": 5281, "cellar": 15423, "archie": 13255, "hooves": 28399, "trapping": 22977, "rowan": 14596, "[unused518]": 523, "references": 7604, "leaf": 7053, "##uz": 17040, "##lis": 6856, "triumph": 10911, "logging": 15899, "##oso": 19137, "gomez": 12791, "compassionate": 29353, "##illo": 10486, "customer": 8013, "sevilla": 29363, "wembley": 16538, "##ifies": 14144, "##chet": 20318, "off": 2125, "syn": 19962, "##very": 27900, "sideways": 12579, "fire": 2543, "\u00f0": 1098, "peasant": 14539, "midway": 12213, "phrase": 7655, "##ulated": 8898, "reasonable": 9608, "[unused461]": 466, "ensures": 21312, "arlington": 13929, "\uff09": 1988, "scorer": 10835, "mediated": 19872, "classics": 10002, "ain": 7110, "1816": 12357, "##acies": 20499, "gordon": 5146, "##rn": 6826, "fivb": 28423, "##\u0131": 11722, "sighting": 29426, "scratch": 11969, "clock": 5119, "401": 22649, "newmarket": 22489, "envoy": 19918, "academie": 19669, "eleanor": 10508, "guiana": 23568, "317": 26628, "subordinate": 15144, "guiding": 14669, "##\u03c9": 29739, "promising": 10015, "betsy": 22396, "distinctive": 8200, "courthouse": 10816, "block": 3796, "vary": 8137, "notwithstanding": 26206, "##ox": 11636, "counters": 24094, "burroughs": 25991, "##eving": 23559, "strictly": 9975, "##nis": 8977, "00": 4002, "newer": 10947, "##ivo": 20984, "caspian": 25893, "inherit": 22490, "mavericks": 28330, "\u00b5": 1085, "buffalo": 6901, "accept": 5138, "inc": 4297, "\u2071": 1537, "convention": 4680, "lucie": 28831, "##chy": 11714, "##mity": 16383, "##kan": 9126, "brew": 24702, "\u00df": 1096, "cursed": 10678, "##kata": 29123, "##lang": 25023, "plato": 18858, "frogs": 17582, "associate": 5482, "##my": 8029, "lesions": 22520, "consistent": 8335, "guangzhou": 18693, "shielding": 25553, "pinning": 22866, "juniors": 16651, "munchen": 25802, "bin": 8026, "bargain": 17113, "gills": 29468, "siam": 25583, "traders": 13066, "irritated": 15560, "b": 1038, "basically": 10468, "munro": 20923, "mouths": 15076, "rode": 8469, "210": 12875, "\u209a": 1569, "point": 2391, "##dry": 21190, "praying": 14488, "rates": 6165, "presence": 3739, "##\u025b": 29275, "digital": 3617, "compiling": 21953, "##logic": 27179, "contributing": 8020, "confuse": 28679, "fatalities": 20871, "[unused59]": 60, "fontaine": 25749, "linguist": 22978, "thierry": 26413, "simone": 14072, "premier": 4239, "sofie": 26359, "\u0986": 1348, "randomly": 18154, "##400": 29537, "bust": 13950, "testified": 14914, "butterfly": 9112, "shutter": 28180, "newly": 4397, "midfield": 23071, "life": 2166, "##hila": 26415, "##nery": 27415, "psychologist": 15034, "cuts": 7659, "1836": 10081, "##nage": 27031, "sensed": 10596, "supports": 6753, "garcia": 7439, "##rca": 18992, "harris": 5671, "regulate": 15176, "##kley": 22315, "##eyer": 20211, "association": 2523, "##ess": 7971, "int": 20014, "primate": 25662, "redhead": 26705, "monster": 6071, "brasil": 21133, "originally": 2761, "mummy": 22788, "downstream": 13248, "crept": 13147, "##phi": 21850, "ada": 15262, "##cap": 17695, "compulsory": 14770, "20s": 27074, "kapoor": 17129, "##inkles": 28562, "visual": 5107, "dissipated": 22572, "##tails": 22081, "parishes": 11600, "preserved": 6560, "[unused438]": 443, "confirmation": 13964, "##eak": 25508, "skaters": 24789, "sixteenth": 14683, "independent": 2981, "##hya": 17915, "uniformed": 25189, "##\u02c8": 29715, "##\u00ab": 29654, "blades": 10491, "burgundy": 18383, "##mism": 26725, "ferris": 23202, "1876": 7326, "##vre": 12229, "##\u20b1": 30103, "salle": 18005, "big": 2502, "transitional": 17459, "bahamas": 17094, "weapon": 5195, "dial": 13764, "lars": 16357, "[unused638]": 643, "drugs": 5850, "strife": 27865, "modifications": 12719, "prevailed": 19914, "302": 22060, "##ael": 21147, "rising": 4803, "toured": 7255, "60th": 20928, "##\u2012": 30050, "##\u2297": 30140, "layton": 23103, "burkina": 23089, "[unused736]": 741, "vhs": 17550, "novi": 21574, "large": 2312, "curiosity": 10628, "##keeping": 18321, "##sburg": 9695, "1742": 25704, "faction": 10233, "##jk": 15992, "illegitimate": 18102, "layered": 21323, "humour": 17211, "submit": 12040, "periods": 6993, "dade": 27647, "junta": 22450, "devoted": 7422, "roxy": 23682, "finely": 22126, "cries": 12842, "##kova": 18810, "##vas": 12044, "277": 25578, "superior": 6020, "##\u30a3": 30220, "often": 2411, "##\u05db": 29798, "drives": 9297, "321": 24030, "correctional": 20873, "sarah": 4532, "##\u30c6": 30239, "roderick": 28326, "explore": 8849, "hungarians": 24027, "senators": 10153, "moody": 14434, "dayton": 14700, "dollars": 6363, "lose": 4558, "manager": 3208, "\u5e78": 1841, "bared": 23485, "comedies": 22092, "netting": 26909, "pulsed": 24107, "indy": 18214, "stake": 8406, "strong": 2844, "precipitation": 13511, "[unused156]": 161, "1995": 2786, "##uti": 21823, "employers": 12433, "##pres": 28994, "robbery": 13742, "##\u535a": 30312, "licked": 11181, "singapore": 5264, "defend": 6985, "nara": 27544, "##pine": 19265, "268": 25143, "tailor": 22701, "ranges": 8483, "condemning": 28525, "##ulf": 21007, "hurdles": 18608, "kitten": 18401, "##rified": 22618, "##bol": 14956, "sigismund": 26748, "skeleton": 13526, "##gm": 21693, "harrington": 19760, "4000": 20143, "wrath": 14532, "land": 2455, "[unused850]": 855, "preparing": 8225, "hacked": 28719, "herbert": 7253, "lantern": 12856, "corrupted": 27279, "##pus": 12207, "vedic": 25824, "bullying": 18917, "##nn": 10695, "manpower": 22039, "##ui": 10179, "benedict": 12122, "sells": 15187, "\u8ecd": 1955, "vinyl": 8877, "malaya": 19979, "economy": 4610, "ton": 10228, "surfer": 27747, "drake": 7867, "hilbert": 27434, "shady": 22824, "##oll": 14511, "umbrella": 12977, "kelley": 19543, "[unused935]": 940, "winner": 3453, "largely": 4321, "fishing": 5645, "\u5ca1": 1832, "##tori": 29469, "1886": 6929, "anticipating": 26481, "jail": 7173, "##\u25cf": 30146, "##gis": 17701, "gap": 6578, "op": 6728, "salvador": 10582, "east": 2264, "churning": 26765, "benton": 18685, "london": 2414, "##lta": 24458, "##cum": 24894, "##8": 2620, "ash": 6683, "audience": 4378, "##lved": 26832, "defaulted": 17265, "[unused833]": 838, "##wan": 7447, "instrumental": 6150, "visitation": 28877, "minsk": 20790, "tracing": 16907, "according": 2429, "friend": 2767, "[unused782]": 787, "arcadia": 25178, "july": 2251, "[unused180]": 185, "punishment": 7750, "threatened": 5561, "rosenthal": 29062, "\u5343": 1784, "stuttgart": 13022, "winger": 16072, "##ners": 16912, "handheld": 27291, "backs": 10457, "oddly": 15056, "##vir": 21663, "[unused360]": 365, "schneider": 15159, "numbering": 15200, "affirmed": 19768, "outcome": 9560, "conor": 20545, "robson": 23698, "##\u5973": 30341, "##ual": 8787, "lashed": 25694, "ties": 7208, "rocking": 14934, "bethlehem": 19360, "armenian": 7508, "heroes": 7348, "wind": 3612, "##emy": 26662, "farther": 8736, "##tten": 25970, "marred": 24563, "##do": 3527, "serra": 22737, "minogue": 27736, "lila": 19286, "letter": 3661, "unlimited": 14668, "tap": 11112, "amenities": 19870, "death": 2331, "gen": 8991, "fein": 27132, "rebuild": 14591, "do": 2079, "##xious": 25171, "hobart": 14005, "prone": 13047, "stages": 5711, "bryn": 19904, "eagles": 8125, "beliefs": 9029, "plant": 3269, "rudolf": 12794, "grades": 7022, "tibetan": 11953, "sar": 18906, "ventured": 20510, "1841": 9840, "##rned": 21119, "\u0578": 1232, "scrapped": 14553, "##zzle": 17644, "ellis": 8547, "athletics": 6482, "tracked": 12808, "##lson": 14881, "##oids": 17086, "quilt": 27565, "foo": 29379, "potter": 10693, "1990s": 4134, "flows": 6223, "##brand": 23544, "cottages": 18918, "supplying": 17731, "incapable": 19907, "##krishna": 23017, "w": 1059, "##gna": 16989, "ionic": 24774, "billboard": 4908, "milk": 6501, "ratings": 8599, "keepers": 24018, "blinds": 28279, "crosses": 7821, "##town": 4665, "##ahu": 21463, "ann": 5754, "dislike": 18959, "##86": 20842, "[unused815]": 820, "tack": 26997, "liter": 23675, "lobster": 27940, "jun": 12022, "##\u09ac": 29904, "hunter": 4477, "callahan": 25668, "misleading": 22369, "jensen": 14857, "electrically": 29103, "##cu": 10841, "whistle": 13300, "hd": 10751, "recalling": 21195, "drenched": 25265, "18th": 4985, "wehrmacht": 23443, "plea": 14865, "bot": 28516, "##rdy": 17460, "eaten": 8828, "hooks": 18008, "##iest": 10458, "##\u00be": 29665, "directors": 5501, "subdivision": 12572, "persons": 5381, "chuck": 8057, "##estra": 26199, "personally": 7714, "explains": 7607, "1897": 6347, "grammy": 8922, "bottles": 11015, "\u4e0d": 1744, "singular": 13048, "hopes": 8069, "##\u063a": 29831, "clarence": 11805, "panted": 28149, "##sily": 26863, "intervals": 14025, "blinking": 15997, "et": 3802, "##yre": 16363, "anarchist": 18448, "maxim": 20446, "uruguayan": 23464, "fallon": 16443, "##bility": 8553, "confinement": 21551, "\u548c": 1796, "##nova": 13455, "titan": 16537, "lurking": 24261, "map": 4949, "soo": 17111, "hurley": 25124, "inhaled": 15938, "blank": 8744, "corresponded": 27601, "##escu": 19434, "88": 6070, "mario": 7986, "rejoined": 14311, "floor": 2723, "flush": 13862, "politically": 10317, "federally": 20892, "ely": 20779, "vapor": 20064, "exploded": 9913, "famously": 18172, "vicente": 17280, "##ama": 8067, "monuments": 10490, "extras": 26279, "archangel": 28185, "onions": 24444, "shang": 29382, "##arding": 29154, "newtown": 26382, "palazzo": 18482, "macy": 20914, "liquidation": 28763, "##combe": 14149, "pablo": 11623, "aspirations": 22877, "identities": 15702, "moi": 25175, "aground": 29406, "dioceses": 26586, "being": 2108, "rammed": 27653, "handler": 28213, "aside": 4998, "##tian": 10772, "moors": 24812, "carmen": 11425, "[unused595]": 600, "##vi": 5737, "fluttered": 18360, "va": 12436, "singer": 3220, "##orus": 21694, "bolivian": 26075, "rushed": 6760, "##\u2217": 30125, "excitedly": 23885, "everett": 15160, "1641": 25702, "\u2099": 1568, "deformation": 29130, "pudding": 29593, "cafe": 7668, "##bib": 28065, "confidential": 18777, "seamen": 28671, "[unused351]": 356, "pornography": 19378, "link": 4957, "hanna": 10579, "stuff": 4933, "taxa": 23726, "commune": 5715, "method": 4118, "1732": 27582, "samba": 29086, "airfield": 9087, "listeners": 13810, "est": 9765, "[unused208]": 213, "\u7592": 1913, "supplementary": 26215, "ambulance": 10771, "statement": 4861, "abandoned": 4704, "moves": 5829, "moses": 9952, "arched": 9194, "ivy": 7768, "power": 2373, "##po": 6873, "deserve": 10107, "facilitated": 19601, "##mobile": 17751, "spaniards": 20999, "\u30a4": 1695, "##gaon": 27073, "edmund": 9493, "biography": 8308, "dahl": 27934, "1795": 13397, "a2": 22441, "ich": 22564, "1987": 3055, "##sei": 20240, "[unused219]": 224, "neil": 6606, "[unused417]": 422, "343": 27810, "##evsky": 27015, "councillors": 13189, "lowering": 13845, "survive": 5788, "workshops": 9656, "organism": 15923, "rich": 4138, "infection": 8985, "##ogical": 20734, "328": 25256, "1920": 4444, "guatemala": 11779, "dialect": 9329, "emphasizes": 20618, "##zone": 15975, "borrowed": 11780, "leonard": 7723, "ballot": 10428, "liszt": 26273, "##s\u0142aw": 23305, "##aster": 24268, "blossoms": 28766, "bunch": 9129, "ii": 2462, "francoise": 28979, "\u5e73": 1839, "denounced": 17787, "insights": 20062, "across": 2408, "##ules": 16308, "slayer": 20005, "episodes": 4178, "streaked": 21276, "smells": 14747, "##tur": 20689, "flown": 10583, "strains": 18859, "##anger": 25121, "\u2264": 1608, "dear": 6203, "##ming": 6562, "blessings": 24618, "sodium": 13365, "republic": 3072, "operas": 14281, "[unused177]": 182, "expansion": 4935, "##was": 17311, "steals": 15539, "consolidation": 17439, "##\u5b87": 30345, "##market": 20285, "dice": 18740, "slug": 23667, "zealand": 3414, "\u6625": 1867, "attempted": 4692, "##lz": 23858, "##urized": 28405, "apps": 18726, "##ois": 10054, "dukes": 16606, "balloon": 13212, "sentences": 11746, "exact": 6635, "1942": 3758, "missy": 25019, "labs": 13625, "vertices": 18984, "grabbing": 9775, "1851": 8792, "dixon": 11357, "[unused656]": 661, "cactus": 23265, "vessels": 6470, "celebrating": 12964, "\u5317": 1781, "inferior": 14092, "spelling": 11379, "##tree": 13334, "symbolism": 22050, "urgent": 13661, "offences": 18421, "##bron": 21337, "citing": 8951, "##ffle": 18142, "parent": 6687, "barrage": 19359, "townsville": 27492, "hollis": 27477, "##4": 2549, "better": 2488, "usb": 18833, "proprietary": 16350, "foul": 12487, "cock": 10338, "##sum": 17421, "##hay": 24180, "subunit": 24312, "##nal": 12032, "##ow": 5004, "samantha": 11415, "mauritius": 18004, "elmer": 21464, "slalom": 19617, "fastest": 7915, "woman": 2450, "lavender": 20920, "hendrix": 20645, "trois": 25527, "giuseppe": 12574, "like": 2066, "[unused244]": 249, "rested": 8614, "vulnerable": 8211, "##mere": 13759, "redemption": 18434, "1656": 28434, "[unused499]": 504, "##shore": 19208, "marx": 13518, "raids": 11217, "reception": 7684, "1857": 8204, "extremes": 28800, "\u56db": 1798, "##baldi": 28807, "##vara": 24516, "timing": 10984, "275": 17528, "releasing": 8287, "readily": 12192, "converge": 28314, "genre": 6907, "wills": 17234, "zu": 16950, "linguistics": 15397, "appeal": 5574, "##\u116d": 30013, "##\u0447": 29752, "infiltrate": 29543, "verlag": 14552, "estimates": 10035, "your": 2115, "[unused239]": 244, "greeks": 13176, "jackets": 17764, "sic": 14387, "swinging": 11820, "[unused226]": 231, "ek": 23969, "arise": 13368, "orbits": 20347, "jian": 29214, "borrow": 17781, "pulses": 23894, "sato": 20251, "spawned": 18379, "blackwell": 18776, "pending": 14223, "overturned": 17068, "##ice": 6610, "crawley": 28854, "##osta": 28696, "oak": 6116, "1767": 21502, "laser": 9138, "roof": 4412, "royals": 15426, "##tique": 28437, "store": 3573, "##rsa": 22381, "bolsheviks": 28755, "downloadable": 26720, "viola": 10482, "##chenko": 25872, "sumatra": 18262, "brighton": 10309, "wandering": 13071, "friction": 15012, "kelvin": 24810, "blaine": 20002, "fluffy": 27036, "resentment": 20234, "merely": 6414, "##weig": 27204, "flowering": 10902, "miocene": 26926, "\u30e9": 1731, "cigar": 19135, "djs": 23837, "seventies": 26232, "destiny": 10461, "computational": 15078, "burden": 10859, "salaries": 20566, "dissatisfaction": 28237, "fascism": 23779, "darren": 12270, "bypass": 11826, "clashed": 22600, "finland": 6435, "colored": 6910, "##\u0989": 29886, "museum": 2688, "bills": 8236, "tex": 16060, "dance": 3153, "magnum": 19691, "james": 2508, "jeffrey": 10799, "bartlett": 20081, "swans": 26699, "melvin": 20993, "billions": 25501, "lifting": 8783, "ardent": 25314, "octopus": 24318, "providing": 4346, "businessman": 6883, "pornographic": 26932, "##lle": 6216, "leigh": 11797, "##unes": 26639, "lifespan": 26462, "byron": 12234, "crows": 21623, "\u5f73": 1845, "##ler": 3917, "##moto": 15319, "react": 10509, "almighty": 26668, "picasso": 22457, "linking": 11383, "arriving": 7194, "unseen": 16100, "bastion": 26829, "griffith": 14135, "diver": 17856, "shells": 10986, "take": 2202, "incompatible": 25876, "ample": 20851, "val": 11748, "##stis": 29472, "suppress": 16081, "archers": 23118, "privacy": 9394, "upside": 14961, "##tery": 20902, "flanking": 24958, "1947": 4006, "africa": 3088, "##thy": 16921, "##ung": 5575, "participation": 6577, "doubted": 12979, "litres": 25783, "mock": 12934, "##oke": 11045, "hen": 21863, "hickory": 28158, "inadequate": 14710, "##\u5948": 30340, "halls": 9873, "distraught": 25348, "baritone": 14458, "typical": 5171, "whimpered": 26184, "republics": 24822, "brooding": 28902, "stroking": 14943, "clutched": 13514, "##>": 29631, "challenged": 8315, "modernism": 27254, "sony": 8412, "chatham": 16727, "mcnamara": 28340, "albania": 10407, "mw": 12464, "alphabet": 12440, "grassy": 22221, "nautical": 11339, "[unused188]": 193, "navarro": 23524, "midday": 22878, "rage": 7385, "1661": 24046, "\u10dc": 1449, "##ira": 7895, "parallel": 5903, "confines": 25722, "407": 28941, "sociological": 24846, "##user": 20330, "fischer": 13042, "enactment": 26465, "hundreds": 5606, "middletown": 28747, "bricks": 14219, "microwave": 18302, "[unused101]": 106, "cocktail": 18901, "son": 2365, "leaning": 6729, "flyer": 23821, "glowing": 10156, "partial": 7704, "\u116d": 1477, "downfall": 22252, "somethin": 27941, "##page": 13704, "youths": 19634, "tissues": 14095, "spectacular": 12656, "graded": 21976, "solids": 26778, "uruguay": 11724, "physicist": 13702, "exhibiting": 22922, "thursday": 9432, "greasy": 26484, "hoover": 17443, "antibody": 27781, "splash": 17624, "pursuits": 23719, "vogue": 17734, "##rsk": 27472, "william": 2520, "arenas": 26434, "##\u4ebb": 30283, "parental": 18643, "##eron": 26534, "annabelle": 24722, "231": 20304, "##din": 8718, "bal": 28352, "caressing": 25296, "felicia": 27579, "examples": 4973, "breadth": 25291, "bearing": 7682, "distant": 6802, "adolph": 28564, "disperse": 28736, "analysts": 18288, "princess": 4615, "cycles": 12709, "folly": 26272, "[unused837]": 842, "juveniles": 25406, "pmid": 20117, "rappers": 28257, "roaring": 17197, "kendrick": 25341, "##utive": 28546, "gifts": 9604, "signifies": 27353, "dinner": 4596, "risky": 19188, "##mann": 5804, "vegetation": 10072, "showered": 23973, "spite": 8741, "cs": 20116, "lineup": 10515, "##\u660e": 30391, "rico": 7043, "sean": 5977, "##tray": 28473, "oxygen": 7722, "[unused281]": 286, "griffiths": 21960, "neill": 11511, "election": 2602, "##omic": 22026, "premises": 10345, "gleamed": 25224, "refugees": 8711, "labeling": 28847, "grammatical": 24402, "patches": 13864, "comparison": 7831, "complaining": 17949, "##pes": 10374, "[unused646]": 651, "tentacles": 24719, "seam": 25180, "tier": 7563, "integrate": 17409, "tails": 17448, "\u9999": 1979, "rainy": 16373, "hicks": 17221, "centro": 18120, "tuna": 24799, "chance": 3382, "equality": 9945, "allowed": 3039, "budge": 24981, "likes": 7777, "##paper": 23298, "elusive": 26475, "##55": 24087, "yates": 20356, "petit": 17268, "brute": 26128, "elbows": 13690, "departed": 7745, "brody": 19631, "gunnar": 26138, "calais": 23116, "angry": 4854, "modular": 19160, "gentlemen": 11218, "##reen": 28029, "donate": 21357, "[unused539]": 544, "sync": 26351, "hello": 7592, "##aton": 22436, "then": 2059, "indicators": 20390, "gather": 8587, "contraction": 21963, "impatience": 28011, "jelly": 20919, "[unused875]": 880, "lullaby": 29149, "porte": 25927, "mgm": 15418, "##esis": 19009, "metaphor": 19240, "##bank": 9299, "discuss": 6848, "##chule": 20269, "nuts": 12264, "pioneered": 16193, "distracted": 11116, "##cup": 15569, "bret": 25626, "bleeding": 9524, "strategy": 5656, "buckinghamshire": 21712, "models": 4275, "##tility": 18724, "##cola": 26289, "uneven": 17837, "##\u1d57": 30041, "##wheel": 22920, "easiest": 25551, "ngos": 22165, "##ship": 9650, "galerie": 17941, "timmy": 27217, "##\u91ce": 30489, "clues": 15774, "##\u0cb0": 29937, "patti": 22732, "whorls": 25637, "alan": 5070, "\u0131": 1104, "seafood": 23621, "##\u7f8e": 30461, "installing": 23658, "\u767a": 1914, "basketball": 3455, "volumes": 6702, "factory": 4713, "command": 3094, "##titled": 21309, "guild": 9054, "fridge": 16716, "caroline": 7981, "[unused771]": 776, "jerk": 12181, "##ulum": 25100, "137": 14989, "gotham": 22814, "bee": 10506, "mace": 19382, "emmanuel": 14459, "nottinghamshire": 20126, "##reate": 29313, "gaelic": 11196, "bankrupt": 17482, "1612": 29186, "thirties": 26313, "##cular": 15431, "befriended": 23386, "\u2021": 1527, "teaches": 12011, "napoleon": 8891, "cave": 5430, "[unused216]": 221, "traditionally": 6964, "sarcastic": 22473, "adverse": 15316, "flicked": 12777, "steve": 3889, "butler": 7055, "avery": 12140, "wary": 15705, "issues": 3314, "##relli": 22948, "workout": 27090, "schwartz": 16756, "growth": 3930, "benedictine": 21139, "exposure": 7524, "easing": 24070, "cervical": 28711, "si": 9033, "##des": 6155, "##sation": 26652, "hamlet": 8429, "##\u1100": 29991, "restraints": 28054, "[unused361]": 366, "thwarted": 28409, "retaining": 12823, "invariant": 23915, "nurses": 11500, "breast": 7388, "changes": 3431, "pipeline": 13117, "tub": 14366, "##aging": 16594, "##\u2032": 30066, "similarly": 6660, "gaunt": 27534, "barnet": 26864, "sparrow": 19479, "archaeology": 12009, "associations": 8924, "counterpart": 13637, "##oop": 18589, "ceo": 5766, "eliminate": 11027, "zionist": 21379, "deterioration": 26118, "[unused731]": 736, "beloved": 11419, "lyle": 21971, "ottawa": 8166, "286": 24921, "##pac": 19498, "regatta": 26848, "cancelled": 8014, "slacks": 27786, "boiled": 17020, "stored": 8250, "grazing": 15400, "britney": 29168, "[unused722]": 727, "##sive": 12742, "songwriters": 20602, "##liness": 20942, "##fied": 10451, "tom": 3419, "recalled": 7383, "##kney": 26993, "attitude": 7729, "antique": 14361, "##hre": 28362, "mackenzie": 11407, "##ld": 6392, "norte": 19931, "chickens": 21868, "spoken": 5287, "na": 6583, "lithuania": 9838, "minority": 7162, "##wd": 21724, "exchequer": 28889, "\u0f51": 1428, "locking": 14889, "##lusion": 24117, "1893": 6489, "sinks": 23462, "specified": 9675, "##\u00bb": 29663, "ankara": 20312, "employment": 6107, "##ln": 19666, "\u056c": 1226, "tr": 19817, "fancy": 11281, "found": 2179, "newest": 14751, "understand": 3305, "railway": 2737, "cha": 15775, "indices": 29299, "indicative": 24668, "mainline": 20575, "\u1161": 1470, "rhetoric": 17871, "##pone": 29513, "##ouin": 25058, "ideally": 28946, "preferred": 6871, "##uron": 21017, "throbbing": 17061, "ceylon": 16447, "sloping": 24724, "cr": 13675, "contributed": 5201, "dimension": 9812, "toyota": 11742, "maiden": 10494, "thailand": 6504, "olga": 15585, "##]": 29636, "adapted": 5967, "*": 1008, "inmate": 24467, "minus": 15718, "\u0cbe": 1402, "interpret": 17841, "[unused587]": 592, "##zzled": 17269, "requires": 5942, "thrive": 25220, "##\u30db": 30248, "##kari": 20224, "##yse": 23274, "mayfair": 28387, "##owing": 14138, "\u0921": 1321, "ruth": 7920, "speedway": 10688, "andes": 18096, "welch": 17939, "sahib": 23513, "restaurants": 7884, "geology": 13404, "kingsley": 22819, "lil": 13451, "##rist": 15061, "residing": 7154, "##rey": 15202, "##flight": 28968, "familiarity": 24666, "beer": 5404, "banging": 22255, "clearance": 14860, "##ental": 21050, "exception": 6453, "locked": 5299, "##\u0272": 29689, "icons": 18407, "sergeant": 6722, "glared": 9400, "versus": 6431, "##lot": 10994, "nasa": 9274, "##\u043a\u0430": 28598, "fuss": 28554, "##moor": 17622, "brewing": 16005, "makeshift": 19368, "reforming": 29455, "propelled": 15801, "[unused835]": 840, "##500": 29345, "##ji": 4478, "rather": 2738, "amazing": 6429, "handicapped": 26920, "poisonous": 22641, "bearings": 21714, "1690": 24765, "\u5c71": 1831, "[unused316]": 321, "savings": 10995, "petals": 15829, "nucleus": 13502, "banished": 21319, "stakeholders": 22859, "##jia": 26541, "\u0e2d": 1421, "ordering": 13063, "##bino": 21891, "slade": 18048, "typically": 4050, "bribe": 26470, "hate": 5223, "cracked": 9630, "tangled": 14170, "pods": 26723, "##llas": 25816, "1911": 5184, "jerking": 22387, "##ouring": 27897, "mature": 9677, "oder": 27215, "customs": 8205, "wedge": 17632, "bye": 9061, "cornell": 10921, "##ux": 5602, "helix": 25743, "spanned": 18212, "valid": 9398, "##stones": 29423, "multitude": 20889, "jp": 16545, "##yo": 7677, "florian": 29517, "\u0641": 1291, "##city": 12972, "passenger": 4628, "sprint": 9043, "harcourt": 22714, "[unused140]": 145, "##5": 2629, "##tase": 18260, "[unused584]": 589, "sanctions": 17147, "corpses": 18113, "mammal": 25476, "##dic": 14808, "winked": 14217, "##uo": 19098, "specialising": 23315, "helicopter": 7739, "##ike": 17339, "sermon": 18408, "\u0bc7": 1398, "living": 2542, "temper": 12178, "profound": 13769, "its": 2049, "##mani": 20799, "quarterly": 12174, "cooled": 12981, "nascar": 11838, "##fixed": 23901, "##yler": 20853, "lawsuits": 20543, "[unused820]": 825, "predator": 15267, "##ley": 3051, "explosives": 14792, "many": 2116, "[unused402]": 407, "gp": 14246, "##dro": 22196, "scanning": 13722, "##\u30c3": 30237, "##gler": 17420, "quota": 20563, "defences": 16828, "wrinkled": 15968, "horton": 18469, "##elled": 21148, "unauthorized": 24641, "canteen": 26449, "##ngo": 16656, "##hon": 8747, "##dur": 24979, "accusation": 19238, "cory": 18342, "1787": 16057, "\u0982": 1346, "##lington": 18722, "familiar": 5220, "snowy": 20981, "phillip": 10852, "##\u057d": 29781, "##ency": 11916, "shell": 5806, "##eni": 18595, "eccentric": 18080, "##ching": 8450, "27th": 15045, "\u026a": 1119, "670": 25535, "displays": 8834, "aggression": 14974, "nineteenth": 9137, "bacon": 11611, "egypt": 5279, "inscribed": 14551, "\u11ab": 1485, "initiation": 17890, "softer": 19013, "heath": 9895, "polk": 20819, "portals": 27388, "birthday": 5798, "##naud": 26160, "captive": 12481, "##stor": 23809, "bunker": 15742, "lucian": 18218, "slovene": 18326, "jumper": 21097, "rushing": 8375, "jax": 13118, "wong": 11789, "##mat": 18900, "hemisphere": 14130, "averages": 20185, "gregg": 18281, "elite": 7069, "##udes": 22087, "fungal": 28079, "affected": 5360, "mergers": 28585, "vaulted": 24616, "[unused408]": 413, "##\u0e2d": 29957, "outstanding": 5151, "##girl": 15239, "rules": 3513, "[unused462]": 467, "hasan": 17000, "feather": 15550, "owens": 14824, "screenings": 25437, "counselor": 17220, "iucn": 20333, "chopra": 28826, "##\u00b7": 29661, "interviewing": 27805, "##tia": 10711, "cuba": 7394, "##bir": 17706, "expired": 13735, "##wala": 23877, "##cut": 12690, "##laze": 24472, "posterior": 15219, "fort": 3481, "\u4e45": 1748, "segregated": 24382, "poland": 3735, "[unused770]": 775, "atrium": 26204, "repair": 7192, "##fs": 10343, "\u9fb8": 1983, "##ishment": 21808, "benevolent": 25786, "##nel": 11877, "stiffly": 27499, "assassination": 10102, "stands": 4832, "openings": 16556, "gao": 17377, "vague": 13727, "stacked": 16934, "jakarta": 14426, "##\u1165": 30008, "##rag": 29181, "##ally": 3973, "##eri": 11124, "barrister": 19805, "##lica": 19341, "matilda": 17981, "lastly": 22267, "dedicated": 4056, "##ype": 18863, "fiat": 18550, "##erton": 20995, "hermes": 24127, "tempted": 16312, "\u2122": 1580, "utc": 11396, "pandora": 19066, "##48": 18139, "humble": 15716, "##hell": 18223, "circling": 18519, "audi": 20075, "christine": 10941, "mills": 6341, "lowland": 15234, "compensated": 29258, "elephants": 16825, "financing": 12135, "euclidean": 25826, "spice": 17688, "trams": 19216, "##thest": 20515, "vocalist": 8032, "[unused83]": 84, "malcolm": 8861, "hallmark": 25812, "transaction": 12598, "split": 3975, "authoritarian": 27246, "##\u2194": 30115, "garner": 18661, "##chemist": 24229, "##brook": 9697, "##yst": 27268, "edges": 7926, "oricon": 22237, "1896": 6306, "realize": 5382, "[unused658]": 663, "filthy": 18294, "sediment": 19671, "hilary": 22744, "##omp": 25377, "challenging": 10368, "typed": 21189, "##\u10d8": 29981, "that": 2008, "sonia": 16244, "regulators": 25644, "##\u304d": 30178, "handled": 8971, "este": 28517, "1850": 7973, "historic": 3181, "##hole": 11484, "shiva": 12535, "wake": 5256, "parked": 9083, "##uing": 25165, "##\u56db": 30324, "meaning": 3574, "deposed": 18298, "bars": 6963, "##lka": 26518, "justify": 16114, "skin": 3096, "distributed": 5500, "##ieving": 25587, "denis": 11064, "[unused99]": 104, "sacred": 6730, "##27": 22907, "##gration": 29397, "meantime": 12507, "withdrawing": 21779, "theater": 4258, "[unused273]": 278, "variations": 8358, "recounted": 22906, "sultan": 7544, "surrounds": 20626, "##works": 9316, "robbie": 12289, "##tara": 27115, "skepticism": 27936, "##tose": 22282, "romania": 6339, "scrap": 15121, "##llation": 20382, "vr": 27830, "attention": 3086, "instant": 7107, "forming": 5716, "##ight": 18743, "dual": 7037, "frankenstein": 22478, "\u2013": 1516, "worms": 16253, "incline": 27461, "creep": 19815, "smiled": 3281, "sobbed": 25960, "baba": 14208, "##ended": 21945, "[unused476]": 481, "labyrinth": 24239, "##lt": 7096, "hoarse": 21221, "happier": 19366, "postgraduate": 15438, "mansions": 26842, "olive": 9724, "gustav": 13430, ";": 1025, "punished": 14248, "scribe": 27789, "2015": 2325, "joints": 17651, "kin": 12631, "interruption": 24191, "fellowship": 7881, "##nging": 22373, "editor": 3559, "##pie": 14756, "[unused8]": 9, "carbonate": 26427, "users": 5198, "slaves": 7179, "route": 2799, "tko": 26537, "##hurst": 10510, "##zaki": 18637, "plants": 4264, "crusaders": 18831, "[unused962]": 967, "futuristic": 28971, "##ain": 8113, "former": 2280, "##sau": 23823, "\u266f": 1628, "actions": 4506, "wife": 2564, "shipped": 12057, "ravine": 23188, "stones": 6386, "tests": 5852, "##jure": 25243, "jumped": 5598, "manchu": 26650, "awards": 2982, "wider": 7289, "damages": 12394, "[unused314]": 319, "longer": 2936, "billings": 26124, "analytical": 17826, "[unused56]": 57, "pedro": 7707, "hodge": 23148, "twigs": 27964, "katy": 17870, "##bing": 10472, "absent": 9962, "hepburn": 22004, "##pse": 29251, "believe": 2903, "peterborough": 17587, "evan": 9340, "46th": 27990, "##eh": 11106, "walking": 3788, "##itation": 18557, "cornish": 17797, "##at": 4017, "industrial": 3919, "1714": 25241, "transactions": 11817, "##mis": 15630, "nose": 4451, "##\u05be": 29787, "[unused765]": 770, "powerless": 25192, "##uve": 22909, "##iable": 19210, "344": 29386, "zeus": 15208, "rendered": 10155, "glorious": 14013, "smug": 20673, "cheek": 5048, "##rix": 17682, "surf": 14175, "mayor": 3664, "sylvia": 13378, "featuring": 3794, "cardiovascular": 22935, "supposed": 4011, "swap": 19948, "sweetly": 22557, "safe": 3647, "##mament": 28119, "anticipation": 11162, "##logical": 9966, "drive": 3298, "##enstein": 21819, "##ocating": 27483, "311": 23532, "\u5185": 1773, "saxophone": 8283, "dispersal": 27602, "relaxing": 19613, "religions": 11822, "opposing": 10078, "eagerly": 17858, "##rnet": 26573, "\u222a": 1605, "auspices": 20153, "balance": 5703, "devils": 13664, "##26": 23833, "##stems": 29189, "arranged": 5412, "##nivorous": 29193, "aerospace": 13395, "prison": 3827, "reborn": 24910, "maintains": 9319, "retorted": 24056, "inequality": 16440, "spines": 20352, "portuguese": 5077, "harold": 7157, "##\u0ba9": 29923, "184": 19681, "height": 4578, "##tial": 20925, "prowess": 26120, "disrupted": 20275, "preference": 12157, "##dge": 11818, "runners": 7190, "distracting": 25012, "clary": 13145, "thomas": 2726, "arrondissement": 20522, "matching": 9844, "##\u0e17": 29948, "overwhelming": 10827, "contracted": 11016, "[unused907]": 912, "gaius": 19564, "sorted": 19616, "resulted": 4504, "##tein": 9589, "[unused985]": 990, "##nington": 23155, "reunification": 28044, "terrorists": 15554, "coarse": 20392, "boot": 9573, "deluxe": 15203, "responding": 14120, "february": 2337, "##ios": 10735, "pointer": 20884, "encounter": 8087, "timothy": 10805, "zimbabwe": 11399, "##row": 10524, "kate": 5736, "\u1d64": 1509, "ape": 23957, "commit": 10797, "1883": 7257, "##hett": 28499, "cook": 5660, "##\u0639": 29830, "doubles": 7695, "witnessing": 24740, "jam": 9389, "##mei": 26432, "##lay": 8485, "significance": 7784, "fund": 4636, "##lined": 18194, "savior": 24859, "acres": 4631, "losing": 3974, "unsure": 12422, "style": 2806, "pomerania": 18631, "aliens": 12114, "examiner": 19684, "gustave": 27973, "helmut": 24515, "create": 3443, "afb": 16909, "1766": 21410, "incident": 5043, "##buch": 25987, "##raj": 14220, "hidalgo": 24715, "sharpe": 22147, "classes": 4280, "puppet": 13997, "##\u0649": 29837, "##ara": 5400, "wilton": 26407, "##rter": 19418, "\u0987": 1349, "suffrage": 15178, "snarled": 15022, "##uez": 29488, "traveler": 20174, "lowered": 6668, "needy": 23927, "scarf": 18982, "connected": 4198, "labour": 4428, "abd": 19935, "[CLS]": 101, "rancho": 18123, "##mable": 24088, "straightforward": 19647, "##ella": 8411, "[unused844]": 849, "##tes": 4570, "##\u30ec": 30260, "excavated": 15199, "[unused723]": 728, "watershed": 12547, "anson": 25435, "membership": 5779, "##lum": 12942, "bracket": 21605, "skip": 13558, "japanese": 2887, "scheduled": 5115, "unmarried": 17204, "proof": 6947, "grazed": 26627, "lick": 15385, "human": 2529, "firth": 25138, "43rd": 25747, "researching": 20059, "clemens": 27277, "##fell": 23510, "whereabouts": 18913, "consisting": 5398, "##dened": 24589, "##kers": 11451, "diaz": 12526, "soda": 14904, "224": 19711, "snack": 19782, "restructuring": 18322, "warrant": 10943, "##\u09b6": 29910, "nigerian": 11884, "football": 2374, "enthusiasm": 12024, "[unused209]": 214, "institutions": 4896, "armenia": 10110, "##iac": 20469, "sneak": 13583, "[unused936]": 941, "moniker": 21937, "torture": 8639, "resulting": 4525, "carlo": 9758, "##nni": 23500, "##cz": 27966, "rover": 13631, "creating": 4526, "##illon": 20343, "stumble": 21811, "felony": 24648, "want": 2215, "ambitious": 12479, "forte": 24898, "sigma": 13201, "protesting": 21248, "ron": 6902, "cloudy": 24706, "inappropriate": 15884, "rendering": 14259, "prohibited": 10890, "formidable": 18085, "wren": 16255, "lindsay": 12110, "admiralty": 14179, "109": 11518, "modeling": 11643, "##torm": 20654, "urban": 3923, "betray": 20895, "strategies": 9942, "necks": 26082, "presenters": 25588, "##icon": 28524, "broughton": 29187, "##\u3044": 30173, "##eers": 22862, "##onzo": 29452, "##vd": 16872, "ecclesiastical": 12301, "mustafa": 19683, "geometry": 10988, "seem": 4025, "machine": 3698, "##}": 29642, "upscale": 28276, "microphone": 15545, "onward": 15834, "##\u4e8b": 30277, "slang": 21435, "scaling": 25169, "1824": 11617, "astonishing": 26137, "ng": 12835, "traitor": 17328, "allegro": 25319, "shan": 17137, "490": 22288, "##c": 2278, "turbulent": 22609, "receivers": 19278, "##nier": 14862, "apples": 18108, "subcommittee": 18052, "honduras": 14373, "niall": 21889, "hosts": 6184, "franz": 8965, "dea": 26709, "##zation": 9276, "hopeful": 17772, "vale": 10380, "abandon": 10824, "##\u0627\u0646": 18511, "symptoms": 8030, "\u221a": 1600, "preventing": 10723, "hangar": 18284, "##loh": 24729, "sperm": 18047, "graphs": 19287, "elena": 9060, "mounting": 15986, "##ossa": 21842, "theodore": 10117, "punishments": 29115, "##boarding": 21172, "outpost": 21080, "##mina": 22311, "unstable": 14480, "facilitate": 10956, "burgess": 17754, "serge": 21747, "voiced": 6126, "fills": 17469, "monsters": 9219, "set": 2275, "suppressed": 13712, "medication": 14667, "##opus": 24676, "bulge": 23708, "1719": 28162, "turned": 2357, "enamel": 29484, "raised": 2992, "##tam": 15464, "behavior": 5248, "##itate": 17570, "##suke": 16867, "offence": 15226, "het": 21770, "##mour": 20360, "##\u0648": 29836, "litre": 16812, "flushing": 23519, "##aker": 22626, "[unused304]": 309, "scrub": 18157, "##uven": 27346, "astor": 25159, "##ythe": 26688, "depending": 5834, "\u516b": 1771, "satirical": 17251, "alam": 26234, "gloves": 11875, "1629": 27882, "dwyer": 29394, "\u11af": 1486, "nile": 15179, "regained": 11842, "t": 1056, "##mie": 9856, "07": 5718, "##nson": 15551, "[unused940]": 945, "juice": 10869, "fairbanks": 24502, "sealed": 10203, "emerging": 8361, "kaplan": 22990, "[unused817]": 822, "smacked": 19203, "purcell": 26429, "insults": 23862, "preseason": 20038, "disadvantage": 20502, "parkinson": 20310, "consuming": 15077, "peat": 23366, "##position": 26994, "abby": 9460, "visible": 5710, "benji": 27231, "furnace": 17533, "reforms": 8818, "cinematographer": 19245, "##itive": 13043, "psychology": 6825, "casimir": 24701, "[unused981]": 986, "[unused259]": 264, "##haven": 14650, "##rcle": 21769, "##ble": 3468, "criticizing": 21289, "fails": 11896, "z": 1062, "\u062a": 1273, "monte": 10125, "##hai": 10932, "scala": 26743, "gear": 6718, "touchdown": 7921, "uncredited": 8104, "##dilly": 28832, "cautiously": 15151, "nur": 27617, "manually": 21118, "##\u25aa": 30145, "rabbit": 10442, "possession": 6664, "alright": 10303, "291": 27173, "state": 2110, "archdiocese": 12658, "arrow": 8612, "suitcase": 15940, "##chers": 21844, "robbins": 18091, "waste": 5949, "sniper": 17515, "migratory": 22262, "fun": 4569, "rosy": 26851, "nueva": 24536, "woodrow": 23954, "marlins": 27055, "andrey": 29219, "ti": 14841, "fiercely": 16265, "galway": 14370, "quit": 8046, "evil": 4763, "pirate": 11304, "##\u209a": 30097, "stylized": 19551, "convection": 23849, "\u0e21": 1415, "##\u0561": 29766, "hurst": 26405, "fitness": 10516, "##osi": 20049, "rippled": 26862, "mysterious": 8075, "sunny": 11559, "statutes": 18574, "rip": 10973, "hall": 2534, "reactor": 13308, "regis": 20588, "disastrous": 16775, "supervisor": 12366, "stakes": 7533, "question": 3160, "arrangement": 6512, "##pro": 21572, "facto": 13743, "##lese": 24527, "threshold": 11207, "sara": 7354, "##ism": 2964, "griffin": 9258, "drop": 4530, "kato": 27496, "##graph": 14413, "moaning": 22653, "trips": 9109, "chicks": 20649, "blending": 23293, "##ndon": 19333, "##eti": 20624, "dorchester": 27252, "creek": 3636, "mutter": 23457, "##\u0563": 29768, "ussr": 10331, "jacket": 6598, "[unused943]": 948, "##inator": 23207, "kettle": 22421, "guaranteed": 12361, "illustrations": 11249, "##genesis": 23737, "tian": 23401, "outfits": 22054, "wendy": 12815, "##cine": 16567, "arguing": 9177, "##lston": 21540, "electrons": 15057, "##layer": 24314, "constitution": 4552, "civilized": 25825, "190": 11827, "anterior": 15099, "programmes": 8497, "twenty20": 22240, "initiative": 6349, "pause": 8724, "##imum": 28591, "1845": 9512, "##nock": 18057, "\u10d4": 1442, "420": 17442, "[unused797]": 802, "kindness": 16056, "saetan": 23515, "rex": 10151, "vent": 18834, "disaster": 7071, "tattoo": 11660, "welfare": 7574, "\u00b0f": 8157, "##ku": 5283, "[unused873]": 878, "##fting": 26169, "boris": 11235, "aired": 4836, "##\u9ad8": 30507, "[unused631]": 636, "chateau": 11874, "bn": 24869, "totaling": 21798, "chimney": 17321, "\u0438": 1188, "telecom": 18126, "documentary": 4516, "conquest": 9187, "osborn": 26999, "collection": 3074, "1800s": 19878, "bandits": 19088, "ryu": 19367, "alfred": 6152, "germain": 19192, "qing": 13282, "hole": 4920, "intuitive": 29202, "fender": 19028, "methodist": 8938, "licensed": 7000, "scratches": 25980, "ebook": 26885, "levin": 20206, "endorsed": 11763, "effortlessly": 29483, "##ova": 7103, "rink": 18416, "[unused412]": 417, "consortium": 12360, "\u0f60": 1433, "may": 2089, "rna": 12987, "bahadur": 21715, "crocodile": 21843, "mai": 14736, "predecessors": 16372, "runway": 9271, "[unused769]": 774, "lounge": 11549, "scissors": 25806, "##tti": 6916, "auburn": 12704, "savannah": 10891, "investigators": 14766, "lattice": 17779, "darlington": 19667, "pajamas": 27621, "liberia": 18039, "wash": 9378, "##broken": 29162, "##\u0936": 29872, "bicycle": 10165, "194": 19955, "ventilation": 19536, "negotiating": 18875, "\u099b": 1357, "##\u03b7\u03c2": 29155, "jurist": 22757, "\u0142": 1105, "jimenez": 22790, "republicans": 10643, "312": 21036, "##ram": 6444, "landau": 28570, "##arion": 27548, "elephant": 10777, "stony": 16104, "[unused890]": 895, "##\u305d": 30186, "##ient": 11638, "##jm": 24703, "[unused605]": 610, "marino": 17185, "assisted": 7197, "birch": 16421, "protectorate": 20394, "##\u3008": 30163, "pledge": 16393, "intimidating": 24439, "clinics": 17865, "##stown": 13731, "abbreviated": 12066, "carmichael": 23537, "salty": 23592, "roy": 6060, "draped": 15098, "delegate": 11849, "##ving": 6455, "startled": 9696, "homosexual": 15667, "##\u05de": 29801, "ellington": 21630, "##hone": 27406, "lifeless": 22185, "grandma": 13055, "security": 3036, "##gg": 13871, "transportation": 5193, "saskatchewan": 10068, "impoverished": 25488, "##grove": 21525, "intimidation": 28973, "##mund": 25574, "expenditures": 22697, "standardized": 16367, "[unused897]": 902, "respect": 4847, "touch": 3543, "schultz": 22378, "256": 17273, "prevention": 9740, "finger": 4344, "ounce": 19471, "carr": 12385, "##ented": 14088, "gundam": 26152, "criminal": 4735, "ownership": 6095, "restrain": 28467, "appears": 3544, "relations": 4262, "fiesta": 24050, "1738": 28009, "supervisors": 22565, "costa": 6849, "truth": 3606, "delivering": 12771, "opposes": 29158, "indigo": 22472, "cent": 9358, "reorganized": 14137, "shall": 4618, "averaging": 14985, "collaborate": 20880, "sellers": 19041, "prosperity": 14165, "04": 5840, "telecommunication": 25958, "bang": 9748, "hu": 15876, "adams": 5922, "##runa": 26605, "##dham": 17661, "ave": 13642, "discourage": 28085, "decades": 5109, "electors": 19165, "recover": 8980, "llc": 11775, "olympian": 25977, "entirely": 4498, "royale": 24483, "bounce": 17523, "[unused504]": 509, "##dner": 28001, "##rish": 18774, "mornings": 16956, "compose": 17202, "gabon": 23129, "rene": 10731, "##rson": 17753, "bothering": 17067, "untouched": 22154, "tide": 10401, "line": 2240, "##ons": 5644, "##jon": 14339, "flickering": 20046, "charley": 20430, "wolfe": 14212, "turrets": 21088, "20th": 3983, "1939": 3912, "##ingdon": 29138, "freight": 8441, "artistic": 6018, "##rkin": 26891, "secret": 3595, "##vel": 15985, "fk": 14352, "denoted": 19537, "famine": 15625, "soprano": 10430, "happily": 11361, "my": 2026, "thereof": 21739, "coward": 16592, "##asia": 15396, "train": 3345, "ecological": 12231, "constructing": 15696, "filter": 11307, "direction": 3257, "malaysian": 11843, "##anum": 27975, "drip": 27304, "fa": 6904, "2010s": 26817, "tucking": 25056, "##\u1d4f": 30037, "dressed": 5102, "1750": 18171, "bother": 8572, "slabs": 28761, "fans": 4599, "pay": 3477, "##urable": 23086, "peggy": 14911, "balls": 7395, "##lase": 25002, "hawkins": 13835, "##erty": 15010, "##ius": 4173, "doctrine": 8998, "ac": 9353, "development": 2458, "arteries": 28915, "marriott": 26490, "##monium": 26387, "1948": 3882, "festivities": 21206, "233": 22115, "icon": 12696, "abbess": 28010, "swami": 20087, "1800": 9807, "opinion": 5448, "armand": 20371, "romans": 10900, "richer": 26108, "jewish": 3644, "bothered": 11250, "stuck": 5881, "mustered": 21900, "paradise": 9097, "##mi": 4328, "coefficient": 19064, "amounts": 8310, "oblique": 20658, "foreman": 18031, "insurgents": 20541, "taller": 12283, "\u51fa": 1774, "consecrated": 12299, "satisfied": 8510, "potato": 14557, "romano": 22070, "foreword": 23059, "##\u0291": 29703, "##qua": 16211, "##sho": 22231, "1803": 12651, "toss": 10055, "knowing": 4209, "piled": 17835, "257": 24368, "building": 2311, "##\u0582": 29785, "##holes": 19990, "circumstances": 6214, "engagement": 8147, "lush": 16299, "1903": 5778, "thessaloniki": 23162, "##linson": 25051, "fisheries": 13424, "gesture": 9218, "\u099f": 1359, "tags": 22073, "\u2096": 1565, "\u2097": 1566, "facts": 8866, "##\u266d": 24102, "ithaca": 27939, "drawer": 13065, "comply": 14037, "##\u6797": 30407, "neolithic": 19061, "##lika": 25421, "fishermen": 16532, "administrator": 8911, "scotch": 18937, "flexed": 24244, "skinny": 15629, "causal": 28102, "raf": 7148, "spring": 3500, "cafeteria": 16673, "settles": 27221, "exemplary": 27792, "tunic": 23002, "dozens": 9877, "reformed": 9114, "abnormal": 19470, "##cide": 27082, "pollock": 25218, "correlation": 16902, "ended": 3092, "albums": 4042, "blanc": 18698, "\u8c9d": 1952, "boise": 23193, "goals": 3289, "dudley": 12648, "cookies": 16324, "quarterfinal": 29380, "houghton": 21234, "##isman": 20257, "lunatic": 26594, "fair": 4189, "chargers": 18649, "translates": 16315, "roc": 21326, "69": 6353, "scattering": 17501, "##amo": 22591, "##ex": 10288, "\u30ea": 1732, "anastasia": 19447, "rio": 5673, "fourier": 26899, "animated": 6579, "attraction": 8432, "##apes": 29040, "racist": 16939, "nigel": 12829, "##aer": 27867, "[unused370]": 375, "rwanda": 17591, "paved": 12308, "gravel": 11127, "eastern": 2789, "sequels": 25815, "buddha": 11903, "goodman": 14514, "\u00a31": 14534, "novo": 24576, "tel": 10093, "divisional": 14167, "\u30c4": 1712, "payne": 13470, "getting": 2893, "remake": 12661, "1741": 25280, "##mun": 23041, "##room": 9954, "dissatisfied": 25956, "##inge": 23496, "propose": 16599, "tensions": 13136, "nights": 6385, "shuffle": 23046, "##52": 25746, "families": 2945, "thomson": 11161, "darius": 14861, "lass": 27333, "passengers": 5467, "fatally": 26292, "michael": 2745, "propeller": 15692, "##trip": 24901, "kyushu": 25885, "meath": 26856, "[unused478]": 483, "transient": 25354, "##hers": 22328, "ticked": 26019, "##\u0ba4": 29921, "dipped": 13537, "guest": 4113, "##eu": 13765, "##lva": 22144, "lodges": 26767, "approximate": 15796, "##bber": 29325, "felipe": 17095, "[unused541]": 546, "subdistrict": 24150, "undo": 25672, "carrying": 4755, "npr": 21411, "zoom": 24095, "nightly": 22390, "lopez": 8685, "describes": 5577, "imam": 17189, "##uation": 14505, "semifinal": 16797, "[unused895]": 900, "erotic": 14253, "fide": 26000, "tangible": 24600, "recognised": 7843, "##\u044d": 29756, "introducing": 10449, "sardinia": 21594, "attitudes": 13818, "confusion": 6724, "09": 5641, "villas": 27317, "derived": 5173, "advantages": 12637, "outing": 26256, "cemeteries": 20973, "iona": 22347, "rms": 29311, "##yat": 26139, "##rgy": 22637, "abolished": 8961, "reliance": 17975, "davies": 9082, "##tee": 17389, "pedestrian": 14662, "computers": 7588, "##\u2205": 30121, "ser": 14262, "[unused598]": 603, "sitting": 3564, "##ska": 8337, "##mos": 15530, "steal": 8954, "overland": 21400, "##20": 11387, "overheard": 20443, "months": 2706, "##wice": 23425, "leipzig": 11222, "##ctus": 22675, "searched": 9022, "quakers": 28301, "##ption": 16790, "nirvana": 26530, "exemplified": 28593, "maud": 21696, "arranging": 19018, "##enay": 27727, "illuminating": 27816, "apologize": 12134, "lauded": 26507, "##\u5b66": 30343, "assessed": 14155, "lighted": 26390, "statutory": 15201, "##\u00a6": 29649, "barrie": 24953, "arte": 16185, "##asi": 21369, "proprietor": 21584, "xx": 22038, "detect": 11487, "temperatures": 7715, "fan": 5470, "beatles": 11555, "##\u0930": 29869, "sainte": 16947, "common": 2691, "vito": 25550, "calendar": 8094, "mi": 2771, "startling": 19828, "pole": 6536, "##chfield": 22693, "waitress": 13877, "\u4f0a": 1762, "stammered": 28532, "##culus": 28703, "cellular": 12562, "canons": 21975, "hyundai": 25983, "important": 2590, "restraining": 28285, "patrolling": 24248, "guarantee": 11302, "centred": 16441, "skills": 4813, "townspeople": 27938, "sided": 11536, "##ouse": 15441, "unto": 19662, "jayne": 24408, "fi": 10882, "vaughn": 18220, "striking": 8478, "aberdeen": 12080, "verge": 16079, "minute": 3371, "charge": 3715, "usa": 3915, "##ig": 8004, "3d": 7605, "##rella": 21835, "scandals": 29609, "smallest": 10479, "[unused806]": 811, "putnam": 20230, "sanskrit": 11353, "1653": 29309, "harvard": 5765, "bonds": 9547, "retailers": 16629, "ceilings": 21098, "deities": 17091, "1959": 3851, "##\u0569": 29771, "##\u21cc": 30118, "ascended": 19644, "follower": 22399, "##wind": 11101, "143": 16065, "##ener": 24454, "most": 2087, "lionel": 14377, "capacity": 3977, "partisans": 20762, "\u58eb": 1807, "bridges": 7346, "clancy": 24530, "##ka": 2912, "flashback": 21907, "##unda": 18426, "elaborate": 9603, "mccann": 28641, "\u5fe0": 1852, "##uen": 24997, "volatile": 20606, "[unused574]": 579, "mojo": 28017, "##loe": 26846, "widowed": 22874, "aw": 22091, "##mora": 22122, "erratic": 24122, "[unused201]": 206, "christmas": 4234, "belief": 6772, "umpire": 20887, "[unused403]": 408, "swallowing": 18468, "##ug": 15916, "trillion": 23458, "hesitate": 16390, "shelly": 28360, "seville": 18983, "mecklenburg": 22007, "strive": 29453, "cher": 24188, "revolutions": 25239, "ensembles": 21528, "bored": 11471, "##stan": 12693, "places": 3182, "##ful": 3993, "lame": 20342, "##uli": 15859, "ditch": 14033, "221": 19594, "racetrack": 28435, "oils": 20631, "rainforest": 18951, "lateral": 11457, "##nable": 22966, "##\u03b3": 29721, "##aki": 8978, "hive": 26736, "##orescence": 20030, "caf": 24689, "calculated": 10174, "wounded": 5303, "paolo": 14174, "deleted": 17159, "12th": 5940, "##tment": 21181, "traveled": 6158, "teller": 21322, "harper": 8500, "##nd": 4859, "exclusive": 7262, "pushed": 3724, "##gation": 12540, "sentiment": 15792, "girlfriend": 6513, "##avian": 21654, "impacted": 19209, "exhaustion": 15575, "refer": 6523, "[unused204]": 209, "vila": 23840, "magistrate": 14351, "bushes": 14568, "toe": 11756, "outdated": 25963, "##sam": 21559, "liquids": 26820, "rhymes": 24468, "variability": 28436, "##xley": 20959, "donetsk": 29151, "politicians": 8801, "reasons": 4436, "consequences": 8465, "##\u043f": 29746, "agency": 4034, "##\u0917": 29853, "\u092a": 1328, "crews": 10604, "lyrical": 16376, "padre": 28612, "\u0b9a": 1383, "rhodes": 10588, "##oum": 24778, "##antly": 15706, "paradox": 20506, "confined": 12302, "vimes": 28482, "foreigners": 15040, "tracey": 25984, "ralph": 6798, "assimilation": 27574, "bandage": 24446, "spirit": 4382, "sabre": 22002, "occupied": 4548, "musique": 25784, "dt": 26718, "goblin": 22639, "##inated": 15833, "##frid": 27439, "hacker": 23307, "approve": 14300, "[unused507]": 512, "##lers": 12910, "judy": 12120, "adaptive": 19293, "wondered": 4999, "##wa": 4213, "calcutta": 13419, "delicately": 28814, "coldly": 24745, "intending": 16533, "panties": 12095, "accelerate": 23306, "invited": 4778, "\u30b5": 1705, "##hesis": 24124, "ledge": 18283, "##bl": 16558, "\u516c": 1772, "wetlands": 16630, "bose": 21299, "[unused689]": 694, "beautiful": 3376, "pilot": 4405, "hillsborough": 29330, "bar": 3347, "joyah": 27098, "sanitary": 25480, "exhibition": 4538, "delegation": 10656, "iraq": 5712, "##kot": 23342, "rating": 5790, "##cies": 9243, "##cast": 10526, "lake": 2697, "millimetres": 13388, "um": 8529, "cruisers": 16722, "##shi": 6182, "upbeat": 27999, "snaps": 20057, "eileen": 20495, "kick": 5926, "kelly": 5163, "[unused317]": 322, "kellogg": 26129, "##\u0e21": 29951, "\u00a4": 1070, "189": 20500, "peng": 26473, "renaming": 24944, "##dson": 25112, "vial": 28475, "sa": 7842, "curt": 20099, "##eche": 27635, "grants": 8624, "cretaceous": 18122, "sixties": 22651, "transformation": 8651, "franciscan": 19420, "piracy": 24386, "840": 28122, "##tas": 10230, "soared": 29127, "withdrawal": 10534, "\u2113": 1577, "marsh": 9409, "##had": 16102, "astros": 22058, "platform": 4132, "wildcats": 19495, "brushed": 7765, "suggests": 6083, "reece": 24227, "##ez": 9351, "seahawks": 21390, "##ky": 4801, "bangalore": 14022, "dart": 14957, "chan": 9212, "amidst": 17171, "astrid": 27376, "mobilization": 25580, "[unused269]": 274, "purchased": 4156, "cause": 3426, "paternal": 15112, "networks": 6125, "diversified": 24908, "geared": 23636, "1847": 9176, "proponents": 20401, "##cd": 19797, "meadow": 13244, "bien": 29316, "##oslav": 23085, "lucia": 12337, "[unused324]": 329, "fenton": 27096, "\u0292": 1138, "\u5929": 1811, "##iling": 16281, "single": 2309, "muslim": 5152, "##jak": 18317, "inclusive": 18678, "weird": 6881, "\u2205": 1593, "cho": 16480, "frail": 25737, "##\u5357": 30311, "##plane": 11751, "mariano": 22695, "demonstrated": 7645, "subspecies": 11056, "check": 4638, "designate": 24414, "1931": 4739, "##lift": 18412, "loose": 6065, "camera": 4950, "##cel": 29109, "radcliffe": 22603, "stab": 17079, "instituted": 14948, "##stadt": 21543, "##raus": 25965, "import": 12324, "\u00aa": 1076, "nominee": 9773, "horse": 3586, "internship": 22676, "darkening": 27862, "##ryl": 23320, "reconcile": 21063, "mccartney": 15320, "destructive": 15615, "combined": 4117, "werewolves": 18306, "grip": 6218, "##lated": 13776, "##is": 2483, "emmett": 25685, "##carbon": 26190, "subgroup": 20576, "fairfax": 17833, "##with": 24415, "pulling": 4815, "escorts": 24877, "##rai": 14995, "sparsely": 24961, "##pt": 13876, "curious": 8025, "##athic": 20972, "2013": 2286, "brunei": 18692, "cinematography": 16434, "planners": 27155, "##ek": 5937, "communicated": 24162, "chinese": 2822, "[unused394]": 399, "##rek": 16816, "abundant": 12990, "nevertheless": 6600, "##\u09ad": 29905, "erect": 14908, "routines": 23964, "versions": 4617, "platforms": 7248, "##\u0283": 29696, "##eux": 20860, "armchair": 29372, "##uma": 12248, "achievement": 6344, "accumulate": 27598, "##missible": 26770, "furnishings": 23127, "\u65b9": 1863, "pediatric": 23614, "correlated": 23900, "tudor": 15588, "female": 2931, "unofficial": 11982, "rails": 15168, "renaissance": 8028, "induction": 15946, "hurled": 24025, "saloon": 17078, "[unused862]": 867, "356": 27509, "distributor": 16632, "62": 5786, "monastic": 17361, "chihuahua": 28480, "toby": 11291, "tatar": 29241, "bentley": 15988, "##sso": 24137, "champaign": 28843, "mushroom": 18565, "males": 3767, "##hu": 6979, "##rin": 6657, "keyboard": 9019, "etudes": 25041, "turkish": 5037, "\u0564": 1222, "error": 7561, "##iman": 18505, "##dim": 22172, "insect": 14211, "compilation": 6268, "##bert": 8296, "alvarez": 16309, "praises": 27128, "favorably": 27597, "##\u540d": 30321, "\u0dba": 1404, "municipal": 4546, "warlock": 28861, "whisky": 21265, "[unused131]": 136, "filming": 7467, "condensed": 25011, "dexter": 14375, "cooks": 26929, "unfit": 29439, "400": 4278, "still": 2145, "habit": 10427, "treacherous": 26648, "##hini": 20535, "feb": 13114, "civilian": 6831, "jug": 26536, "rush": 5481, "\u2502": 1616, "##np": 16275, "richter": 20105, "##\u0647": 14157, "##tum": 11667, "\u27e8": 1629, "[unused430]": 435, "\u05be": 1240, "##eros": 27360, "hereditary": 14800, "afi": 28697, "buzzing": 20386, "elects": 27161, "indication": 12407, "collapsing": 22724, "suffix": 16809, "pinch": 18392, "lengthy": 12401, "john": 2198, "rourke": 24400, "##mology": 20570, "\u1d40": 1495, "utilizes": 21852, "agony": 12812, "instrumentalist": 29253, "paramilitary": 22258, "psycho": 18224, "grandmaster": 27101, "[unused812]": 817, "needles": 17044, "##enter": 29110, "slim": 11754, "wholly": 12590, "courtroom": 20747, "tongue": 4416, "##tile": 15286, "entourage": 25342, "environmentally": 25262, "lease": 10084, "density": 4304, "accustomed": 17730, "accountant": 17907, "episcopal": 9134, "##aling": 21682, "##ver": 6299, "ranch": 8086, "average": 2779, "revolt": 10073, "para": 11498, "constantinople": 11776, "##onga": 26356, "bourne": 15803, "rides": 12271, "multiplication": 24856, "##xx": 20348, "salem": 10389, "caravan": 17184, "clears": 28837, "##iff": 13355, "##oed": 29099, "grady": 19011, "apical": 29197, "intensive": 11806, "conduct": 6204, "mikhail": 11318, "lover": 7089, "\uff5e": 1995, "fashionable": 19964, "grandparents": 14472, "##\u02be": 29713, "loyalists": 26590, "##gga": 23033, "##lus": 7393, "##\u05d0": 29788, "chemical": 5072, "succumbed": 25642, "iberian": 21988, "tam": 17214, "casually": 13217, "cricketer": 9490, "##dion": 29573, "tall": 4206, "competitor": 12692, "discussions": 10287, "negligence": 27988, "moor": 16808, "subsequently": 3525, "##irus": 26013, "arroyo": 23882, "##\u0627": 25573, "proceeded": 8979, "orbiting": 26472, "gradual": 16612, "discharged": 14374, "italians": 16773, "##nie": 8034, "1709": 28955, "legislation": 6094, "##zquez": 22938, "\u6c5f": 1897, "##ment": 3672, "bombay": 11831, "[unused341]": 346, "##qui": 15549, "goodnight": 22708, "##vers": 14028, "palo": 24326, "harvesting": 21534, "reformer": 24767, "baseman": 18038, "##\u1172": 30016, "pleased": 7537, "nests": 17415, "gasps": 23813, "baird": 20866, "firmly": 7933, "visionary": 28036, "indictment": 24265, "tabitha": 21581, "papacy": 25097, "savage": 9576, "[unused543]": 548, "translator": 11403, "ferns": 25715, "spencer": 7084, "at": 2012, "##rgos": 22280, "masterpiece": 17743, "ears": 5551, "##itors": 27287, "helpless": 13346, "##\u11a8": 30020, "##het": 27065, "jc": 29175, "flirt": 27978, "russ": 18072, "[unused989]": 994, "##nted": 14706, "303": 19988, "corpus": 13931, "inhabitants": 4864, "assumed": 5071, "proficiency": 26293, "sufi": 21845, "greatest": 4602, "300": 3998, "tanker": 20135, "taxis": 25964, "game": 2208, "terrible": 6659, "havana": 15278, "206": 18744, "##ca": 3540, "consequently": 8821, "duplicate": 24473, "abroad": 6917, "##iness": 9961, "experimentation": 21470, "antibodies": 22931, "provisions": 8910, "blackberry": 25935, "tops": 13284, "trolls": 27980, "##nee": 24045, "animal": 4111, "armistice": 19125, "\u2088": 1555, "document": 6254, "177": 18118, "tuscany": 23322, "relatives": 9064, "drowned": 12805, "##body": 23684, "alvaro": 24892, "backup": 10200, "##elman": 23830, "palms": 9486, "loft": 19459, "conserved": 19995, "criteria": 9181, "opened": 2441, "revenues": 12594, "hints": 20385, "cheering": 24867, "wild": 3748, "villain": 12700, "##eley": 22352, "##nostic": 28199, "[unused604]": 609, "defining": 12854, "[unused849]": 854, "borrowing": 23733, "recorded": 2680, "##ones": 21821, "transplant": 22291, "regretted": 18991, "wound": 6357, "heal": 11005, "whaling": 23687, "\u0995": 1353, "bafta": 22284, "confronted": 12892, "enlist": 28845, "harmonies": 28594, "sequences": 10071, "##ot": 4140, "##en": 2368, "\u025b": 1115, "democracy": 7072, "gus": 12670, "toes": 10393, "dummy": 24369, "unlocked": 14058, "[unused705]": 710, "popcorn": 24593, "justification": 19777, "disappearing": 14489, "\u30b9": 1707, "##ato": 10610, "third": 2353, "antiques": 27763, "perpetrators": 27675, "freighter": 27945, "##pas": 19707, "selects": 27034, "mapped": 17715, "aires": 9149, "persuade": 13984, "##backs": 12221, "gods": 5932, "holders": 13304, "##rained": 27361, "heritage": 4348, "cabins": 20321, "[unused271]": 276, "montpellier": 28153, "haven": 4033, "kuala": 15490, "##\u56fd": 30325, "##frame": 15643, "humidity": 18213, "##roids": 29514, "\u2080": 1547, "##hr": 8093, "imply": 19515, "interrogation": 16871, "bertha": 25079, "maize": 21154, "fordham": 27302, "feelings": 5346, "deer": 8448, "##mering": 27851, "cowboys": 11666, "nursery": 13640, "##rka": 22379, "\u8eca": 1954, "stealing": 11065, "astronaut": 19748, "timbers": 26238, "queensland": 5322, "jillian": 27286, "##grad": 16307, "joan": 7437, "1780": 15051, "khorasan": 23225, "##\u2227": 30129, "certification": 10618, "renovated": 10601, "##ncia": 22750, "homicide": 18268, "##\u0b9f": 29920, "stefan": 8852, "carp": 29267, "jasper": 14791, "##gles": 17125, "pau": 29025, "yank": 23178, "immune": 11311, "nonsense": 14652, "manufactured": 7609, "acknowledging": 21894, "cantata": 23629, "1652": 28853, "languages": 4155, "brakes": 13627, "shrewsbury": 18174, "apply": 6611, "paralympics": 15600, "whig": 21632, "northern": 2642, "thinner": 23082, "gifford": 29360, "hemingway": 27299, "diagonal": 19754, "souza": 26598, "ina": 27118, "soyuz": 29412, "meadows": 13524, "screwed": 14180, "stacey": 19997, "##\u30ca": 30241, "paramount": 11734, "sabah": 22515, "sponsoring": 29396, "##valent": 24879, "pilgrim": 21214, "posing": 20540, "##ility": 15148, "bracing": 25919, "symphony": 6189, "successive": 11165, "soundtrack": 6050, "affordable": 15184, "\u0561": 1219, "waterford": 17769, "hardin": 27522, "ev": 23408, "togo": 23588, "##nka": 25804, "flock": 19311, "\u30ab": 1700, "wreckage": 21056, "##drum": 21884, "##bots": 27014, "message": 4471, "pointedly": 28713, "staying": 6595, "petroleum": 11540, "submarines": 12622, "estadio": 14143, "wu": 8814, "temporary": 5741, "le": 3393, "##park": 14432, "##gie": 11239, "##\u1d62": 19109, "persistence": 28297, "ir": 20868, "debuting": 24469, "sensible": 21082, "##\u533a": 30308, "##gre": 17603, "stress": 6911, "rb": 21144, "feeder": 21429, "robbed": 20114, "aztec": 25245, "##alla": 25425, "##\u099b": 29893, "tumor": 13656, "rocket": 7596, "highlanders": 22672, "mocking": 19545, "uniting": 26112, "seventh": 5066, "ease": 7496, "##verance": 21998, "[unused894]": 899, "condom": 20910, "vilnius": 20513, "33rd": 20883, "\u27e9": 1630, "virgil": 17270, "intently": 16170, "explicit": 13216, "social": 2591, "47": 4700, "sands": 13457, "blasting": 26239, "capability": 10673, "nike": 18368, "[unused285]": 290, "fascination": 18987, "goose": 13020, "scholars": 5784, "ethanol": 22886, "mein": 24182, "part": 2112, "aging": 12520, "unconscious": 9787, "themes": 6991, "403": 28203, "rampage": 29216, "##lou": 23743, "decide": 5630, "##rrier": 27051, "1625": 26263, "renegade": 28463, "compilations": 22754, "1859": 8165, "ow": 27593, "churches": 5231, "##iba": 18410, "darkest": 23036, "[unused46]": 47, "abducted": 20361, "nod": 7293, "spices": 21729, "##\u03b7": 24824, "herrera": 23527, "##rel": 16570, "racers": 25791, "##xt": 18413, "##ings": 8613, "[unused371]": 376, "##gman": 25494, "relegation": 9591, "competence": 22219, "shaken": 16697, "##\u00a8": 29651, "##mar": 7849, "[unused31]": 32, "pencil": 14745, "partition": 13571, "shipment": 22613, "barnes": 9957, "attire": 20426, "##\u207a": 12744, "##tang": 26067, "dysfunction": 28466, "attacked": 4457, "##iful": 18424, "yankees": 11081, "babe": 11561, "grille": 26192, "governed": 9950, "mixer": 23228, "##hiko": 22204, "manifested": 24906, "##ich": 7033, "coverage": 6325, "frown": 11330, "\u057d": 1234, "raw": 6315, "engineering": 3330, "judas": 25326, "##ction": 7542, "\u1107": 1460, "potion": 26722, "envisioned": 18035, "paperwork": 17397, "thirty": 4228, "liv": 22135, "flank": 12205, "##eding": 17819, "arsenal": 9433, "pointless": 23100, "swam": 16849, "december": 2285, "aim": 6614, "relate": 14396, "psychological": 8317, "coasts": 20266, "sabbath": 19546, "causing": 4786, "leg": 4190, "hates": 16424, "\u5206": 1775, "spirited": 24462, "mommy": 20565, "##bread": 27035, "dee": 9266, "1936": 4266, "necessitated": 29611, "justine": 26377, "doubled": 11515, "\u307e": 1677, "triumphant": 25251, "valencia": 13083, "briefing": 27918, "1702": 26776, "##sable": 19150, "medial": 23828, "patton": 18090, "42": 4413, "passages": 13768, "save": 3828, "barred": 15605, "##\u0f0b": 29960, "cheat": 21910, "taxonomic": 27691, "##ash": 11823, "[unused367]": 372, "testament": 9025, "\u1da0": 1512, "consciously": 24447, "just": 2074, "tibet": 13319, "hurt": 3480, "shifters": 21537, "ventura": 21151, "beit": 28236, "wolff": 23498, "##phic": 17926, "breeding": 8119, "##zee": 23940, "nikolay": 28494, "%": 1003, "pumped": 16486, "capitalism": 16498, "1718": 26995, "efforts": 4073, "mechanic": 15893, "medallion": 22541, "nest": 9089, "consultative": 28581, "sudbury": 26487, "|": 1064, "nomination": 6488, "kun": 28919, "##uan": 13860, "##glass": 15621, "arising": 17707, "bring": 3288, "##buro": 23670, "preparatory": 13485, "smithsonian": 15720, "surplus": 15726, "peg": 25039, "oakland": 9182, "possibly": 4298, "##urrent": 29264, "clinched": 18311, "upper": 3356, "interlude": 25347, "attained": 12754, "wastewater": 28269, "tabloid": 24173, "coptic": 27672, "forgot": 9471, "##\u5742": 30329, "##ccus": 27631, "modern": 2715, "\u5b50": 1816, "##rdes": 26371, "safety": 3808, "whip": 11473, "pickering": 27078, "refining": 28596, "scent": 6518, "foothills": 18455, "##omy": 16940, "##logram": 24915, "##hn": 7295, "unbelievable": 23653, "invite": 13260, "transfers": 15210, "awhile": 19511, "landfill": 28382, "manifestation": 24491, "dvds": 22477, "bartender": 15812, "sheet": 7123, "gains": 12154, "##\u0b95": 29918, "price": 3976, "##dly": 18718, "##vino": 26531, "leaned": 4016, "resolving": 29304, "sharing": 6631, "stadiums": 28244, "conflict": 4736, "##fighting": 22158, "satisfy": 13225, "receive": 4374, "sheep": 8351, "favors": 21191, "abe": 14863, "somerset": 9198, "comical": 29257, "zurich": 10204, "stained": 9702, "520": 19611, "tired": 5458, "flop": 28583, "wurttemberg": 16346, "rodeo": 18936, "discreet": 29321, "consolidated": 10495, "peck": 18082, "\u7a7a": 1930, "americas": 10925, "reduction": 7312, "\u1019": 1437, "blink": 12373, "delayed": 8394, "pulp": 16016, "##ters": 7747, "mendes": 27916, "\u0642": 1292, "ao": 20118, "gay": 5637, "mollusk": 13269, "horned": 26808, "registry": 15584, "member": 2266, "crested": 25413, "badger": 24186, "damascus": 16094, "manuel": 7762, "carleton": 22273, "[unused205]": 210, "[unused257]": 262, "congregations": 16850, "sicilian": 22584, "##not": 17048, "leased": 12019, "anthologies": 25675, "proponent": 22488, "bhp": 22245, "illegally": 17800, "iso": 11163, "##ou": 7140, "##bri": 23736, "zee": 23727, "leyte": 27214, "sweet": 4086, "[unused593]": 598, "shards": 23327, "austin": 5899, "profitable": 15282, "capitol": 9424, "fc": 4429, "magical": 8687, "11th": 6252, "goldberg": 18522, "josie": 15293, "##icate": 24695, "##furt": 24428, "crook": 19302, "##enham": 23580, "standardization": 28648, "glided": 26936, "neural": 15756, "columbus": 8912, "giant": 5016, "ga": 11721, "peaks": 11373, "april": 2258, "atm": 27218, "unease": 27880, "favor": 5684, "spaceship": 25516, "miners": 11257, "##\u5fc4": 30376, "season": 2161, "grows": 7502, "##21": 17465, "researched": 18800, "\u0d9a": 1403, "markets": 6089, "##ock": 7432, "legendary": 8987, "##quil": 26147, "clusters": 12906, "corbin": 24003, "intended": 3832, "[unused152]": 157, "nichols": 15746, "bladder": 24176, "##ched": 7690, "##\u02d0": 23432, "pueblo": 18273, "rain": 4542, "landslide": 20148, "slices": 25609, "##kov": 7724, "incorrectly": 19721, "exemption": 19621, "potential": 4022, "warp": 24136, "learning": 4083, "copenhagen": 9664, "\u3061": 1662, "pebbles": 28962, "lurched": 21977, "##wash": 28556, "irrational": 23179, "\u00ba": 1089, "##promising": 25013, "##\u11bc": 30025, "concentrations": 14061, "##grants": 27444, "##bang": 25153, "satire": 18312, "ambiguity": 27637, "taught": 4036, "smith": 3044, "moreno": 17921, "##odies": 27391, "\u5065": 1768, "barbara": 6437, "##ique": 7413, "frontman": 21597, "wireless": 9949, "destinations": 14345, "750": 9683, "##ne": 2638, "truly": 5621, "fatty": 19101, "\u0925": 1324, "seasoned": 28223, "smack": 21526, "##ikh": 28209, "pathways": 16910, "duct": 23245, "##sch": 11624, "nbc": 6788, "mail": 5653, "process": 2832, "what": 2054, "swedish": 4467, "appearance": 3311, "1": 1015, "invested": 11241, "##gas": 12617, "##oko": 16366, "##ct": 6593, "aidan": 12643, "##wled": 28365, "seasons": 3692, "##rao": 25667, "differ": 11234, "lifeboat": 23450, "nj": 19193, "thoughtfully": 19897, "seizure": 18634, "undergo": 13595, "afraid": 4452, "diplomat": 11125, "boroughs": 21413, "vu": 24728, "uno": 27776, "\u0431": 1181, "robb": 26211, "don": 2123, "cabbage": 28540, "belongs": 7460, "mouth": 2677, "##$": 29615, "clergyman": 22232, "maximum": 4555, "##\u2265": 30136, "grew": 3473, "61": 6079, "fibre": 20962, "bulgarian": 7643, "contrary": 10043, "terms": 3408, "##ashi": 12914, "weeds": 20777, "roofs": 15753, "arbitration": 18010, "censorship": 15657, "scowled": 17474, "prosecutor": 12478, "[unused618]": 623, "gould": 14913, "dracula": 18500, "##inger": 9912, "beamed": 22587, "##chrome": 20366, "cyclist": 14199, "thousand": 4595, "kota": 23856, "vatican": 12111, "guam": 16162, "lifted": 4196, "sphere": 10336, "zheng": 20985, "p": 1052, "politely": 16954, "##uche": 19140, "##\u044e": 29757, "patriotic": 14314, "southernmost": 21787, "tenants": 14665, "##bis": 18477, "[unused857]": 862, "shoot": 5607, "wanted": 2359, "ipad": 25249, "silly": 10021, "hiding": 6318, "##eia": 27958, "priests": 8656, "[unused249]": 254, "shuddered": 13937, "classmates": 19846, "##mas": 9335, "bree": 21986, "childbirth": 27162, "hardened": 15015, "thanked": 15583, "beethoven": 15461, "[unused395]": 400, "lambda": 23375, "leaps": 29195, "sustainability": 15169, "skimmed": 28862, "oversized": 21698, "delgado": 26532, "occurred": 4158, "sense": 3168, "liga": 8018, "clifford": 13894, "##ople": 27469, "liking": 16663, "[unused443]": 448, "comprehensive": 7721, "illustration": 14614, "##iya": 8717, "oct": 13323, "widow": 7794, "anger": 4963, "aggregate": 9572, "venezuela": 8326, "rotating": 13618, "heaven": 6014, "\u6b63": 1888, "duchess": 11017, "whirled": 17097, "approx": 22480, "\u2074": 1538, "midst": 12930, "archer": 11024, "##bation": 23757, "[unused418]": 423, "braced": 15515, "childless": 26983, "companies": 3316, "##itical": 26116, "191": 19871, "anchorage": 21086, "seminal": 20603, "countryside": 10833, "regret": 9038, "siberian": 21822, "##bro": 12618, "turtle": 13170, "##lene": 11474, "banjo": 16698, "contradictory": 27894, "##ber": 5677, "successful": 3144, "##nko": 16107, "##cen": 27524, "##partisan": 26053, "smashed": 14368, "corrugated": 27186, "##hin": 10606, "idols": 24438, "\u0bc8": 1399, "initials": 20381, "respected": 9768, "lakeside": 28701, "delighted": 15936, "executives": 12706, "middleton": 17756, "seductive": 23182, "coco": 25033, "leveled": 22915, "pleasing": 24820, "botany": 17018, "importance": 5197, "elemental": 19529, "hack": 20578, "restless": 15035, "hyde": 11804, "##\u30e7": 30256, "##zal": 16739, "[unused262]": 267, "paperback": 13611, "##uf": 16093, "agricultural": 4910, "unfair": 15571, "eleventh": 11911, "classification": 5579, "##hua": 14691, "tugging": 17100, "subdivided": 15369, "##lar": 8017, "committee": 2837, "##\u2096": 30094, "coalition": 6056, "statements": 8635, "##ago": 23692, "##ipe": 15457, "[unused110]": 115, "liza": 20503, "[unused868]": 873, "talmud": 24380, "[unused790]": 795, "relocate": 20102, "kim": 5035, "pastor": 9220, "sd": 17371, "evelyn": 12903, "goats": 17977, "##nell": 9091, "anhalt": 27088, "screenplay": 9000, "##ar": 2906, "logan": 6307, "humor": 8562, "##gist": 24063, "##ured": 12165, "node": 13045, "lockheed": 17646, "switzerland": 5288, "dei": 14866, "1737": 26738, "servants": 8858, "adds": 9909, "##\u0142aw": 19704, "##\u02b0": 29706, "sung": 7042, "boundary": 6192, "ps": 8827, "successes": 14152, "autonomy": 12645, "succeed": 9510, "darwin": 11534, "[unused728]": 733, "emery": 24294, "merry": 12831, "moines": 23286, "robin": 5863, "\u9762": 1976, "speechless": 25146, "covert": 19813, "against": 2114, "##train": 23654, "bidding": 17534, "dancers": 10487, "##zam": 20722, "yourself": 4426, "severed": 16574, "blue": 2630, "##\u0570": 29775, "indexed": 25331, "##mined": 25089, "stabbed": 13263, "holden": 9988, "##rise": 29346, "##51": 22203, "halftime": 22589, "86": 6564, "honesty": 16718, "##lation": 13490, "\u694a": 1883, "##\u8c9d": 30478, "cedric": 26170, "cynical": 26881, "applause": 20737, "atomic": 9593, "generosity": 26161, "##\u751f": 30436, "tiles": 13262, "##cki": 18009, "dynamite": 21719, "futile": 24495, "\u03c6": 1176, "reset": 25141, "graveyard": 16685, "oldest": 4587, "airlift": 20019, "immaculate": 19532, "defended": 8047, "##\u91d1": 30490, "##islav": 19834, "tate": 9902, "##ffer": 12494, "mega": 13164, "jong": 18528, "travis": 10001, "dolphin": 17801, "montagu": 26241, "eldest": 7310, "##glers": 25555, "chamberlain": 13904, "covering": 5266, "zoe": 11199, "influence": 3747, "##name": 18442, "prepared": 4810, "##him": 14341, "bournemouth": 22882, "##gee": 18372, "households": 3911, "[unused939]": 944, "strength": 3997, "islanders": 16422, "##zos": 28370, "##hg": 25619, "##mberg": 29084, "serious": 3809, "skilled": 10571, "kazakh": 25907, "laude": 21602, "cooked": 12984, "visions": 12018, "godzilla": 26631, "ups": 11139, "##anto": 21634, "simply": 3432, "##oteric": 29112, "##\u211d": 30107, "accessories": 16611, "##shu": 14235, "searching": 6575, "nc": 13316, "sponsorship": 12026, "caught": 3236, "##itaire": 29422, "buccaneers": 21629, "##tan": 5794, "fanny": 17813, "sacrament": 28958, "polls": 14592, "heating": 10808, "1604": 28754, "##mons": 16563, "[unused406]": 411, "\u5bbf": 1826, "[unused980]": 985, "mattered": 13836, "##ern": 11795, "limited": 3132, "##udy": 20217, "tariff": 23234, "egyptians": 23437, "cas": 25222, "developers": 9797, "322": 23768, "columbian": 25882, "ledger": 27106, "[unused803]": 808, "fatima": 27596, "nicholls": 27043, "drift": 11852, "falcon": 11684, "inactive": 16389, "kylie": 9008, "##rika": 23778, "speaking": 4092, "##\u66f8": 30397, "hilton": 15481, "colleagues": 8628, "##lova": 24221, "##fed": 25031, "imperial": 4461, "swayed": 20122, "1624": 28531, "besieged": 17923, "alvin": 17348, "lange": 21395, "1894": 6539, "##uchi": 15217, "joint": 4101, "[unused264]": 269, "\u03b5": 1159, "charming": 11951, "clint": 16235, "conditioning": 14372, "skipping": 25978, "gift": 5592, "filed": 6406, "bliss": 13670, "carriage": 9118, "baroness": 21479, "gregory": 7296, "##vna": 29207, "jerusalem": 6744, "weight": 3635, "braves": 13980, "verification": 22616, "##bour": 25127, "\u2208": 1596, "rows": 10281, "##rked": 19849, "##eman": 16704, "##rence": 24413, "chair": 3242, "del": 3972, "manga": 8952, "surrendered": 10795, "factor": 5387, "##take": 15166, "hailey": 21664, "nanny": 19174, "memorandum": 20336, "daughters": 5727, "altered": 8776, "dubai": 11558, "tourism": 6813, "[unused194]": 199, "syed": 19740, "gauge": 7633, "panama": 8515, "bacteria": 10327, "useful": 6179, "vera": 12297, "fired": 5045, "##vale": 17479, "##it": 4183, "\u2075": 1539, "##onate": 21149, "lip": 5423, "macintosh": 22228, "faltered": 26015, "323": 25392, "phrases": 15672, "apollo": 9348, "peshawar": 28777, "##lio": 12798, "doom": 12677, "johannes": 12470, "coincided": 18616, "##ai": 4886, "##urian": 29091, "##adt": 18727, "undisclosed": 18206, "##47": 22610, "compensate": 19079, "rotherham": 27456, "battalion": 4123, "bridget": 19218, "donated": 6955, "spurred": 22464, "muttered": 6250, "casting": 9179, "##wei": 19845, "mach": 24532, "accordingly": 11914, "technical": 4087, "discretion": 19258, "nrl": 20686, "coming": 2746, "##eptive": 22048, "##che": 5403, "rae": 14786, "naples": 10553, "leafs": 21349, "kala": 26209, "\u99ac": 1980, "pattern": 5418, "express": 4671, "howell": 18473, "aiming": 13659, "longitude": 20413, "monde": 23117, "medications": 20992, "historia": 19891, "screened": 12238, "nissan": 16509, "##hly": 27732, "mobility": 12969, "ideological": 17859, "nick": 4172, "historically": 7145, "##ross": 25725, "sensors": 13907, "\u028a": 1132, "relies": 16803, "forgetting": 17693, "favorable": 11119, "touched": 5028, "##ks": 5705, "taft": 19911, "as": 2004, "lai": 21110, "observes": 24451, "wo": 24185, "order": 2344, "coven": 25248, "definitive": 15764, "gunners": 29000, "angrily": 14136, "holm": 28925, "factions": 13815, "\u300c": 1641, "##aan": 14634, "sheer": 11591, "authoritative": 23949, "didn": 2134, "cecilia": 18459, "fletcher": 10589, "cheer": 15138, "splendid": 21459, "personal": 3167, "##idium": 28742, "authentic": 14469, "##\u0631": 17149, "##mbled": 23931, "\u2609": 1622, "##inas": 15227, "##tarian": 28897, "raising": 6274, "bewildered": 24683, "##elial": 24587, "continuum": 22961, "involves": 7336, "reaches": 6561, "[unused948]": 953, "tu": 10722, "constantine": 12790, "##yam": 14852, "grateful": 8794, "marathon": 8589, "reasoning": 13384, "solos": 24339, "opponent": 7116, "mask": 7308, "framework": 7705, "troll": 18792, "sexy": 7916, "hobbs": 23748, "originating": 14802, "eternal": 10721, "helping": 5094, "recounts": 23412, "stevenson": 13636, "##acio": 21361, "dreaming": 12802, "lump": 15116, "incarnation": 15715, "genevieve": 20245, "airfields": 25278, "10": 2184, "monitors": 15410, "glances": 13021, "pensions": 22024, "[unused538]": 543, "##how": 14406, "\u1d49": 1499, "1725": 25651, "frederick": 5406, "turbines": 17396, "beasts": 15109, "lcd": 27662, "irregular": 12052, "sonata": 14681, "mildly": 19499, "##lein": 19856, "##ari": 8486, "##\u51fa": 30300, "films": 3152, "##gang": 24930, "mel": 11463, "bavaria": 11606, "yun": 22854, "dvd": 4966, "##\u7684": 30442, "dorian": 16092, "tradition": 4535, "completion": 6503, "circles": 7925, "[unused122]": 127, "##\u05d3": 29791, "##grating": 28183, "##\u3048": 30175, "professions": 22797, "##bourne": 11634, "##tically": 25084, "##nsk": 25564, "plaza": 8232, "moldova": 16772, "vip": 21722, "lore": 19544, "##\u8eca": 30480, "[unused738]": 743, "##tsky": 26824, "helene": 20149, "##yr": 12541, "##kur": 18569, "bid": 7226, "options": 7047, "337": 28489, "kiara": 28870, "sin": 8254, "15th": 6286, "performers": 9567, "estates": 8707, "presidential": 4883, "devised": 14917, "introduce": 8970, "freezing": 12809, "##washed": 27283, "##\u2075": 30074, "booklet": 19271, "vibration": 17880, "investor": 14316, "filmed": 6361, "debuts": 26740, "##tite": 23096, "##ala": 7911, "lightning": 7407, "floated": 13715, "less": 2625, "marina": 9985, "helmet": 10412, "beautifully": 17950, "[unused120]": 125, "\u05e8": 1265, "warfare": 8309, "##ddle": 20338, "thinkers": 24762, "lazy": 13971, "lark": 23404, "1958": 3845, "entrepreneurship": 20213, "expectations": 10908, "crops": 8765, "redesignated": 11836, "##lly": 9215, "concourse": 28571, "##oli": 10893, "[unused474]": 479, "mixing": 6809, "julio": 15090, "pleasure": 5165, "##iary": 17302, "pits": 14496, "europe": 2885, "##lkirk": 23913, "conference": 3034, "\u0965": 1345, "publicized": 24928, "vertically": 20018, "earth": 3011, "##ckman": 24080, "convict": 20462, "shy": 11004, "[unused560]": 565, "aspiring": 22344, "realism": 15650, "[unused144]": 149, "twitched": 16767, "[unused68]": 69, "catchment": 22865, "arresting": 28427, "nic": 27969, "\u6f22": 1904, "##hae": 25293, "ranging": 7478, "thyroid": 29610, "##itative": 29293, "stirling": 15597, "geologist": 21334, "hiv": 9820, "stroked": 11699, "114": 12457, "university": 2118, "going": 2183, "\u0251": 1110, "pose": 13382, "##uity": 18518, "morphological": 24012, "##ience": 13684, "mansfield": 15352, "[unused681]": 686, "explorer": 10566, "races": 3837, "##rys": 24769, "perfection": 15401, "##force": 14821, "##cial": 13247, "necessary": 4072, "pv": 26189, "heard": 2657, "exploited": 18516, "injured": 5229, "une": 16655, "shaman": 23610, "launch": 4888, "##\u5149": 30296, "##ski": 5488, "model": 2944, "cao": 12966, "confrontation": 13111, "surfing": 19967, "##nosis": 27109, "[unused350]": 355, "[unused901]": 906, "cursing": 19752, "contemporaries": 16682, "##rh": 25032, "open": 2330, "elevations": 18166, "\u1169": 1475, "exiles": 27127, "##sphere": 23874, "one": 2028, "\u6cd5": 1901, "realised": 11323, "sat": 2938, "barons": 21487, "fiona": 13073, "endeavor": 23855, "##oit": 28100, "pregnant": 6875, "##strom": 15687, "call": 2655, "canary": 17154, "##vard": 25911, "##house": 4580, "grimsby": 24470, "this": 2023, "spoiled": 19582, "congregational": 20809, "greedy": 20505, "assignments": 14799, "##olved": 16116, "charting": 17918, "royce": 14789, "recognise": 17614, "ucla": 12389, "centennial": 15483, "##\u2122": 30108, "nickelodeon": 20814, "gems": 20296, "##lain": 15987, "mexico": 3290, "sql": 29296, "grasped": 15517, "scientists": 6529, "townland": 23635, "ro": 20996, "[unused968]": 973, "##old": 11614, "##wani": 29092, "pretending": 12097, "seekers": 24071, "maneuver": 17519, "reindeer": 29495, "##ffs": 21807, "h\u2082o": 24833, "\u0bb2": 1392, "brigadier": 9900, "tips": 10247, "pioneer": 7156, "##inatory": 28230, "1729": 28449, "again": 2153, "memories": 5758, "stevens": 8799, "gulped": 25411, "clinch": 29119, "can": 2064, "repression": 22422, "##firm": 27972, "730": 28004, "moravian": 28131, "weakened": 11855, "mundo": 25989, "gateway": 11909, "\u110b": 1463, "holding": 3173, "takes": 3138, "statue": 6231, "defeated": 3249, "[unused171]": 176, "##ified": 7810, "plots": 14811, "cleaning": 9344, "##ctable": 23576, "laboratories": 12030, "things": 2477, "##grate": 22780, "\u898b": 1948, "termination": 18287, "benefactor": 27398, "howie": 28211, "##guard": 18405, "platt": 28005, "escorting": 23831, "1972": 3285, "con": 9530, "kept": 2921, "formations": 13197, "determined": 4340, "[unused459]": 464, "\u9234": 1965, "bluff": 14441, "helpful": 14044, "victor": 5125, "##pace": 15327, "##tance": 26897, "achievements": 10106, "monarch": 11590, "##say": 24322, "##tad": 17713, "1854": 8421, "##cier": 19562, "anatomical": 28141, "akira": 21616, "##nius": 20447, "fielded": 20988, "smuggling": 19535, "scar": 11228, "compositions": 9265, "riches": 26768, "##usia": 24118, "sam": 3520, "##tford": 26341, "terrain": 9291, "##rov": 12298, "polling": 17888, "1821": 11723, "fortune": 7280, "##1": 2487, "laughs": 11680, "[unused634]": 639, "watford": 21740, "pharmaceutical": 13859, "horace": 12757, "slovakia": 10991, "divisions": 5908, "[unused637]": 642, "increases": 7457, "waited": 4741, "##grin": 24860, "pupil": 11136, "stay": 2994, "\u592b": 1813, "##peed": 25599, "##ices": 23522, "competent": 17824, "stimulate": 23216, "various": 2536, "##\u11b7": 30023, "\u1d4f": 1501, "329": 29567, "tchaikovsky": 25900, "show": 2265, "##ogenic": 24278, "kai": 11928, "typing": 22868, "saxophonist": 19977, "gma": 20917, "recovered": 6757, "christopher": 5696, "nazareth": 27192, "\u0448": 1203, "overlooked": 17092, "outnumbered": 21943, "\u53e3": 1788, "labelled": 18251, "welterweight": 20882, "##cious": 18436, "##uw": 25974, "information": 2592, "bbc": 4035, "##nde": 13629, "sing": 6170, "newman": 10625, "leader": 3003, "sequence": 5537, "sonar": 24609, "countered": 17970, "##ator": 8844, "represents": 5836, "gladys": 22386, "ragged": 14202, "rash": 23438, "##well": 4381, "##raz": 20409, "epsilon": 28038, "curtain": 11002, "##lea": 19738, "marguerite": 15334, "##puram": 17809, "enveloped": 25407, "gretchen": 21625, "stigma": 26453, "cleopatra": 22003, "12": 2260, "##lino": 25226, "##oux": 28700, "geography": 10505, "vibrated": 27801, "curated": 17940, "positioning": 19120, "hill": 2940, "##ctions": 22014, "##\u05e5": 29808, "salts": 23480, "resigning": 24642, "singh": 5960, "maru": 26280, "attested": 18470, "varied": 9426, "dempsey": 28165, "##lic": 10415, "yanking": 25716, "latter": 3732, "essays": 8927, "hundred": 3634, "doha": 26528, "hang": 6865, "manuscript": 8356, "aisles": 25442, "diagram": 16403, "michelle": 9393, "distressed": 24305, "##\u02bb": 29711, "quantitative": 20155, "lauderdale": 23520, "/": 1013, "riga": 17557, "neal": 11030, "stare": 6237, "##\u2088": 30084, "slowed": 9784, "announcements": 25674, "kings": 5465, "##hore": 16892, "rats": 11432, "milwaukee": 9184, "polymer": 17782, "##mbling": 29256, "hymn": 14825, "demise": 13614, "ar": 12098, "deny": 9772, "##pee": 28084, "caesar": 11604, "1920s": 6641, "glaciers": 21193, "liquor": 13207, "organized": 4114, "accusations": 13519, "hoping": 5327, "kilometers": 7338, "telephone": 7026, "litigation": 15382, "church": 2277, "hawke": 24882, "premature": 21371, "##mage": 26860, "labeled": 12599, "nearest": 7205, "pike": 12694, "preoccupied": 23962, "##itor": 15660, "##bit": 16313, "balfour": 27560, "visually": 17453, "reunited": 11653, "##\u2212": 22543, "[unused527]": 532, "brant": 29182, "\u6b66": 1889, "lim": 18525, "disappointment": 10520, "vector": 9207, "preliminary": 8824, "nets": 16996, "genres": 11541, "bolton": 12118, "##beck": 12750, "wesleyan": 19858, "claus": 19118, "##icular": 21412, "hayward": 21506, "labels": 10873, "both": 2119, "##sis": 6190, "battalions": 10157, "aesthetic": 12465, "1778": 16331, "cupped": 13740, "##nica": 12782, "recovery": 7233, "playback": 18245, "repay": 24565, "overseen": 22485, "##\u00b2": 10701, "\u308a": 1686, "ep": 4958, "##\u05dd": 29800, "million": 2454, "plotting": 20699, "bubbles": 17255, "trainer": 10365, "##aves": 21055, "currency": 9598, "teens": 13496, "contexts": 18046, "blindly": 25734, "forward": 2830, "worthless": 22692, "breakdown": 12554, "liturgy": 21176, "tremor": 27734, "unexpected": 9223, "navigator": 20532, "conscription": 26329, "more": 2062, "unwilling": 15175, "organisations": 8593, "southend": 26104, "tobin": 28096, "calculus": 19276, "strangely": 13939, "become": 2468, "pillows": 17860, "walden": 24834, "be": 2022, "watches": 12197, "valerie": 14264, "ice": 3256, "\u68ee": 1882, "clad": 13681, "fate": 6580, "perpendicular": 19581, "aleksandr": 24020, "##nds": 18376, "seemingly": 9428, "1982": 3196, "props": 24387, "bullock": 25200, "alloy": 17564, "##rim": 20026, "rehab": 24497, "##\u72ac": 30434, "14": 2403, "obsolete": 15832, "such": 2107, "fungus": 16622, "ninety": 13568, "max": 4098, "southampton": 11833, "##nator": 27413, "[unused544]": 549, "yearly": 12142, "##bold": 27495, "ray": 4097, "idiot": 10041, "shores": 13312, "\u30ce": 1717, "grill": 18651, "##wu": 16050, "hunger": 9012, "juvenile": 11799, "##jic": 25008, "[unused186]": 191, "receiving": 4909, "credible": 23411, "\u2286": 1611, "##\u05e7": 29810, "blackburn": 13934, "roads": 4925, "dominic": 11282, "removal": 8208, "sausage": 24165, "sergio": 13983, "recreational": 10517, "guerra": 24698, "epidemic": 16311, "residences": 14094, "dictated": 23826, "mare": 11941, "commissions": 13239, "on": 2006, "universities": 5534, "leopold": 12752, "26th": 14935, "idf": 24011, "1852": 8784, "rumored": 22710, "roommate": 18328, "##pies": 13046, "500": 3156, "exploit": 18077, "violet": 8766, "examinations": 14912, "pga": 14198, "##rol": 13153, "alignment": 12139, "[unused104]": 109, "##gpur": 25758, "cherokee": 13796, "##\u65b9": 30389, "[unused673]": 678, "lac": 18749, "##ques": 10997, "smash": 15132, "crack": 8579, "##ographic": 13705, "tinged": 22683, "polgara": 27041, "nik": 23205, "##\u00e6": 29667, "expenditure": 20700, "wta": 21925, "##jo": 5558, "masculine": 14818, "narrated": 17356, "##ytic": 21252, "caves": 10614, "seas": 11915, "trains": 4499, "generations": 8213, "327": 28469, "##6": 2575, "tan": 9092, "observe": 11949, "##horn": 9769, "notions": 21951, "armies": 8749, "\u0569": 1224, "andhra": 14065, "repulsed": 24571, "delegates": 10284, "wolves": 8588, "collectively": 13643, "domingo": 15586, "wrote": 2626, "[unused197]": 202, "argue": 7475, "308": 24232, "stunned": 9860, "semiconductor": 20681, "comte": 19758, "israel": 3956, "##om": 5358, "underside": 17313, "let": 2292, "carol": 8594, "kowalski": 28874, "##\u30fc": 30265, "[unused947]": 952, "co\u2082": 20190, "##ong": 5063, "must": 2442, "negative": 4997, "refit": 27070, "stalls": 19753, "cdc": 26629, "##hy": 10536, "creations": 20677, "\u91cc": 1962, "klein": 12555, "brahms": 28419, "avenues": 20859, "##bly": 6321, "[unused788]": 793, "\u0996": 1354, "263": 25246, "jae": 22770, "warsaw": 8199, "abdul": 10298, "##pathic": 25940, "bail": 15358, "casey": 9036, "##tory": 7062, "##gue": 9077, "copyright": 9385, "dictator": 21237, "##ev": 6777, "sirens": 20675, "##rangle": 21476, "claws": 10702, "##\\": 29635, "bound": 5391, "trumpets": 26506, "cornerback": 26857, "##py": 7685, "##iano": 15668, "bun": 21122, "doing": 2725, "##aur": 21159, "basics": 24078, "friday": 5958, "##yya": 19903, "surrender": 7806, "medina": 15761, "society": 2554, "ingredients": 12760, "swell": 18370, "skirmish": 27264, "1675": 27194, "stanton": 15845, "290": 17222, "##lf": 10270, "##rang": 24388, "orleans": 5979, "traumatic": 19686, "\u0434": 1184, "stood": 2768, "marked": 4417, "proving": 13946, "##owed": 15096, "afterwards": 5728, "##ining": 24002, "meaningful": 15902, "inclined": 13050, "st": 2358, "##yuki": 19663, "godfather": 23834, "dame": 8214, "ether": 28855, "770": 29065, "mouthed": 20521, "waivers": 28654, "ou": 15068, "##\u516c": 30298, "izzy": 16699, "50": 2753, "tipperary": 17333, "guarded": 13802, "##nberger": 28825, "messages": 7696, "tufts": 25252, "##heart": 22375, "combinations": 14930, "\u0458": 1214, "trolley": 20820, "ominous": 23504, "determination": 9128, "##vitt": 28656, "noisy": 20810, "archive": 8756, "mortally": 26495, "chapman": 11526, "bros": 10243, "evaluated": 16330, "retired": 3394, "bergen": 12674, "voting": 6830, "suicidal": 26094, "coughed": 19055, "ulrich": 19619, "cameron": 7232, "##urne": 21737, "##fa": 7011, "cooper": 6201, "lombardy": 27728, "[unused643]": 648, "competitors": 10159, "rear": 4373, "##tell": 23567, "##vb": 26493, "sanjay": 29590, "camille": 16675, "dungeon": 16633, "delaware": 8452, "gable": 13733, "##ap": 9331, "implies": 12748, "mbc": 27262, "##nished": 28357, "quoting": 27394, "rudy": 18254, "abduction": 23415, "consist": 8676, "seo": 27457, "contempt": 17152, "find": 2424, "playable": 16854, "george": 2577, "ultimately": 4821, "penetration": 20015, "flip": 11238, "payroll": 26854, "torah": 16297, "nicola": 17388, "articulated": 20742, "afterlife": 25115, "tigers": 7600, "##\u2089": 30085, "leading": 2877, "shrinking": 28375, "suggest": 6592, "##riding": 21930, "resolve": 10663, "graf": 22160, "##24": 18827, "apologies": 25380, "hottest": 20930, "marshal": 8610, "17": 2459, "hertfordshire": 18889, "festivals": 7519, "nunez": 28454, "\u4f8d": 1765, "biting": 12344, "cbe": 15852, "##nte": 10111, "plasma": 12123, "1946": 3918, "##od": 7716, "bowled": 19831, "dated": 6052, "abbott": 14455, "##kowski": 15449, "##oire": 26250, "peacekeeping": 28364, "flawed": 25077, "geographically": 20969, "garbage": 13044, "meant": 3214, "catalonia": 16711, "nodes": 14164, "kinetic": 20504, "runaway": 19050, "branded": 11180, "suck": 11891, "plantation": 10065, "1665": 27676, "##aga": 16098, "ultraviolet": 26299, "exhaust": 15095, "##ria": 4360, "\u0ba4": 1385, "fleetwood": 23866, "pledged": 16970, "##iz": 10993, "volvo": 21074, "[unused648]": 653, "twisting": 12814, "understanding": 4824, "holder": 9111, "##\u3059": 30184, "1977": 3355, "patron": 9161, "audrey": 14166, "[unused662]": 667, "\u10d9": 1446, "[unused715]": 720, "derelict": 28839, "kindly": 19045, "weighs": 21094, "depths": 11143, "travers": 29053, "opens": 7480, "sprawled": 21212, "newcomers": 24159, "matters": 5609, "##ist": 2923, "vulnerability": 18130, "##oris": 21239, "stepmother": 26959, "interfaces": 19706, "planetary": 17700, "wr": 23277, "payload": 18093, "won": 2180, "sal": 16183, "[unused357]": 362, "\u307f": 1678, "pre": 3653, "mouse": 8000, "arabian": 13771, "24th": 13386, "dispose": 27764, "cheshire": 13789, "pam": 14089, "juicy": 28900, "waist": 5808, "clutches": 29497, "dryly": 20825, "##iza": 21335, "differed": 19541, "brothel": 27308, "electronic": 4816, "coiled": 24599, "marketed": 11625, "##\u2248": 30133, "patents": 13979, "19": 2539, "hum": 14910, "##izing": 6026, "venture": 6957, "##rval": 26585, "##agi": 22974, "observers": 14009, "mechanical": 6228, "sabrina": 21876, "blouse": 18149, "drum": 6943, "traditional": 3151, "comprising": 9605, "cubic": 11919, "##\u0d9a": 29939, "explosions": 18217, "rustic": 27471, "##lham": 25968, "##zawa": 19708, "fundamental": 8050, "##bbs": 17226, "imagery": 13425, "explanations": 17959, "vichy": 29177, "specify": 20648, "aspect": 7814, "##ti": 3775, "##dak": 23597, "##list": 9863, "internationale": 21339, "livery": 18475, "##ip": 11514, "##nta": 12380, "particular": 3327, "deed": 15046, "\u1165": 1472, "oil": 3514, "##main": 24238, "[unused784]": 789, "mind": 2568, "avenge": 24896, "rookie": 8305, "cows": 17188, "maze": 15079, "##\u4eac": 30281, "seated": 8901, "prof": 11268, "lyon": 10241, "adept": 26398, "montana": 8124, "##ayan": 25868, "##\u7af9": 30459, "marquez": 27320, "kabul": 21073, "listened": 7791, "belle": 9852, "##hora": 16977, "kinship": 27866, "acid": 5648, "commonwealth": 5663, "peaceful": 9379, "innovative": 9525, "1784": 16496, "surprising": 11341, "pulled": 2766, "meetings": 6295, "##ali": 11475, "pairing": 22778, "mission": 3260, "interrupt": 17938, "tapestry": 25213, "##his": 24158, "occurrence": 14404, "interesting": 5875, "##lli": 6894, "90": 3938, "\u6b62": 1887, "[unused378]": 383, "discusses": 15841, "fare": 13258, "forks": 19896, "##sb": 19022, "##felt": 26675, "stimulus": 19220, "toxicity": 22423, "glacial": 17381, "##code": 16044, "apron": 20376, "[unused73]": 74, "decidedly": 27873, "fore": 18921, "invalid": 19528, "shade": 8703, "revealing": 8669, "##systems": 29390, "##court": 13421, "[unused302]": 307, "targets": 7889, "tod": 28681, "substances": 13978, "magnate": 27470, "wheeler": 12819, "compiler": 21624, "willem": 18811, "##thi": 15222, "checkpoint": 26520, "##ban": 8193, "##aba": 19736, "##poulos": 24662, "expensive": 6450, "trier": 25487, "norfolk": 7735, "developed": 2764, "sindh": 20284, "thrusts": 25842, "tournament": 2977, "curate": 27530, "cradled": 23774, "##lwyn": 29287, "##\u044b": 29113, "##meister": 28824, "slide": 7358, "elbow": 8999, "thanks": 4283, "swollen": 13408, "implementations": 24977, "siding": 17326, "tidal": 15065, "252": 22898, "\u043f": 1194, "julian": 6426, "overrun": 24672, "##bius": 17028, "##bird": 9001, "detachments": 29568, "doubtful": 21888, "##mento": 23065, "moffat": 28528, "345": 23785, "agrarian": 23226, "facades": 28708, "diner": 15736, "feeds": 14172, "baths": 19692, "hastings": 12296, "##wig": 16279, "radiant": 23751, "[unused196]": 201, "ile": 17869, "outlined": 14801, "bodies": 4230, "##cased": 28969, "[unused955]": 960, "keys": 6309, "daily": 3679, "uphold": 27329, "to": 2000, "specials": 19247, "upland": 25770, "##\u00bf": 29666, "squad": 4686, "with": 2007, "##\u9593": 30495, "nicole": 9851, "gina": 17508, "sob": 17540, "utilization": 27891, "sizes": 10826, "ian": 4775, "arrest": 6545, "##ndi": 16089, "vocational": 13099, "beds": 9705, "broadband": 19595, "storylines": 22628, "tonic": 28157, "armstrong": 9143, "governing": 8677, "2000s": 8876, "milano": 21613, "stares": 14020, "remarks": 12629, "1762": 20827, "contemporary": 3824, "hue": 20639, "entrances": 18084, "bull": 7087, "oaxaca": 26923, "siegfried": 25948, "any": 2151, "crabs": 26076, "trophy": 5384, "nurse": 6821, "##etano": 28752, "recital": 25521, "husband": 3129, "photos": 7760, "\u0647": 1297, "authenticity": 21452, "major": 2350, "##lco": 22499, "naacp": 26155, "##ywood": 26985, "pathetic": 17203, "essen": 29032, "\u091f": 1320, "americana": 25988, "secretaries": 23660, "2014": 2297, "installment": 18932, "rani": 21617, "1717": 27525, "oblivion": 24034, "##taro": 28160, "##sos": 17063, "plastic": 6081, "##lean": 20898, "##hat": 12707, "newcastle": 8142, "demon": 5698, "\u52a0": 1779, "additive": 29167, "thompson": 5953, "province": 2874, "zoological": 26168, "whales": 17967, "##cytes": 27321, "##ogist": 22522, "valves": 17355, "awkwardly": 18822, "[unused138]": 143, "royal": 2548, "phantom": 11588, "fortification": 23050, "\u5c0f": 1829, "\u21d2": 1591, "place": 2173, "##fk": 24316, "sessions": 6521, "##athy": 17308, "wilson": 4267, "##ste": 13473, "hesitantly": 24626, "bob": 3960, "##dding": 27027, "macro": 26632, "bey": 20289, "enjoy": 5959, "##kai": 11151, "cambridge": 4729, "indonesia": 6239, "1891": 6607, "ding": 22033, "mammalian": 26524, "##\u09b8": 29912, "reliability": 15258, "descending": 15127, "##yard": 14132, "starts": 4627, "genoa": 15771, "zane": 6944, "sickness": 15556, "viewers": 7193, "perth": 9300, "forgive": 9641, "eurovision": 12714, "minor": 3576, "meal": 7954, "outrageous": 25506, "prophecy": 14951, "##vision": 17084, "honour": 6225, "trap": 8132, "fold": 10671, "##pate": 17585, "rodgers": 15652, "allie": 16944, "##ite": 4221, "sawyer": 13975, "sensitive": 7591, "newscasts": 24482, "uttar": 14940, "considerations": 16852, "##ics": 6558, "70s": 17549, "\u0997": 1355, "bulbs": 25548, "##less": 3238, "mfa": 26913, "lives": 3268, "insult": 15301, "##cate": 16280, "bolts": 19947, "sawmill": 24744, "taiwanese": 16539, "hairs": 13606, "patty": 17798, "vishnu": 17647, "stupidity": 28072, "fields": 4249, "locus": 25206, "##due": 20041, "appreciated": 12315, "productive": 13318, "flair": 22012, "ex": 4654, "li": 5622, "incoming": 14932, "orgasm": 13892, "docked": 25727, "greensboro": 27905, "sudden": 5573, "critics": 4401, "highest": 3284, "##rna": 12789, "##vira": 24093, "sykes": 23531, "erected": 7019, "conversions": 25834, "##case": 18382, "hat": 6045, "cpi": 28780, "sq": 5490, "goran": 28356, "speculation": 12143, "andersen": 18308, "boardwalk": 29496, "tire": 12824, "##cha": 7507, "rise": 4125, "taxpayer": 26980, "massif": 24875, "those": 2216, "##\u1112": 30005, "optic": 22816, "michigan": 4174, "##hl": 7317, "beverly": 12218, "drain": 12475, "9th": 6280, "deteriorated": 20111, "got": 2288, "##nse": 12325, "demanded": 6303, "addiction": 13449, "old": 2214, "##fulness": 20938, "[unused683]": 688, "341": 28358, "generally": 3227, "desperately": 9652, "fake": 8275, "sack": 12803, "rents": 28206, "astronomy": 12799, "dharma": 20669, "bromwich": 27888, "##mission": 25481, "packers": 15285, "38th": 22051, "1899": 6166, "spins": 23371, "plus": 4606, "uninhabited": 24749, "obedience": 22645, "vinci": 23765, "crawling": 15927, "berries": 22681, "nexus": 26041, "##ressed": 16119, "utilizing": 16911, "shiny": 12538, "screw": 11224, "fiance": 19154, "align": 25705, "sleeps": 25126, "gubernatorial": 19100, "lied": 9828, "##pala": 19636, "chile": 7029, "##\u3093": 30217, "scented": 25738, "francois": 8173, "debris": 11385, "criticism": 6256, "nutrients": 20435, "bernardino": 21370, "##\u062f": 15394, "##ii": 6137, "ceased": 7024, "olivia": 7710, "1980": 3150, "ltd": 5183, "newport": 9464, "##\u30c4": 30238, "##rooms": 29020, "enclosed": 10837, "identifying": 12151, "haired": 10681, "##\u967d": 30499, "##\u2033": 30067, "bates": 11205, "rockefeller": 16696, "wooden": 4799, "##ito": 9956, "##rnier": 28484, "accounting": 9529, "decorative": 11584, "michelangelo": 27701, "gazette": 11391, "##chua": 26200, "##\u9673": 30498, "greco": 18180, "greenland": 16128, "freshmen": 26612, "mendez": 28950, "creators": 17277, "immediately": 3202, "colombo": 16224, "##\u30d2": 30245, "jurisdiction": 7360, "theodor": 21448, "spreading": 9359, "##st": 3367, "adjacent": 5516, "assessment": 7667, "portland": 6734, "distorted": 19112, "ponytail": 18865, "lloyd": 6746, "rarely": 6524, "[unused524]": 529, "1860": 7313, "##link": 13767, "tied": 5079, "upgrading": 25925, "##\u0632": 29823, "chemotherapy": 27144, "##balance": 26657, "milne": 24377, "ridges": 16386, "cooler": 14976, "artwork": 8266, "publicity": 11845, "luggage": 17434, "##as": 3022, "1833": 11040, "##\u2286": 30138, "doctorate": 8972, "##man": 2386, "osaka": 13000, "belongings": 20033, "\u05db": 1252, "lexi": 16105, "[unused326]": 331, "pausing": 20490, "thread": 11689, "parliamentary": 5768, "marking": 10060, "##atter": 20097, "winter": 3467, "##bruck": 28985, "rite": 14034, "graders": 23256, "##etti": 18319, "##ivision": 24607, "unemployed": 18787, "##lich": 18337, "[unused627]": 632, "preserving": 15224, "242": 22431, "dalton": 12413, "legislature": 6372, "van": 3158, "\u09a3": 1361, "yi": 12316, "arrange": 13621, "walks": 7365, "buren": 29470, "cm": 4642, "fade": 12985, "hugh": 6621, "##wai": 21547, "nor": 4496, "193": 19984, "##evich": 16277, "centimetres": 13935, "guthrie": 19952, "yd": 21076, "hutchinson": 17165, "barrett": 12712, "##going": 26966, "stinging": 22748, "gearbox": 22227, "050": 28714, "trades": 14279, "sector": 4753, "machinery": 10394, "iowa": 5947, "kerala": 8935, "humiliating": 28284, "deliver": 8116, "garfield": 20170, "\u738b": 1909, "engravings": 28611, "##ak": 4817, "##endez": 28787, "seventeenth": 15425, "linebacker": 15674, "[unused392]": 397, "[unused24]": 25, "patriot": 16419, "##osing": 18606, "##sham": 21010, "conferred": 15186, "topics": 7832, "parting": 20254, "monterey": 19860, "files": 6764, "[unused953]": 958, "##ely": 26006, "kazakhstan": 11769, "##iko": 12676, "##fc": 11329, "tract": 12859, "cara": 14418, "##*": 29621, "protocols": 16744, "\u2297": 1613, "[unused433]": 438, "shop": 4497, "hancock": 13849, "gruff": 27038, "soy": 25176, "identical": 7235, "##mation": 28649, "##orn": 9691, "sails": 17553, "grind": 23088, "404": 24837, "##\u10d4": 29978, "facilitating": 25505, "##cky": 17413, "figurative": 29407, "distinguishing": 20852, "duets": 29410, "itunes": 11943, "\u6a4b": 1885, "services": 2578, "[unused340]": 345, "seventeen": 9171, "uptown": 28539, "integrity": 11109, "exceeding": 17003, "lashes": 16008, "hopefully": 11504, "##jal": 25787, "##ilis": 24411, "shrines": 22562, "##kka": 15714, "claude": 8149, "rocked": 14215, "reorganisation": 24934, "plague": 11629, "muzzle": 17750, "##dick": 24066, "joshua": 9122, "##cks": 10603, "##ision": 19969, "chocolate": 7967, "##glio": 29480, "minimize": 18478, "conservation": 5680, "divinity": 16968, "blanco": 20036, "germany": 2762, "nova": 6846, "##stand": 21515, "accountants": 29114, "steven": 7112, "pakistan": 4501, "elsie": 24603, "draper": 23641, "random": 6721, "cried": 6639, "feed": 5438, "clare": 11152, "##vent": 15338, "##ctum": 27272, "assigned": 4137, "commencement": 20561, "hushed": 24033, "lucrative": 21115, "windows": 3645, "hardwood": 23165, "faye": 19243, "abnormalities": 28828, "dirty": 6530, "[unused0]": 1, "messengers": 28938, "throwing": 6886, "stillness": 29435, "tortured": 12364, "benjamin": 6425, "\u026f": 1122, "1997": 2722, "##hit": 16584, "farewell": 13407, "bella": 12101, "\u2191": 1584, "bounty": 17284, "\u0930": 1333, "resumed": 7943, "nhl": 7097, "##\u02e1": 29716, "donors": 17843, "whereupon": 26090, "researchers": 6950, "\u0648": 1298, "convincing": 13359, "road": 2346, "##onic": 12356, "##recht": 28109, "onwards": 9921, "transfer": 4651, "\u0dbb": 1405, "##run": 15532, "##\u0f63": 29971, "lan": 17595, "valve": 10764, "overwhelmed": 13394, "bandit": 25334, "parachute": 13561, "required": 3223, "##oven": 25592, "caden": 23600, "violence": 4808, "seoul": 10884, "his": 2010, "smiling": 5629, "clerk": 7805, "82": 6445, "thatcher": 21127, "grow": 4982, "296": 27200, "disciplines": 12736, "cello": 10145, "erskine": 27139, "##shida": 25541, "waterfront": 16317, "marissa": 22767, "embryo": 28086, "[unused116]": 121, "##erted": 28728, "snatch": 23365, "wounding": 27285, "##work": 6198, "nun": 16634, "upset": 6314, "1680": 24621, "greece": 5483, "dissolution": 12275, "\u8c37": 1951, "orion": 18747, "oliveira": 24263, "labor": 4450, "mad": 5506, "reflected": 7686, "arranger": 13981, "imports": 17589, "bragg": 23678, "dawned": 27702, "extensive": 4866, "shine": 12342, "##roving": 22046, "fantasia": 29203, "250": 5539, "christophe": 23978, "##yu": 10513, "##ott": 14517, "[unused911]": 916, "aaa": 13360, "375": 18034, "parameter": 16381, "airship": 27636, "messiah": 22112, "##itated": 15198, "gossip": 13761, "compass": 16681, "substantial": 6937, "outspoken": 22430, "beak": 23525, "baffled": 29088, "##riety": 27840, "outs": 21100, "\u2022": 1528, "[unused758]": 763, "willingly": 18110, "directorate": 13634, "##phobic": 20200, "renew": 20687, "pointe": 26119, "##iss": 14643, "hardy": 9532, "octagonal": 22340, "ag": 12943, "soothe": 28384, "##rger": 25858, "[unused9]": 10, "##\u4ee3": 30286, "##\u207b": 30079, "rusty": 13174, "stability": 9211, "critique": 16218, "[unused130]": 135, "159": 18914, "ronald": 8923, "susceptible": 18002, "numerical": 15973, "juliet": 13707, "menu": 12183, "##vington": 21827, "property": 3200, "ware": 16283, "alarmed": 19260, "reynolds": 9579, "bloomington": 26372, "patriarch": 12626, "tee": 17170, "##att": 19321, "misconduct": 23337, "bernardo": 21175, "[unused6]": 7, "casualty": 19844, "##mps": 25370, "bombardment": 10400, "[unused929]": 934, "perimeter": 13443, "\u062e": 1277, "garments": 21902, "signature": 8085, "##\u2019": 30056, "nz": 20008, "\u093e": 1340, "democrat": 7672, "lama": 18832, "perfect": 3819, "weekends": 13499, "veronica": 13133, "admitting": 17927, "folder": 19622, "appalachian": 19682, "terra": 14403, "\u4f1a": 1763, "##jack": 17364, "repeats": 17993, "maps": 7341, "fists": 10006, "sorrow": 14038, "norton": 10770, "heaviest": 26858, "gorman": 25693, "uhf": 20131, "charitable": 11128, "bones": 5944, "[unused535]": 540, "calls": 4455, "chang": 11132, "clue": 9789, "\u3080": 1679, "pigs": 14695, "rubs": 28860, "astonished": 22741, "smirk": 15081, "crowd": 4306, "mikey": 25998, "storyline": 9994, "napoli": 29485, "colby": 18650, "joyce": 11830, "booking": 21725, "companion": 7452, "[unused319]": 324, "ultrasound": 27312, "differently": 11543, "##pan": 9739, "envelope": 11255, "varieties": 9903, "tales": 7122, "52": 4720, "[unused825]": 830, "##iec": 23783, "harrisburg": 24569, "allocated": 11095, "##giri": 23243, "married": 2496, "belong": 7141, "psi": 17816, "mp": 6131, "ghent": 24202, "gave": 2435, "##suka": 26544, "reelection": 17648, "live": 2444, "##holz": 28094, "runner": 5479, "[unused473]": 478, "##vin": 6371, "distinctions": 25995, "[unused663]": 668, "bharatiya": 24243, "##chison": 27795, "##hra": 13492, "bedford": 12003, "##ostal": 29381, "moderately": 17844, "##\u0bb2": 29928, "lively": 17133, "shelby": 15294, "collingwood": 20044, "dealings": 24069, "rumours": 19200, "\u00a1": 1067, "[unused755]": 760, "midsummer": 28171, "sho": 26822, "rai": 15547, "craftsmen": 25736, "designated": 4351, "chatting": 22331, "sterling": 10933, "corporate": 5971, "merits": 22617, "downloads": 22956, "##\u590f": 30334, "collapses": 25938, "\u0bbe": 1395, "mannheim": 25116, "chests": 28717, "rosewood": 29528, "[unused739]": 744, "subjective": 20714, "deputy": 4112, "hired": 5086, "chad": 9796, "[unused565]": 570, "literally": 6719, "ushered": 23815, "river": 2314, "daytona": 18226, "carolina": 3792, "hills": 4564, "2006": 2294, "alonso": 17649, "philippines": 5137, "##ll": 3363, "##\u2ebc": 30159, "eliza": 13234, "##elt": 20042, "[unused207]": 212, "concludes": 14730, "routes": 5847, "creation": 4325, "nate": 8253, "woody": 13703, "persisted": 19035, "johnson": 3779, "##pen": 11837, "shen": 21882, "network": 2897, "rest": 2717, "where": 2073, "##lom": 21297, "fright": 25966, "rooms": 4734, "wyoming": 10622, "##\u90fd": 30487, "semifinals": 8565, "hepatitis": 28389, "chronology": 17873, "bench": 6847, "looting": 29367, "faults": 19399, "advertisement": 15147, "kimberley": 25004, "slave": 6658, "[unused127]": 132, "[unused94]": 95, "gazing": 16448, "clown": 15912, "pathology": 19314, "##\u53f2": 30316, "din": 11586, "mormon": 15111, "novelist": 9974, "transforms": 21743, "km": 2463, "widespread": 6923, "reply": 7514, "1672": 27253, "immediate": 6234, "215": 17405, "avengers": 14936, "fence": 8638, "##dler": 21222, "##\u76ee": 30444, "bullshit": 14636, "loyola": 21580, "bangor": 21895, "erie": 13374, "baby": 3336, "[unused245]": 250, "\u8fb6": 1956, "##oked": 23461, "accelerating": 29494, "ordeal": 23304, "honolulu": 16598, "##ned": 7228, "barn": 8659, "clearer": 24509, "\u2153": 1581, "winston": 10180, "leadership": 4105, "playground": 14705, "grange": 18203, "gesellschaft": 27482, "records": 2636, "##eter": 15141, "laugh": 4756, "##dee": 26095, "##rvis": 29074, "sensory": 16792, "migration": 9230, "##\u0635": 29826, "tickets": 9735, "##llie": 23697, "##fire": 10273, "##duction": 16256, "peking": 27057, "241": 22343, "ritual": 8887, "1670": 26253, "squeezed": 7757, "##dict": 29201, "marcelo": 24984, "xiii": 15031, "##cs": 6169, "##eto": 18903, "tavern": 13090, "felt": 2371, "hunt": 5690, "##ila": 11733, "##ec": 8586, "tagged": 26610, "re": 2128, "##\u062a": 29817, "##\u2014": 30052, "##leg": 23115, "rabbis": 25602, "shared": 4207, "collateral": 24172, "\u091a": 1318, "admission": 9634, "decrees": 28966, "oppression": 20489, "economically": 15318, "volunteers": 7314, "mit": 10210, "##bry": 25731, "##ipes": 28108, "undefeated": 15188, "neutron": 20393, "handed": 4375, "hellenistic": 27464, "##zell": 24085, "harassed": 28186, "continually": 14678, "morale": 19292, "##tain": 18249, "universally": 21186, "dunes": 17746, "rican": 13641, "mongolia": 13906, "easy": 3733, "flashes": 16121, "##odon": 28716, "salamanca": 29608, "memo": 24443, "unnecessary": 14203, "##fort": 13028, "implant": 27159, "[unused503]": 508, "tbilisi": 22406, "##dl": 19422, "##atics": 17592, "mic": 23025, "select": 7276, "motives": 17108, "##ffen": 18032, "cinnamon": 21229, "lens": 10014, "affection": 12242, "bern": 16595, "remind": 10825, "##fe": 7959, "geoffrey": 11023, "moved": 2333, "mandal": 24373, "transmitting": 23820, "c2": 29248, "wanting": 5782, "reads": 9631, "##rmed": 29540, "amended": 13266, "raphael": 12551, "raleigh": 15842, "spots": 7516, "##/": 29626, "town": 2237, "evaluation": 9312, "253": 23254, "substituted": 17316, "acre": 7456, "repertory": 21099, "disturbing": 14888, "sylvester": 20016, "farms": 8623, "superintendent": 9133, "kickoff": 25233, "shave": 27545, "sentimental": 23069, "reactions": 9597, "##\u2026": 30064, "thirteen": 7093, "kristin": 25130, "##inking": 29377, "plume": 26888, "##rank": 26763, "980": 25195, "elisa": 29490, "wolfgang": 13865, "compensation": 9430, "wilkins": 22745, "pointed": 4197, "##bel": 8671, "exceptionally": 17077, "vowed": 18152, "mg": 11460, "marxist": 15511, "heresy": 28354, "conductors": 23396, "hezbollah": 25713, "wipe": 13387, "##3": 2509, "9": 1023, "broadway": 5934, "sweets": 26844, "preferences": 18394, "burst": 6532, "inhibitors": 25456, "nightclub": 15479, "bombings": 20109, "gan": 25957, "enrico": 21982, "blade": 6085, "##rand": 13033, "braid": 24148, "macedonia": 11492, "##rase": 23797, "perched": 17335, "298": 27240, "winters": 12214, "seven": 2698, "##19": 16147, "staging": 15308, "##caster": 25490, "hadley": 21681, "compulsion": 27638, "undergraduate": 8324, "removed": 3718, "cleanup": 27686, "surname": 11988, "professionals": 8390, "##aly": 20766, "##ear": 14644, "\u53f2": 1790, "qualities": 11647, "characteristics": 6459, "transmit": 19818, "laughed": 4191, "strap": 16195, "##erman": 18689, "retreat": 7822, "##[": 29634, "anytime": 15933, "71": 6390, "advocate": 8175, "larger": 3469, "offered": 3253, "##\u2208": 30124, "hinted": 21795, "##pf": 14376, "cancer": 4456, "remains": 3464, "groans": 27778, "\u1172": 1480, "rhyme": 20622, "##\u0939": 29875, "norwich": 12634, "sustaining": 22663, "actress": 3883, "centuries": 4693, "shower": 6457, "falcons": 14929, "noticing": 15103, "violently": 14196, "##lled": 11001, "brno": 28634, "kingdoms": 12028, "directional": 20396, "surgery": 5970, "fueled": 17999, "senate": 4001, "bitterly": 19248, "##\u0584": 29786, "singled": 25369, "unlike": 4406, "postponed": 14475, "gibson": 9406, "##tani": 17681, "92": 6227, "learnt": 20215, "athletic": 5188, "quotes": 16614, "##nar": 11802, "[unused446]": 451, "practiced": 9051, "gnome": 25781, "fours": 23817, "adoption": 9886, "kenyan": 20428, "rome": 4199, "territories": 6500, "##\u0926": 29861, "widened": 8723, "tablets": 17596, "##yp": 22571, "outta": 24955, "greet": 17021, "impacts": 14670, "enclave": 25867, "##dium": 12811, "newt": 25597, "dunkirk": 29467, "unnatural": 21242, "doctor": 3460, "1699": 28718, "assignment": 8775, "interact": 11835, "robot": 8957, "##pi": 8197, "pry": 29198, "22nd": 13816, "dow": 23268, "##\u5e73": 30365, "excellent": 6581, "[unused57]": 58, "spinal": 16492, "\u0259": 1114, "examination": 7749, "economist": 11708, "heavy": 3082, "modelled": 23364, "promote": 5326, "canon": 9330, "##ko": 3683, "ensure": 5676, "peeking": 28222, "\u4e4b": 1749, "flexible": 12379, "grimly": 22561, "susie": 23917, "##dier": 24612, "locate": 12453, "airbus": 20901, "hermit": 24308, "entitled": 4709, "stud": 16054, "airmen": 29437, "sensation": 8742, "embrace": 9979, "##65": 26187, "infections": 15245, "dave": 4913, "sammy": 14450, "invented": 8826, "shitty": 28543, "##lty": 24228, "##mine": 11233, "nottingham": 11331, "spend": 5247, "##vite": 25217, "[unused308]": 313, "twist": 9792, "purity": 18433, "transylvania": 20816, "\u00b3": 1083, "dunbar": 23034, "cerro": 25498, "proportional": 14267, "vomiting": 24780, "diocese": 5801, "##\uff09": 30514, "##ntial": 19909, "dormant": 22170, "##ammed": 27479, "kurdistan": 23627, "francesco": 11400, "##eon": 10242, "[unused358]": 363, "##kled": 19859, "procedure": 7709, "mutant": 15527, "##eye": 17683, "snakes": 12971, "jasmine": 14032, "diamonds": 11719, "updates": 14409, "dragon": 5202, "schedules": 20283, "wellness": 25860, "##tha": 8322, "derivatives": 16942, "vincenzo": 24712, "##bee": 11306, "auditory": 28042, "##hey": 14844, "inauguration": 17331, "bangkok": 12627, "fiber": 11917, "flu": 19857, "month": 3204, "thin": 4857, "skye": 16590, "mongol": 17450, "roofed": 26080, "clade": 21697, "remorse": 23124, "[unused612]": 617, "snacks": 27962, "collapsed": 7798, "implicated": 20467, "wb": 25610, "rods": 19485, "jaya": 24120, "eyelids": 16544, "ball": 3608, "fling": 27655, "spontaneously": 27491, "##ate": 3686, "##vious": 24918, "medieval": 5781, "techniques": 5461, "thistle": 24328, "durham": 9296, "##uring": 12228, "usd": 13751, "replay": 15712, "rejecting": 21936, "[unused744]": 749, "##tower": 23196, "vanilla": 21161, "voluntarily": 17912, "220": 10545, "thrust": 7400, "league": 2223, "sami": 17015, "eliminated": 5892, "donnie": 28486, "cot": 26046, "##oting": 20656, "commentary": 8570, "[unused411]": 416, "volga": 26459, "\u00e6": 1097, "[unused182]": 187, "forthcoming": 16875, "excused": 28512, "##nism": 28113, "archaeological": 7611, "jericho": 17309, "up": 2039, "rao": 10546, "##cot": 24310, "racecourse": 15948, "ismail": 19214, "pont": 21179, "undertook": 12543, "avalon": 18973, "handkerchief": 23975, "myrtle": 21381, "kaiser": 15676, "boutique": 24611, "andrea": 8657, "gunpowder": 22220, "ship": 2911, "type": 2828, "##borne": 19288, "currently": 2747, "gee": 20277, "##ffed": 15388, "johan": 13093, "yellow": 3756, "utilize": 16462, "pow": 23776, "waterfalls": 24236, "graphical": 20477, "ant": 14405, "honneur": 28197, "##redo": 23417, "supportive": 16408, "librarian": 13850, "seriousness": 27994, "##efe": 27235, "uber": 19169, "fury": 8111, "peered": 10757, "[unused667]": 672, "vain": 15784, "cadiz": 26342, "godfrey": 18238, "aligned": 13115, "1952": 3999, "straining": 21366, "[unused422]": 427, "\u0562": 1220, "portage": 25140, "112": 11176, "stomped": 21918, "farmhouse": 16870, "protocol": 8778, "##yde": 18124, "competing": 6637, "offshore": 12195, "\u4ee3": 1760, "##\u0448": 29753, "218": 20741, "pitchers": 23232, "voss": 24878, "martian": 20795, "\u7537": 1912, "[unused917]": 922, "transformers": 19081, "##\u11af": 30022, "##rone": 20793, "\u661f": 1866, "tides": 22487, "el": 3449, "newark": 12948, "sensitivity": 14639, "austria": 5118, "windy": 27370, "prediction": 17547, "##ions": 8496, "amateurs": 24361, "lauren": 10294, "helmets": 22674, "ludwig": 10302, "dinamo": 22306, "barbarian": 25075, "authors": 6048, "gui": 26458, "subject": 3395, "cops": 10558, "##zzo": 12036, "presided": 15506, "trivial": 20610, "[unused457]": 462, "todd": 6927, "converting": 16401, "naia": 29511, "simulate": 26633, "##pm": 9737, "ways": 3971, "missouri": 5284, "\u671d": 1874, "broadcaster": 11995, "\u0281": 1128, "surprisingly": 10889, "##\u2663": 30151, "employs": 13495, "skeletal": 20415, "larry": 6554, "##vili": 21661, "\u00d7": 1095, "stepping": 9085, "[unused374]": 379, "best": 2190, "435": 24125, "##cott": 13124, "fourth": 2959, "debra": 28762, "nt": 23961, "learns": 10229, "elsewhere": 6974, "disagreed": 18335, "1930s": 5687, "##ym": 24335, "nr": 17212, "pl": 20228, "combining": 11566, "[UNK]": 100, "[unused836]": 841, "deported": 17929, "article": 3720, "285": 21777, "##kumar": 18494, "axel": 18586, "serie": 8668, "bonnet": 24367, "sophie": 8234, "lynne": 26938, "battling": 17773, "crimean": 20516, "##)": 29620, "1799": 13839, "doyle": 11294, "stokes": 18716, "headache": 14978, "##eg": 13910, "held": 2218, "action": 2895, "advised": 9449, "##\u2092": 30091, "formats": 11630, "frequently": 4703, "\u306f": 1672, "probation": 19703, "\u1d52": 1503, "fully": 3929, "##gating": 16961, "^": 1034, "golfer": 20601, "##fare": 17883, "slap": 14308, "resided": 12427, "ares": 23631, "donnell": 18016, "fifa": 5713, "##ei": 7416, "drones": 24633, "bohemia": 16799, "##len": 7770, "illustrate": 19141, "entrepreneur": 10670, "anything": 2505, "draws": 9891, "lids": 26122, "including": 2164, "##zzy": 28753, "ta": 11937, "##stad": 16917, "browne": 15005, "87": 6584, "[unused364]": 369, "fucking": 8239, "230": 11816, "diseases": 7870, "collar": 9127, "\u529b": 1778, "known": 2124, "guessed": 11445, "relic": 24933, "greene": 11006, "##all": 8095, "flared": 14937, "##ty": 3723, "##hor": 16368, "sauce": 12901, "shrieked": 22383, "tiffany": 14381, "czechoslovak": 21282, "genetically": 19345, "maggie": 8538, "blockade": 15823, "crooked": 15274, "##lates": 26786, "\u3078": 1675, "cuffs": 24347, "heinz": 17655, "coaching": 7748, "##bio": 26282, "profile": 6337, "croats": 26222, "promoting": 7694, "##ssing": 18965, "[unused610]": 615, "cones": 23825, "till": 6229, "theorists": 28442, "polymers": 27216, "##fy": 12031, "\u09a1": 1360, "bari": 22466, "popularly": 16071, "saharan": 24505, "greeting": 14806, "ld": 25510, "static": 10763, "monmouth": 20433, "virtues": 21560, "restrained": 19868, "madly": 29179, "##national": 25434, "archdeacon": 21742, "##yang": 12198, "wink": 16837, "##tic": 4588, "covenant": 16077, "avon": 16131, "[unused124]": 129, "hail": 16889, "##lick": 25230, "nedra": 28240, "reminder": 14764, "alpine": 10348, "bayou": 24818, "##tto": 9284, "skating": 10080, "participated": 4194, "roses": 10529, "mercy": 8673, "piloted": 27220, "##bane": 27543, "interest": 3037, "##rosis": 29166, "whenever": 7188, "##dorff": 26559, "ceremony": 5103, "##ination": 12758, "adjusted": 10426, "##roll": 28402, "malley": 25271, "terminology": 18444, "##\u03b8": 29725, "pei": 26850, "gillian": 22358, "##ye": 6672, "pts": 19637, "##umb": 25438, "monty": 18446, "limit": 5787, "francisco": 3799, "rpg": 22531, "hare": 14263, "insane": 9577, "##walker": 26965, "dried": 9550, "[unused176]": 181, "[unused694]": 699, "##hum": 28600, "summary": 12654, "lsu": 21849, "endeavour": 26911, "prose": 12388, "ferrer": 28390, "chi": 9610, "venom": 15779, "forearms": 27323, "\u3064": 1664, "tomatoes": 12851, "##30": 14142, "feudal": 16708, "cards": 5329, "menace": 19854, "##front": 12792, "##emia": 17577, "~": 1066, "[unused748]": 753, "##rini": 22612, "attain": 18759, "##\u057f": 29783, "witches": 12566, "internment": 29041, "##shed": 14740, "##rgo": 18581, "##cea": 21456, "yeshiva": 22142, "##ann": 11639, "##i": 2072, "fujian": 29551, "bees": 13734, "de": 2139, "api": 17928, "fuel": 4762, "hybrids": 23376, "rebelled": 25183, "highness": 17114, "bud": 13007, "ethiopia": 11154, "##mble": 19661, "lap": 5001, "suspend": 28324, "helps": 7126, "said": 2056, "reclaim": 24104, "md": 9108, "[unused522]": 527, "fairy": 8867, "virus": 7865, "synthetic": 12553, "sino": 19432, "couldn": 2481, "unofficially": 29322, "blackened": 25788, "paradigm": 20680, "##tion": 3508, "push": 5245, "caledonia": 19305, "pearce": 19560, "##\u0e23": 29953, "##apa": 22068, "addition": 2804, "karnataka": 12092, "[unused916]": 921, "christensen": 24189, "##ibility": 13464, "[unused1]": 2, "indeed": 5262, "##ggio": 20650, "psyche": 25774, "##pio": 22071, "johnnie": 27716, "cocked": 13179, "nan": 16660, "remarked": 10783, "accents": 24947, "1879": 7449, "\u25cf": 1619, "mor": 22822, "[unused61]": 62, "##\u6c34": 30419, "##sfield": 15951, "hugs": 24459, "embroidery": 29507, "disposed": 21866, "judicial": 8268, "\u308b": 1687, "##\u7537": 30438, "cougars": 26317, "plaid": 26488, "walnut": 18489, "550": 13274, "clicks": 29225, "##ddled": 28090, "phosphorus": 25473, "[unused485]": 490, "suspected": 6878, "faithful": 11633, "premise": 18458, "posed": 13686, "fat": 6638, "##nsky": 25655, "primary": 3078, "chevy": 29009, "azerbaijani": 18325, "##\u0f66": 29972, "wasted": 13842, "##chemical": 15869, "jessie": 10934, "maurice": 7994, "microscopic": 26396, "respiratory": 16464, "draw": 4009, "skate": 17260, "\u0637": 1286, "\u2c7c": 1631, "hove": 25215, "falsely": 23123, "##keepers": 24764, "coefficients": 21374, "avoids": 26777, "##riz": 21885, "bart": 12075, "bash": 24234, "supplement": 12448, "\u03c2": 1172, "kata": 29354, "##ises": 13087, "##on": 2239, "amin": 24432, "##ckle": 19250, "sts": 8541, "ss": 7020, "raven": 10000, "\u02bc": 1146, "##co": 3597, "cutler": 24975, "interactive": 9123, "pact": 14790, "nephew": 7833, "strewn": 25259, "sticks": 12668, "experiments": 7885, "##quin": 12519, "shoots": 11758, "buyers": 17394, "boeing": 10321, "##40": 12740, "andres": 15614, "blacksmith": 20987, "\u02b0": 1140, "meals": 12278, "suggested": 4081, "sums": 20571, "##ase": 11022, "eureka": 21142, "rushes": 18545, "fewer": 8491, "jed": 24401, "##phine": 20738, "choking": 18329, "unite": 15908, "aboard": 7548, "client": 7396, "products": 3688, "grams": 20372, "##fields": 15155, "uneasy": 15491, "ramos": 18882, "welding": 23604, "\u0bb5": 1394, "hostility": 18258, "humans": 4286, "##bau": 27773, "cute": 10140, "homeland": 10759, "cunning": 23626, "dario": 26800, "noteworthy": 19144, "##mir": 14503, "cmll": 25395, "conde": 24707, "parker": 6262, "##rates": 20370, "php": 25718, "insistence": 20616, "colonel": 4327, "streams": 9199, "mariana": 22097, "mal": 15451, "abdominal": 21419, "protection": 3860, "schooling": 14118, "##onale": 22823, "##zuka": 22968, "tissue": 8153, "teammate": 10809, "rubbish": 29132, "continuity": 13717, "rus": 22949, "\u82b1": 1940, "perry": 6890, "awkward": 9596, "young": 2402, "jock": 23407, "fascinating": 17160, "taluka": 29512, "loads": 15665, "bach": 10384, "[unused376]": 381, "deputies": 11964, "\u0254": 1112, "##\u3089": 30211, "expense": 10961, "\u0e40": 1423, "early": 2220, "coil": 17085, "rubin": 20524, "rhapsody": 29395, "scrutiny": 17423, "logged": 26618, "ward": 4829, "##obe": 20891, "demolished": 7002, "networking": 14048, "integers": 24028, "leland": 27134, "eastwood": 24201, "145": 13741, "##cula": 19879, "##wee": 28394, "##bic": 13592, "angie": 14835, "sum": 7680, "\u03b6": 1160, "convex": 18309, "[unused787]": 792, "##\uff0e": 30517, "##hea": 20192, "\u02e4": 1154, "272": 24231, "disorders": 10840, "boasts": 21979, "halt": 9190, "party": 2283, "cisco": 26408, "recapture": 27639, "##\u0431": 29740, "gabled": 26182, "208": 18512, "prolonged": 15330, "remote": 6556, "maroon": 22222, "secondly": 16378, "ortiz": 19439, "diversion": 20150, "observer": 9718, "nipples": 28124, "image": 3746, "##enko": 17868, "wince": 29585, "leash": 26834, "tandem": 18231, "thinks": 6732, "1926": 4881, "relativity": 20805, "simultaneous": 17424, "overture": 25052, "bahia": 22474, "taking": 2635, "prakash": 22233, "hockey": 3873, "concepts": 8474, "[unused375]": 380, "continental": 6803, "sociology": 11507, "col": 8902, "criticisms": 19628, "graffiti": 17990, "##\u2082": 8229, "ballad": 11571, "multinational": 20584, "manitoba": 10512, "revised": 8001, "emitted": 22627, "mt": 11047, "electronics": 8139, "aroma": 23958, "calf": 19134, "relatively": 4659, "##\u05e9": 29812, "pained": 22295, "##gens": 21230, "clasped": 16763, "avant": 14815, "stefano": 19618, "gaulle": 28724, "##iser": 17288, "1813": 12169, "##kar": 6673, "hardcore": 13076, "concert": 4164, "tiny": 4714, "unsuccessful": 7736, "hauled": 13161, "pressure": 3778, "\u0644": 1294, "choreographer": 17334, "\u6bd4": 1890, "##stein": 8602, "##fahan": 28975, "investments": 10518, "terrace": 11134, "counseling": 17041, "treatments": 13441, "math": 8785, "variance": 23284, "boyd": 12164, "neurological": 23130, "correctly": 11178, "##dded": 19520, "cannes": 14775, "exchanged": 10573, "dirk": 17594, "imprisoned": 8580, "##ils": 12146, "colonization": 18962, "elderly": 9750, "melbourne": 4940, "dodge": 11898, "overseeing": 19642, "mar": 9388, "knighted": 19572, "dating": 5306, "husbands": 19089, "coca": 16787, "##nk": 8950, "signed": 2772, "chatter": 24691, "packed": 8966, "circle": 4418, "god": 2643, "##les": 4244, "toward": 2646, "drinking": 5948, "##cal": 9289, "fred": 5965, "meditation": 13804, "semi": 4100, "##patient": 24343, "##ished": 13295, "grapes": 16575, "forceful": 28552, "kitty": 14433, "##etic": 16530, "sl": 22889, "bellowed": 27386, "emory": 25853, "[unused315]": 320, "gathers": 29438, "[unused841]": 846, "massimo": 28080, "artifacts": 10471, "bourgeois": 22846, "expenses": 11727, "\u05e1": 1258, "naming": 10324, "homestead": 14473, "donna": 10972, "arrives": 8480, "presentation": 8312, "quivering": 26012, "##rata": 14660, "satin": 19412, "inherited": 7900, "shadows": 6281, "bo": 8945, "touches": 12817, "injunction": 22928, "aspects": 5919, "praising": 15838, "denied": 6380, "##\u0965": 29881, "brazil": 4380, "##shah": 25611, "169": 18582, "gun": 3282, "humanitarian": 11470, "rq": 28134, "organist": 16397, "planting": 14685, "78": 6275, "invasions": 23536, "fatal": 10611, "functioned": 20903, "apparel": 26278, "christy": 21550, "cpu": 17368, "accuracy": 10640, "byrne": 14928, "drama": 3689, "existence": 4598, "norwegian": 5046, "preservation": 8347, "letters": 4144, "franchises": 22506, "scripture": 18919, "##grade": 24170, "june": 2238, "stretch": 7683, "67": 6163, "zinc": 15813, "##gt": 13512, "egyptian": 6811, "##\u85e4": 30470, "dying": 5996, "madden": 24890, "##lessly": 10895, "herb": 12810, "104": 9645, "draught": 25349, "people": 2111, "##sul": 23722, "dive": 11529, "attractions": 13051, "flashlight": 15257, "manifesto": 17124, "documentation": 12653, "anchors": 24674, "[unused944]": 949, "1746": 24507, "##ander": 12243, "remastered": 19484, "traps": 16735, "slack": 19840, "energy": 2943, "sub": 4942, "asian": 4004, "walkover": 17495, "budgets": 26178, "##bai": 26068, "sundance": 20140, "##dern": 25888, "adapt": 15581, "isbn": 3175, "wherein": 16726, "illuminated": 14640, "##masters": 27751, "##rrell": 14069, "##hd": 14945, "##pole": 15049, "fairchild": 24258, "disgusted": 17733, "eco": 17338, "panels": 9320, "summit": 6465, "##dling": 14423, "##viere": 27087, "##bs": 5910, "##di": 4305, "boost": 12992, "they": 2027, "##bet": 20915, "footprint": 24319, "christoph": 21428, "koreans": 24651, "foam": 17952, "[unused660]": 665, "timetable": 23839, "mani": 23624, "##gli": 25394, "##ean": 11219, "##tted": 16190, "funded": 6787, "renee": 17400, "niece": 12286, "sire": 15785, "writings": 7896, "raced": 8255, "carlisle": 13575, "edna": 21051, "\u3002": 1636, "##media": 16969, "inspiring": 18988, "##ity": 3012, "beats": 10299, "linen": 17517, "why": 2339, "recording": 3405, "##ulously": 21227, "cleaner": 20133, "wat": 28194, "[unused666]": 671, "\u2202": 1592, "electrode": 28688, "##ulton": 22145, "45th": 24634, "\u6709": 1873, "explaining": 9990, "aus": 17151, "printed": 6267, "3000": 11910, "toys": 10899, "generators": 16937, "licking": 17033, "necklace": 13016, "batter": 23801, "acute": 11325, "pursuit": 8463, "\u3008": 1637, "warns": 19428, "encompassed": 24058, "spurs": 18205, "swat": 25414, "successors": 18530, "##\u76f8": 30445, "wiped": 8342, "146": 16333, "\u05d2": 1243, "##issa": 21205, "cheryl": 19431, "footballer": 4362, "gothenburg": 22836, "strengthening": 16003, "melinda": 23721, "chronological": 23472, "compete": 5566, "coastline": 15458, "magazine": 2932, "ejected": 22607, "reassuring": 21093, "casts": 23942, "sunshine": 9609, "bachelor": 5065, "buddhism": 11388, "hears": 14994, "brook": 9566, "overlap": 17702, "##ady": 18632, "pennant": 22690, "rand": 14566, "##wski": 10344, "##\u0916": 29852, "reputed": 22353, "##\u02e3": 29718, "fragment": 15778, "considerably": 9839, "adolescents": 25947, "require": 5478, "increasingly": 6233, "##\u98a8": 30503, "weaver": 14077, "depend": 12530, "melting": 13721, "##bad": 9024, "carriages": 17744, "##iga": 13340, "tasha": 25448, "breeders": 20823, "fluent": 19376, "maid": 10850, "funds": 5029, "##son": 3385, "##ater": 24932, "complaint": 12087, "rave": 23289, "engage": 8526, "shakespeare": 8101, "##\u8ecd": 30481, "racks": 27259, "\u30a2": 1693, "\u30cb": 1716, "announcement": 8874, "[unused891]": 896, "pork": 15960, "uniforms": 11408, "sb": 24829, "bluegrass": 21286, "##gues": 22967, "\u0250": 1109, "pictured": 15885, "mort": 22294, "\u667a": 1869, "[unused986]": 991, "wrestlemania": 28063, "anal": 20302, "groves": 21695, "[unused80]": 81, "##lev": 20414, "metallic": 12392, "##gun": 12734, "minister": 2704, "cdp": 8561, "##enia": 19825, "institute": 2820, "cathedral": 5040, "recruited": 8733, "safari": 23591, "##ru": 6820, "##km": 22287, "triad": 25355, "playhouse": 17408, "influential": 6383, "##icio": 27113, "insufficient": 13990, "hurts": 13403, "nikita": 29106, "##ami": 10631, "sydney": 3994, "cleric": 29307, "pleistocene": 25080, "##runner": 23195, "crude": 13587, "##yoshi": 19196, "##\u10da": 29983, "elders": 13376, "campo": 22339, "bam": 25307, "##iting": 15402, "recent": 3522, "abbas": 17532, "salute": 17664, "##bridge": 6374, "grande": 9026, "polite": 13205, "orr": 26914, "##uch": 10875, "cigarettes": 15001, "guilt": 8056, "accident": 4926, "##rrow": 28597, "1910": 4976, "flight": 3462, "genera": 11416, "contrasted": 22085, "parc": 27985, "##pia": 19312, "501": 16202, "##ivism": 22486, "pins": 16300, "obtained": 4663, "nuns": 16752, "gutierrez": 20836, "video": 2678, "##tage": 26702, "usher": 20774, "lighter": 9442, "##rgeon": 28242, "links": 6971, "elect": 11322, "accountable": 26771, "41st": 24233, "vidhan": 28590, "kung": 18577, "##ingham": 16445, "appealed": 12068, "attached": 4987, "pursue": 7323, "##ulio": 24825, "##cco": 21408, "toni": 16525, "draft": 4433, "brennan": 13962, "loop": 7077, "galicia": 19017, "##tones": 11115, "##saurus": 22244, "differentiation": 20582, "unicorn": 21830, "##op": 7361, "integrating": 22380, "ko": 12849, "[unused387]": 392, "##claiming": 27640, "so": 2061, "producers": 6443, "##cles": 18954, "marlene": 26921, "gunfire": 16978, "partnered": 12404, "fabian": 21174, "sidney": 11430, "questions": 3980, "##thermal": 23367, "##rica": 14735, "western": 2530, "winged": 14462, "iq": 26264, "lt": 8318, "swirling": 16499, "inquisition": 24638, "demeanor": 21745, "govern": 21208, "topographic": 24254, "##lord": 19980, "torso": 15190, "adler": 17969, "permitted": 7936, "espn": 10978, "mimic": 23150, "##hold": 12640, "starter": 11753, "dan": 4907, "##dget": 24291, "monument": 6104, "##sett": 21678, "##bn": 24700, "reverse": 7901, "##wehr": 27156, "##vac": 24887, "too": 2205, "strained": 12250, "erosion": 14173, "stump": 22475, "[unused28]": 29, "centimeters": 18119, "assert": 20865, "\u0192": 1108, "imprint": 15738, "severe": 5729, "1716": 28204, "me": 2033, "##wood": 3702, "##sp": 13102, "wavy": 23098, "[unused327]": 332, "intends": 18754, "waterways": 21938, "##ection": 18491, "[unused206]": 211, "accredited": 11459, "als": 25520, "\u674e": 1877, "##jun": 19792, "ahmedabad": 27249, "adherents": 25712, "depression": 6245, "##tify": 27351, "flying": 3909, "skater": 18815, "tumbling": 21552, "stew": 20717, "ghana": 9701, "arias": 25905, "nuclear": 4517, "lesser": 8276, "powder": 9898, "barley": 21569, "arson": 24912, "annually": 6604, "ios": 16380, "##ech": 15937, "loki": 24143, "longevity": 26906, "nair": 22525, "##point": 8400, "span": 8487, "greeted": 11188, "##mark": 10665, "sonya": 27926, "boiling": 16018, "ruby": 10090, "richie": 14411, "sent": 2741, "princeton": 9173, "deposits": 10042, "##ray": 9447, "scrambled": 13501, "piedmont": 18873, "hydrogen": 9732, "relocation": 18344, "earthly": 29520, "pearls": 21944, "pub": 9047, "corona": 21887, "amtrak": 20208, "morals": 25288, "1806": 12518, "rosa": 9508, "validation": 27354, "##lone": 27165, "ivanov": 26333, "##onte": 28040, "conjunction": 9595, "##\u0dbb": 29941, "academies": 20994, "extending": 8402, "impossible": 5263, "ozone": 26443, "bald": 13852, "ingram": 23231, "prosperous": 18241, "determining": 12515, "catalina": 22326, "escaped": 6376, "fly": 4875, "ensuring": 12725, "genocide": 14052, "rally": 8320, "soto": 22768, "gall": 26033, "absence": 6438, "bayer": 26367, "warehouse": 9746, "thoughtful": 16465, "##gus": 12349, "##\u9580": 30494, "hades": 23003, "##ary": 5649, "##\u099c": 29894, "performed": 2864, "##mouth": 14359, "tools": 5906, "braking": 24427, "clothes": 4253, "mitchell": 6395, "handy": 18801, "remembering": 10397, "judgement": 16646, "countless": 14518, "murray": 6264, "quaker": 18844, "africans": 18076, "regents": 22832, "fireworks": 16080, "reiterated": 28960, "delhi": 6768, "define": 9375, "fuscous": 18121, "tsar": 17608, "eighth": 5964, "essentially": 7687, "agents": 6074, "##tier": 17579, "##ish": 4509, "##\u0574": 29776, "port": 3417, "##ginal": 24965, "##\u7cf9": 30460, "defect": 21262, "craftsman": 26286, "waterfall": 14297, "banners": 23562, "nineteen": 11977, "chronic": 11888, "weightlifting": 29305, "harvest": 11203, "computed": 24806, "bb": 22861, "julia": 6423, "continual": 27222, "equal": 5020, "mercenaries": 19331, "##nov": 16693, "dun": 24654, "giggled": 15889, "179": 20311, "modelling": 19518, "tossed": 7463, "##lth": 24658, "##uts": 16446, "stein": 14233, "##\u09c0": 29916, "##ease": 19500, "kicker": 22652, "[unused399]": 404, "2020": 12609, "demi": 27668, "1921": 4885, "##lore": 20186, "bennett": 8076, "##\u0454": 29759, "wales": 3575, "203": 18540, "nothing": 2498, "motioned": 13054, "lamb": 12559, "socket": 22278, "mohammed": 12619, "deep": 2784, "connections": 7264, "conspicuous": 19194, "purposely": 24680, "furniture": 7390, "payton": 28666, "malvern": 28082, "[unused111]": 116, "opaque": 28670, "\u961d": 1970, "##rod": 14127, "arboretum": 25197, "birth": 4182, "applying": 11243, "bp": 17531, "norms": 17606, "##he": 5369, "intake": 13822, "initiatives": 11107, "ambush": 15283, "emission": 15760, "ten": 2702, "frederic": 15296, "allowance": 21447, "shelton": 22230, "geologic": 22125, "shannon": 10881, "sounding": 9391, "charters": 23010, "feature": 3444, "thighs": 9222, "aspen": 18567, "##\u3072": 30199, "swallows": 26436, "[unused706]": 711, "espionage": 21003, "source": 3120, "twelve": 4376, "raped": 15504, "##trick": 22881, "[unused984]": 989, "##\u091f": 29856, "vancouver": 6930, "organizer": 19012, "dangling": 18737, "##nce": 5897, "turks": 12896, "##\u05d6": 29793, "##\u0905": 29847, "broad": 5041, "ankle": 10792, "reacting": 24868, "downward": 14047, "money": 2769, "intimacy": 20893, "nominated": 4222, "deals": 9144, "applies": 12033, "##umen": 27417, "babylon": 17690, "arm": 2849, "##chaft": 29043, "eclectic": 20551, "phillips": 8109, "##\u5e74": 30366, "##lts": 21593, "\u4f50": 1764, "##wicz": 21355, "leinster": 15684, "##ject": 20614, "database": 7809, "creditors": 23112, "bert": 14324, "stranded": 15577, "##sboro": 25623, "juarez": 25398, "premiered": 5885, "beige": 28799, "1956": 3838, "squadrons": 11435, "hamas": 22129, "aeronautical": 25010, "ireland": 3163, "heavyweight": 8366, "##inian": 15830, "##ctic": 13306, "willoughby": 24919, "exactly": 3599, "clocks": 20940, "240": 11212, "domed": 29208, "siena": 23754, "##nik": 8238, "[unused616]": 621, "ellie": 10707, "\u00b9": 1088, "[unused729]": 734, "##sd": 16150, "bright": 4408, "quezon": 26564, "_": 1035, "origin": 4761, "doubts": 13579, "lipstick": 22359, "experiment": 7551, "brutality": 24083, "gloria": 10778, "1705": 29326, "##rock": 16901, "\u02be": 1147, "celebrity": 8958, "unitarian": 25477, "rosenberg": 21069, "##print": 16550, "1815": 10679, "##u": 2226, "authorized": 9362, "##bular": 28808, "lucky": 5341, "current": 2783, "##rot": 21709, "1960": 3624, "hurried": 9520, "regulation": 7816, "brought": 2716, "fares": 27092, "smoothed": 17966, "painted": 4993, "stretches": 14082, "hermann": 12224, "##oese": 23379, "plug": 13354, "maximilian": 18838, "northward": 17192, "equipment": 3941, "97": 5989, "leith": 29011, "faulkner": 25109, "##gate": 5867, "esther": 14631, "garry": 21507, "##ways": 14035, "freeze": 13184, "mae": 11530, "amir": 18904, "##cycle": 23490, "tuned": 15757, "lp": 6948, "ds": 16233, "saints": 6586, "buff": 23176, "liturgical": 19246, "stronghold": 16995, "[unused332]": 337, "offer": 3749, "##hem": 29122, "246": 22376, "division": 2407, "\u967d": 1973, "kaladin": 22588, "##eering": 20550, "\u09b0": 1372, "ogden": 23203, "exited": 15284, "nu": 16371, "baha": 13253, "else": 2842, "peacock": 18931, "##iard": 14619, "##zman": 24340, "hasty": 27151, "formal": 5337, "farmland": 16439, "rhineland": 21640, "hee": 18235, "zach": 12397, "\u5730": 1802, "##itis": 13706, "handcuffs": 28338, "chrysler": 17714, "abortion": 11324, "je": 15333, "dissolved": 8314, "includes": 2950, "merged": 5314, "funnel": 25102, "##ulating": 10924, "complementary": 21053, "stills": 26105, "deaths": 6677, "undergoing": 14996, "braun": 21909, "##rama": 14672, "mutiny": 19306, "estimation": 24155, "declares": 18806, "clips": 15281, "\u201c": 1523, "drunk": 7144, "spicy": 25482, "pepsi": 27237, "##atal": 27815, "cadets": 15724, "frequency": 6075, "##hli": 27766, "referencing": 28789, "swore": 12860, "atrocities": 23482, "195": 17317, "brisk": 28022, "##long": 10052, "[unused484]": 489, "stalin": 13125, "fortunate": 19590, "temeraire": 23611, "156": 16734, "zoo": 9201, "dillon": 14602, "##\u043a": 23925, "click": 11562, "aquitaine": 24973, "thoroughly": 12246, "involved": 2920, "vacancy": 15619, "avoid": 4468, "##eborg": 27614, "commonly": 4141, "yarn": 27158, "universal": 5415, "penalties": 12408, "viaduct": 20596, "clermont": 27956, "[unused229]": 234, "plainly": 24250, "##ju": 9103, "dialects": 11976, "oboe": 22523, "situ": 26179, "##ars": 11650, "claudia": 13479, "##sitor": 28307, "##\u0562": 29767, "pot": 8962, "reactive": 22643, "witnesses": 9390, "##eous": 14769, "puzzled": 14909, "ahl": 18347, "hesse": 16399, "1933": 4537, "fielder": 25000, "[unused34]": 35, "inception": 12149, "##ov": 4492, "sheds": 25999, "wearing": 4147, "mm": 3461, "divides": 20487, "##66": 28756, "ordinary": 6623, "##raph": 24342, "##ulate": 9869, "quiz": 19461, "##sant": 22341, "inheritance": 12839, "##uaries": 22579, "threatens": 17016, "##pre": 28139, "nutrition": 14266, "allows": 4473, "notes": 3964, "sk": 15315, "sentiments": 23541, "china": 2859, "barr": 19820, "vietnam": 5148, "regina": 12512, "turkmenistan": 25432, "sink": 7752, "back": 2067, "nut": 17490, "accompanying": 10860, "[unused915]": 920, "##kle": 19099, "##ailed": 17440, "view": 3193, "slab": 17584, "vegetable": 15415, "amino": 13096, "##\u1161": 30006, "treaty": 5036, "##\u3078": 30201, "##bian": 15599, "equator": 26640, "copying": 24731, "tunes": 13281, "dioxide": 14384, "##\u1d63": 30043, "##\u0261": 29682, "johor": 25268, "assessing": 20077, "##quent": 15417, "##ange": 22043, "efficient": 8114, "fiery": 15443, "sava": 28350, "gb": 16351, "##\u2015": 30053, "locke": 18343, "\u3068": 1666, "gonzalez": 10121, "##raphic": 20721, "henley": 20768, "binding": 8031, "cites": 17248, "grimm": 24287, "tear": 7697, "quiet": 4251, "cheers": 21250, "advertising": 6475, "gross": 7977, "azores": 28320, "hungry": 7501, "endowment": 15108, "connectivity": 20831, "##ton": 2669, "weaving": 15360, "project": 2622, "ensured": 16316, "ones": 3924, "esq": 25325, "settled": 3876, "[unused965]": 970, "desirable": 16166, "[unused405]": 410, "##\u4e0a": 30268, "feminism": 20050, "checking": 9361, "pitcher": 8070, "gunner": 14850, "##ety": 27405, "knuckles": 13513, "bonding": 19882, "hoax": 28520, "brigades": 14589, "folk": 5154, "visits": 7879, "newfoundland": 11944, "[unused979]": 984, "urgency": 19353, "marley": 20326, "exchanging": 25620, "prolific": 12807, "strict": 9384, "sculptors": 28417, "engraver": 27771, "tragedy": 10576, "ellen": 9155, "loving": 8295, "pistons": 24399, "kellan": 19697, "ernst": 10728, "dimensional": 8789, "actually": 2941, "conqueror": 25466, "cheap": 10036, "descriptive": 22726, "coast": 3023, "haul": 14655, "alexandra": 10481, "[unused195]": 200, "victoria": 3848, "lola": 15137, "##drick": 24092, "distinguishes": 27343, "polish": 3907, "blossom": 20593, "donkey": 20325, "procurement": 21423, "confident": 9657, "##x": 2595, "[unused390]": 395, "father": 2269, "##ro": 3217, "lays": 19764, "##\u03c3": 29733, "hugged": 10308, "##git": 23806, "weary": 16040, "speeches": 13867, "##slin": 22908, "photographers": 17008, "stomach": 4308, "analogy": 23323, "entry": 4443, "amount": 3815, "noir": 15587, "shatter": 27271, "fulbright": 26695, "ib": 21307, "minutes": 2781, "manson": 21440, "unitary": 22127, "knew": 2354, "\u00b7": 1087, "dragged": 7944, "tenure": 7470, "shooting": 5008, "functioning": 12285, "directive": 16449, "ripping": 17039, "por": 18499, "archbishop": 6507, "1950": 3925, "raion": 24235, "melodies": 16106, "thugs": 24106, "\u02bb": 1145, "skirt": 9764, "monkey": 10608, "bundesliga": 14250, "lately": 9906, "##\u9762": 30502, "brien": 9848, "par": 11968, "fledged": 26712, "##chel": 15721, "basque": 13915, "induced": 10572, "publications": 5523, "history": 2381, "horst": 28565, "thrilled": 16082, "\u00f7": 1099, "gestured": 11574, "elements": 3787, "extinct": 8548, "apostle": 20121, "purdue": 19749, "mines": 7134, "complicated": 8552, "temperature": 4860, "florence": 7701, "barriers": 13500, "mum": 12954, "apostolic": 11815, "college": 2267, "industries": 6088, "##ality": 23732, "##joy": 24793, "##coll": 26895, "sanctioned": 14755, "##lal": 13837, "remember": 3342, "greater": 3618, "##pg": 26952, "##chang": 22305, "\u6c0f": 1891, "controversy": 6704, "lucinda": 28261, "##sque": 17729, "broadcasters": 18706, "##castle": 23662, "##nist": 26942, "record": 2501, "convertible": 22840, "analyzed": 16578, "apartheid": 17862, "landscaping": 28404, "privileged": 21598, "##ignant": 25593, "longest": 6493, "keith": 6766, "1937": 4347, "po": 13433, "##rts": 21217, "hospital": 2902, "event": 2724, "tyler": 7482, "ashland": 24346, "isotope": 28846, "taxonomy": 25274, "1970": 3359, "engine": 3194, "ode": 24040, "advance": 5083, "##\u00bc": 29664, "##nding": 15683, "hamlets": 21631, "warships": 15964, "pressured": 25227, "stamps": 12133, "bets": 29475, "ling": 17002, "roma": 12836, "##\u667a": 30395, "possessive": 22105, "gallagher": 17297, "than": 2084, "duval": 23929, "wow": 10166, "yugoslav": 12292, "##ast": 14083, "five": 2274, "poole": 19107, "burundi": 28836, "seeker": 29444, "heller": 25038, "[unused920]": 925, "validity": 16406, "caliphate": 28034, "1887": 6837, "dawson": 11026, "promptly": 13364, "dso": 22951, "wiener": 25072, "liberals": 13350, "resolved": 10395, "coupling": 19780, "carrie": 13223, "backseat": 19978, "maternal": 11062, "1940s": 7675, "spilled": 13439, "##\u10e1": 29988, "##\u098f": 29887, "##ell": 5349, "rachel": 5586, "flaws": 21407, "curves": 10543, "strangers": 12358, "laurence": 10883, "monarchs": 19799, "astro": 28625, "woo": 15854, "changing": 5278, "southland": 29121, "start": 2707, "sighing": 19381, "consideration": 9584, "##nr": 16118, "nash": 10594, "palestine": 8976, "twin": 5519, "shale": 18488, "sculptures": 10801, "mirza": 18366, "creepy": 17109, "stop": 2644, "[unused768]": 773, "jarrett": 24503, "bloomfield": 25584, "tearing": 13311, "koln": 28306, "jewellery": 21545, "reckless": 18555, "cabinet": 5239, "##arm": 27292, "brighter": 16176, "footballers": 27784, "inflicted": 17303, "168": 16923, "##ised": 5084, "skiing": 12701, "[unused441]": 446, "discrimination": 9147, "engraving": 23501, "parallels": 18588, "##aina": 27971, "##lin": 4115, "##meo": 26247, "folks": 12455, "guido": 20239, "cloud": 6112, "resolution": 5813, "valuation": 26004, "temperate": 16868, "excursion": 26144, "sermons": 20855, "sponge": 25742, "chariot": 23507, "##\u221a": 30127, "##ister": 12911, "teammates": 13220, "francis": 4557, "##eses": 23072, "values": 5300, "##\u201d": 30059, "mighty": 10478, "curve": 7774, "reduces": 13416, "haste": 24748, "sabres": 26969, "conducts": 17976, "rumbled": 22257, "\u308d": 1689, "##\u03be": 29729, "b1": 29491, "livelihood": 24585, "lough": 29504, "outsider": 21002, "\u1175": 1483, "35": 3486, "remembers": 17749, "northwards": 27592, "almond": 26011, "positively": 13567, "##sure": 28632, "modulation": 25502, "##xia": 14787, "unpublished": 19106, "unicef": 29073, "craters": 27561, "nickel": 15519, "trough": 23389, "appreciate": 9120, "innovation": 8144, "##ih": 19190, "started": 2318, "operational": 6515, "trojan": 23445, "titles": 4486, "kitchen": 3829, "verona": 20197, "arises": 18653, "ul": 17359, "engined": 21235, "wil": 19863, "arabia": 9264, "globalization": 24370, "staffordshire": 17052, "dwellings": 16707, "admissions": 20247, "##metric": 12589, "fountains": 23497, "##sc": 11020, "##\u8857": 30472, "receives": 8267, "tour": 2778, "var": 13075, "insurance": 5427, "baku": 16807, "saddle": 12279, "host": 3677, "##tana": 20496, "##ly": 2135, "fork": 9292, "rated": 6758, "waiting": 3403, "wealthy": 7272, "backdrop": 18876, "porto": 13809, "interiors": 20769, "##rasia": 27839, "bastards": 21123, "##kal": 12902, "##~": 29643, "explicitly": 12045, "##25": 17788, "physiology": 16127, "biased": 25352, "##\u0f53": 29965, "violent": 6355, "bunk": 25277, "scientific": 4045, "absolutely": 7078, "##raya": 29539, "horrible": 9202, "devlin": 24389, "permission": 6656, "uniquely": 20640, "aba": 19557, "oregon": 5392, "ashford": 26545, "trials": 7012, "apprehension": 25809, "debt": 7016, "##khand": 25910, "[unused98]": 99, "##by": 3762, "##\u30f3": 30263, "patna": 29565, "adjunct": 20621, "groups": 2967, "rescue": 5343, "bosch": 25936, "kade": 26159, "##\u10e0": 29987, "wishes": 8996, "tq": 28816, "interested": 4699, "##lining": 16992, "[unused839]": 844, "freiburg": 22871, "\u03c1": 1171, "\u03c7": 1177, "insider": 25297, "mundane": 24684, "gig": 15453, "roadway": 18799, "cyprus": 9719, "flipping": 18497, "##umatic": 25360, "##ating": 5844, "nearing": 23454, "kinds": 7957, "##vance": 21789, "penn": 9502, "joachim": 17286, "hampton": 11615, "half": 2431, "nebraska": 8506, "\u208d": 1558, "ninja": 14104, "##lative": 26255, "municipality": 3250, "##ential": 24271, "sweetness": 23210, "attackers": 17857, "authentication": 27280, "souls": 9293, "raymond": 7638, "dragoons": 28069, "pardon": 14933, "[unused682]": 687, "##cats": 19588, "quoted": 9339, "##leigh": 13615, "ceasefire": 26277, "numbered": 8597, "geometric": 14965, "fracture": 19583, "[unused510]": 515, "loosen": 29476, "##hmi": 26837, "priestess": 27677, "jets": 9924, "gamer": 27911, "circumstance": 25652, "vane": 23334, "dali": 29095, "forbidden": 10386, "tornadoes": 22668, "culminated": 16943, "muir": 23110, "##zen": 10431, "incorporated": 5100, "\u02e2": 1152, "locating": 26339, "lena": 14229, "sticking": 13423, "bethel": 19375, "##\u694a": 30409, "##\u30bb": 30234, "beaten": 7854, "perfectly": 6669, "##lley": 25105, "puebla": 27452, "dusseldorf": 18160, "sooner": 10076, "aleppo": 22973, "investigated": 10847, "[unused409]": 414, "forcibly": 20951, "individuals": 3633, "cheese": 8808, "##\u043d": 18947, "default": 12398, "environment": 4044, "everton": 18022, "\u2032": 1531, "distrust": 29245, "slots": 19832, "basic": 3937, "leto": 24543, "gaming": 10355, "fractured": 21726, "1708": 27337, "receipt": 24306, "stitches": 25343, "73": 6421, "opted": 12132, "curved": 9203, "claudius": 25017, "24": 2484, "m2": 25525, "regiments": 10435, "ask": 3198, "volleyball": 7454, "nec": 26785, "lucan": 20764, "incidents": 10444, "slogan": 14558, "bonded": 20886, "##horse": 23024, "##\u30e9": 30257, "##graphy": 12565, "##zbek": 28733, "scowl": 19981, "802": 23908, "prc": 26141, "undrafted": 21347, "jaipur": 28355, "miller": 4679, "buffet": 28305, "[unused467]": 472, "australia": 2660, "influx": 18050, "##ggle": 24679, "courtney": 14139, "fia": 19807, "##mura": 16069, "loco": 28046, "[unused879]": 884, "stormed": 16201, "##ament": 24996, "tenant": 16713, "rams": 13456, "hunted": 14682, "puppy": 17022, "certainly": 5121, "dust": 6497, "darrell": 23158, "agreements": 10540, "##horpe": 22044, "unique": 4310, "##li": 3669, "testing": 5604, "keynote": 25569, "postage": 22981, "##ders": 13375, "unison": 18732, "artery": 16749, "schumacher": 22253, "##cision": 28472, "[unused325]": 330, "excel": 24970, "kicking": 10209, "amazon": 9733, "th": 16215, "award": 2400, "chuckled": 10252, "archives": 8264, "clarissa": 25260, "niccolo": 27033, "tax": 4171, "jing": 21536, "bro": 22953, "comics": 5888, "##tyle": 27983, "geneva": 9810, "hem": 19610, "steamed": 21734, "warmed": 17336, "advice": 6040, "insist": 18292, "stricken": 16654, "nowadays": 13367, "460": 17267, "sand": 5472, "pitchfork": 22355, "spiritual": 6259, "##fp": 22540, "1935": 4437, "ensuing": 13831, "##\u3068": 30192, "unbeaten": 20458, "##vron": 28588, "##werk": 29548, "adrian": 7918, "press": 2811, "[unused520]": 525, "samuel": 5212, "##istles": 28738, "programmers": 28547, "munich": 7469, "\u10d3": 1441, "amazed": 15261, "holidays": 11938, "prism": 26113, "##power": 11452, "##ze": 4371, "release": 2713, "textile": 12437, "\u4e0a": 1742, "breathing": 5505, "rees": 22131, "##pts": 22798, "1745": 21809, "1869": 7845, "chiefs": 9058, "appearances": 3922, "660": 20982, "##hun": 17157, "trafficking": 11626, "##isha": 24032, "rita": 11620, "##zione": 20574, "##llis": 21711, "[unused81]": 82, "ji": 10147, "azerbaijan": 8365, "guerrilla": 15722, "recall": 9131, "ui": 21318, "soup": 11350, "mentions": 9704, "##ivity": 7730, "ministry": 3757, "automated": 12978, "600": 5174, "##lberg": 22927, "hideout": 29588, "\u0294": 1139, "##ulent": 27581, "manly": 19385, "##rta": 13320, "implied": 13339, "psychotic": 27756, "underway": 14128, "auf": 21200, "dietary": 23444, "greg": 6754, "\u05d0": 1241, "##\u5730": 30328, "meter": 8316, "smoking": 9422, "[unused795]": 800, "valor": 27314, "froze": 10619, "##gawa": 21188, "was": 2001, "##mbit": 28878, "jews": 5181, "destined": 16036, "\u00a6": 1072, "raul": 16720, "##sha": 7377, "goat": 13555, "##ruff": 26919, "\u090f": 1314, "reciprocal": 28309, "fundraiser": 28536, "mama": 9588, "##lman": 12624, "##uri": 9496, "fed": 7349, "indies": 9429, "biodiversity": 17194, "square": 2675, "estranged": 24211, "two": 2048, "##cous": 27199, "##ua": 6692, "##avio": 28471, "blood": 2668, "##ttering": 19567, "\u5cf6": 1833, "##otti": 21325, "thorns": 28408, "[unused670]": 675, "##max": 17848, "mountainous": 14897, "gora": 26967, "brethren": 17937, "##\u045a": 29763, "embraced": 14218, "rte": 20375, "451": 28161, "roasted": 28115, "##\ufb01": 30510, "susquehanna": 26361, "prospects": 16746, "reeling": 28515, "shuddering": 25735, "1868": 7582, "raja": 10164, "incomes": 29373, "steward": 17946, "woodstock": 21028, "[unused453]": 458, "ava": 10927, "reductions": 25006, "bless": 19994, "notation": 14869, "residual": 21961, "designations": 26672, "internationally": 7587, "olson": 21583, "##ane": 7231, "konstantin": 23989, "\u09ac": 1368, "##oue": 27872, "yugoslavia": 8936, "##itte": 27100, "convened": 19596, "madeleine": 19324, "promoter": 15543, "module": 11336, "usl": 22448, "minnesota": 5135, "##\u5289": 30303, "commemorative": 17524, "[unused323]": 328, "triggers": 27099, "plymouth": 10221, "pray": 11839, "chasing": 11777, "redundant": 21707, "depart": 18280, "\u098f": 1351, "\u02bf": 1148, "saxon": 10038, "adversary": 27248, "prepare": 7374, "explanation": 7526, "there": 2045, "##kus": 22332, "##idi": 28173, "voltage": 10004, "##\u8a9e": 30476, "##tai": 15444, "swim": 9880, "becomes": 4150, "##int": 18447, "##\u771f": 30447, "sandwich": 11642, "flowers": 4870, "responses": 10960, "harbor": 6496, "neuroscience": 23700, "\u2011": 1514, "mortal": 9801, "growling": 22413, "cannot": 3685, "noon": 11501, "[unused754]": 759, "pd": 22851, "\u6c11": 1892, "purge": 24694, "playfully": 22608, "enraged": 18835, "nah": 20976, "[unused471]": 476, "##mmy": 18879, "tones": 12623, "underworld": 13607, "##\u5fd7": 30377, "leaping": 21216, "attacking": 7866, "lesbian": 11690, "rocker": 24779, "steep": 9561, "bond": 5416, "connacht": 27062, "therapeutic": 17261, "sublime": 28341, "##lization": 22731, "[unused603]": 608, "meridian": 17984, "##gara": 24864, "\u30fc": 1739, "banned": 7917, "1969": 3440, "\u6c37": 1895, "survivors": 8643, "enterprise": 6960, "hale": 13084, "##tively": 25499, "avoiding": 9992, "737": 22061, "particle": 10811, "nmi": 22484, "videos": 6876, "##urity": 25137, "emptied": 21764, "empires": 23560, "swarm": 21708, "[unused726]": 731, "bathurst": 21897, "barge": 19398, "invaders": 17347, "339": 28977, "natal": 17489, "mating": 15100, "repeating": 15192, "mythology": 11327, "installed": 5361, "genie": 22519, "male": 3287, "ski": 8301, "freaks": 29526, "bitten": 19026, "gust": 26903, "##nut": 24072, "marylebone": 28537, "temporal": 15850, "compassion": 15398, "##nts": 7666, "[unused160]": 165, "tuck": 18029, "crossed": 4625, "regularly": 5570, "2nd": 3416, "labrador": 18604, "##jhl": 29001, "##nt": 3372, "dc": 5887, "\u5ddd": 1835, "moore": 5405, "nomadic": 21702, "songwriting": 14029, "vijay": 17027, "wessex": 27886, "bruise": 24851, "wherever": 11210, "##ound": 28819, "bilbao": 25427, "##uba": 19761, "##rm": 10867, "##hma": 22444, "wendell": 24526, "fantasies": 21233, "##yna": 18279, "composition": 5512, "lakes": 6597, "processed": 13995, "regulatory": 10738, "##fall": 13976, "cheered": 25471, "connolly": 21018, "##kie": 11602, "duchy": 11068, "129": 14378, "alarm": 8598, "ono": 21058, "hodgson": 26107, "desperate": 7143, "##tr": 16344, "##\u795e": 30451, "##fest": 14081, "edith": 13257, "guided": 8546, "marko": 28003, "mandela": 26887, "ascent": 16354, "tombstone": 26671, "fauna": 15018, "sphinx": 27311, "lagos": 16738, "trunks": 20509, "##utnant": 24620, "##\u11b8": 30024, "accreditation": 14893, "##\u30e2": 30253, "caliph": 22733, "defence": 4721, "eruption": 17259, "[unused502]": 507, "##ango": 23422, "prevailing": 19283, "##idad": 27893, "needs": 3791, "free": 2489, "siemens": 22108, "manages": 9020, "##balls": 18510, "meg": 12669, "##igen": 29206, "booked": 17414, "replacements": 23936, "guarding": 17019, "admire": 19837, "reggie": 17963, "inspired": 4427, "edgar": 9586, "93": 6109, "iroquois": 23015, "ships": 3719, "##zine": 21254, "surround": 15161, "impatiently": 19951, "teaching": 4252, "left": 2187, "laszlo": 28226, "##eber": 22669, "elk": 18995, "specialty": 12233, "##lings": 11227, "adherence": 29235, "ripped": 9157, "##gement": 20511, "austrians": 28439, "assemble": 21365, "acquisition": 7654, "orchestral": 13533, "beaux": 20290, "ports": 8831, "winding": 12788, "##tea": 27058, "thrash": 27042, "family": 2155, "##ive": 3512, "avalanche": 18846, "192": 17613, "patterns": 7060, "offset": 16396, "plata": 19534, "processors": 18017, "\u30df": 1724, "##grounds": 28951, "perkins": 13601, "[unused516]": 521, "##tate": 12259, "cesare": 26708, "##\u6226": 30382, "bernie": 15941, "daytime": 12217, "turin": 13667, "keenan": 26334, "banquet": 19032, "knowledge": 3716, "##watch": 18866, "##agawa": 20812, "[unused776]": 781, "##ulia": 20922, "utrecht": 18361, "editorial": 8368, "##tions": 9285, "working": 2551, "citations": 22921, "seeded": 13916, "corrupt": 13593, "ancestor": 13032, "capitals": 15433, "moritz": 28461, "intersect": 29261, "##\u961d": 30496, "docking": 25776, "mp3": 23378, "##uming": 24270, "[unused720]": 725, "righteous": 19556, "baldwin": 10970, "magdalene": 26890, "eminent": 14953, "\u30a6": 1696, "wiltshire": 17045, "\u30ca": 1715, "damaged": 5591, "corvette": 22687, "blond": 8855, "rutgers": 18607, "gal": 14891, "##isches": 27239, "tierney": 26198, "##lad": 27266, "##line": 4179, "pe": 21877, "disqualified": 14209, "lucille": 28016, "darcy": 17685, "principality": 18018, "swung": 7671, "1763": 18432, "organizes": 22013, "designs": 5617, "boulevard": 8459, "providers": 11670, "shock": 5213, "1768": 19793, "##ckey": 29183, "kerr": 14884, "declare": 13520, "lance": 9993, "topology": 19587, "inmates": 13187, "sees": 5927, "huron": 21899, "##dez": 24601, "##ulla": 22187, "directory": 14176, "honestly": 9826, "[unused212]": 217, "\u00ab": 1077, "auschwitz": 24363, "##fles": 28331, "isolate": 27152, "##\u05d5": 29792, "hilarious": 26316, "discourse": 15152, "ras": 20710, "pearson": 12874, "sanitation": 18723, "macon": 20025, "briefly": 4780, "using": 2478, "possesses": 14882, "bookstore": 21785, "claudio": 19569, "ramon": 12716, "shelters": 17177, "gritted": 17307, "slit": 18036, "bodyguard": 16174, "##zhou": 9791, "scripts": 14546, "[unused379]": 384, "rests": 16626, "giovanni": 9136, "##\u0996": 29890, "exposed": 6086, "collarbone": 29600, "rainfall": 10101, "1900": 5141, "##bbed": 15499, "polka": 29499, "reason": 3114, "dialed": 21300, "##flict": 29301, "reform": 5290, "##sies": 14625, "##holders": 17794, "antibiotics": 24479, "weed": 17901, "beings": 9552, "donovan": 12729, "nostalgia": 26968, "internet": 4274, "ernesto": 22428, "vicious": 13925, "\u201d": 1524, "hiroshima": 20168, "nestled": 22704, "##\u99ac": 30506, "purposes": 5682, "accordance": 10388, "tiger": 6816, "contract": 3206, "emir": 23434, "##itia": 29050, "cells": 4442, "parish": 3583, "##ore": 5686, "clerical": 23106, "##gic": 12863, "##oz": 18153, "divert": 27345, "\u11b8": 1488, "111": 11118, "designer": 5859, "##naire": 20589, "represented": 3421, "kay": 10905, "sons": 4124, "smoothly": 15299, "1664": 28485, "journal": 3485, "##ifolia": 29244, "simultaneously": 7453, "[unused882]": 887, "honourable": 17164, "immensely": 24256, "[unused773]": 778, "cypress": 22183, "##rum": 6824, "regulator": 21618, "wroc\u0142aw": 25160, "secrets": 7800, "[unused237]": 242, "##\u06c1": 29845, "star": 2732, "hook": 8103, "constituencies": 13315, "erased": 23516, "sera": 26358, "gabrielle": 16988, "\u301c": 1645, "deteriorating": 28440, "jagged": 18187, "[unused568]": 573, "mc": 11338, "temperament": 26270, "disagreement": 18185, "hopping": 26397, "kelsey": 21004, "dumont": 25830, "provence": 19923, "sentencing": 23280, "concluded": 5531, "sur": 7505, "passageway": 27336, "twists": 21438, "make": 2191, "rutherford": 18472, "combo": 25025, "uncommon": 13191, "settlements": 7617, "wasp": 19411, "hometown": 9627, "garden": 3871, "whitehall": 28361, "##lary": 28221, "puzzle": 11989, "wander": 17677, "alone": 2894, "upheld": 16813, "characteristic": 8281, "chestnut": 15655, "##tley": 18492, "##hic": 16066, "frances": 10360, "troop": 10123, "meanings": 15383, "tribe": 5917, "decomposition": 22511, "bao": 25945, "regulars": 24945, "imagined": 8078, "##bla": 28522, "[unused434]": 439, "norman": 5879, "tugged": 10621, "monitored": 17785, "produced": 2550, "debut": 2834, "delta": 7160, "[unused52]": 53, "freelance": 15919, "kathmandu": 28045, "deploy": 21296, "##hip": 5605, "bsc": 23533, "intention": 6808, "descended": 9287, "masked": 16520, "chiefly": 15897, "shuffled": 18764, "bequeathed": 27180, "islander": 12544, "commemorated": 19131, "flint": 13493, "fairfield": 18986, "##ava": 12462, "casino": 9270, "##dine": 10672, "concerts": 6759, "waterloo": 13784, "ne": 11265, "maintain": 5441, "proficient": 27029, "breaking": 4911, "kepler": 28219, "[unused746]": 751, "dresser": 16641, "her": 2014, "##oid": 9314, "\u0636": 1285, "wallace": 7825, "dick": 5980, "teased": 13074, "calgary": 10112, "\u0905": 1311, "abandonment": 22290, "secretary": 3187, "turns": 4332, "taunting": 29442, "prologue": 18877, "appointed": 2805, "saratoga": 23136, "stink": 27136, "southwestern": 8772, "hangul": 19051, "dominance": 13811, "ferreira": 26135, "approached": 5411, "214": 19936, "economists": 22171, "1788": 15622, "352": 28906, "##rder": 26764, "viking": 12886, "squinted": 17425, "progress": 5082, "##\u03bf": 29730, "lucknow": 23571, "vows": 16495, "behalf": 6852, "##iferous": 23930, "provoked": 19157, "chambers": 8477, "transmissions": 21670, "sheridan": 13243, "agreeing": 16191, "brief": 4766, "crises": 25332, "oceans": 17401, "alteration": 26014, "[unused51]": 52, "fae": 17282, "##gel": 12439, "person": 2711, "stabilize": 27790, "##leaf": 19213, "1692": 28622, "amherst": 19850, "automotive": 12945, "manny": 16320, "via": 3081, "##kir": 23630, "##70": 19841, "yen": 18371, "tramway": 17050, "analysis": 4106, "highlight": 12944, "routledge": 21180, "wheat": 10500, "moving": 3048, "heidelberg": 16793, "ramirez": 15206, "proposing": 21991, "##koto": 24886, "kira": 15163, "cambodian": 24417, "ladder": 10535, "##dt": 11927, "##schen": 23796, "seth": 6662, "fr": 10424, "mori": 22993, "##ime": 14428, "##ovo": 16059, "sadler": 29012, "definitely": 5791, "brenda": 15507, "merchant": 6432, "job": 3105, "fei": 24664, "remain": 3961, "tina": 11958, "measuring": 9854, "##uka": 15750, "318": 27003, "##phs": 18757, "dax": 27116, "segunda": 19071, "stand": 3233, "longitudinal": 20134, "vh1": 26365, "infused": 29592, "##rd": 4103, "undermine": 25174, "goldsmith": 22389, "scenic": 12916, "1731": 28446, "thankful": 18836, "pertaining": 20246, "oldies": 26826, "novak": 19580, "##stream": 21422, "fish": 3869, "[unused511]": 516, "##endra": 19524, "##rite": 17625, "##\u10e3": 29990, "pcs": 27019, "1840s": 19308, "orientation": 10296, "northwestern": 7855, "##bag": 16078, "tool": 6994, "hindu": 7560, "compact": 9233, "[unused337]": 342, "##miento": 28883, "mob": 11240, "showed": 3662, "##rien": 23144, "apart": 4237, "schubert": 24645, "wilbur": 26151, "leave": 2681, "shoulder": 3244, "teenager": 10563, "instead": 2612, "homes": 5014, "mechanisms": 10595, "inventor": 12235, "##rb": 15185, "manufacture": 9922, "[unused707]": 712, "##ask": 19895, "yellowish": 17804, "\u09a8": 1366, "made": 2081, "vicki": 25424, "conducting": 9283, "bonaparte": 20830, "##l": 2140, "aftermath": 10530, "infinite": 10709, "none": 3904, "staring": 4582, "banning": 21029, "##otic": 20214, "advantage": 5056, "[unused767]": 772, "persist": 29486, "iaaf": 21259, "##\u30de": 30249, "##base": 15058, "fifth": 3587, "operators": 9224, "##dd": 14141, "deafening": 28840, "choose": 5454, "\u1167": 1474, "#": 1001, "permit": 9146, "##lent": 16136, "friendly": 5379, "mates": 14711, "commanded": 6311, "cornice": 27848, "yves": 19687, "suspension": 8636, "echoing": 17142, "[unused119]": 124, "##dia": 9032, "##liest": 21292, "considers": 10592, "jul": 21650, "winchester": 12841, "##iji": 27821, "bikini": 20345, "##ellant": 24178, "niagara": 15473, "emotional": 6832, "delivers": 18058, "##ores": 16610, "put": 2404, "monstrous": 21668, "dismissing": 28913, "senior": 3026, "glider": 18788, "conversation": 4512, "flame": 8457, "ok": 7929, "honours": 8762, "romantic": 6298, "donald": 6221, "flickered": 15999, "monkeys": 17059, "[unused636]": 641, "papa": 13008, "audio": 5746, "branching": 23346, "annals": 16945, "fools": 18656, "disguise": 14249, "blacks": 10823, "delicious": 12090, "postdoctoral": 29272, "##chen": 8661, "dismay": 20006, "paddington": 26318, "fukuoka": 26998, "##ations": 10708, "##pal": 12952, "##\u4eee": 30287, "##vocation": 19152, "enforce": 16306, "militia": 8396, "boiler": 15635, "h": 1044, "ut": 21183, "encoding": 17181, "trigger": 9495, "visibility": 16476, "relics": 16712, "quality": 3737, "##itha": 26054, "##cius": 25393, "\u1162": 1471, "nadu": 10703, "amplifier": 22686, "mora": 26821, "##orne": 23846, "aeronautics": 27459, "##oin": 28765, "harry": 4302, "##duk": 28351, "compares": 22963, "wcw": 24215, "[unused477]": 482, "ensign": 19890, "kyle": 7648, "##rop": 18981, "\u2093": 1563, "sega": 16562, "actual": 5025, "louisville": 11577, "stabbing": 21690, "mbe": 20301, "##tting": 13027, "##blood": 26682, "corporations": 11578, "scaled": 18953, "##turn": 22299, "##sin": 11493, "brandt": 19407, "##iere": 21253, "##ol": 4747, "##14": 16932, "##toy": 29578, "redesign": 25136, "##cci": 14693, "sighted": 19985, "careful": 6176, "ross": 5811, "optimal": 15502, "thom": 19438, "1989": 2960, "ben": 3841, "undertaken": 10607, "struggled": 6915, "warmer": 16676, "##writing": 18560, "focused": 4208, "fielding": 15452, "marie": 5032, "##pit": 23270, "carpet": 10135, "##w": 2860, "pieces": 4109, "bobo": 27418, "\u03c3": 1173, "680": 23944, "\u305f": 1661, "staff": 3095, "contra": 24528, "1867": 7517, "##4th": 26724, "personnel": 5073, "sirius": 23466, "bred": 13680, "##vres": 24790, "came": 2234, "aviv": 12724, "\u767d": 1915, "tehsil": 20751, "nocturnal": 23789, "advises": 25453, "##pling": 14353, "agatha": 23863, "##ssion": 28231, "##ta": 2696, "thump": 21324, "ritter": 23168, "deng": 26957, "[unused231]": 236, "##agne": 25440, "un": 4895, "[unused529]": 534, "differentiate": 21032, "##nic": 8713, "collision": 12365, "##agger": 27609, "palaces": 22763, "\u2030": 1530, "cds": 14340, "impulse": 14982, "impatient": 17380, "concacaf": 22169, "choi": 18151, "masonry": 18103, "coat": 5435, "##\u529b": 30304, "##rber": 20473, "built": 2328, "arjun": 26024, "filipino": 10275, "65": 3515, "hilda": 21589, "[unused811]": 816, "enemies": 6716, "towers": 7626, "poking": 21603, "sans": 20344, "forestry": 13116, "confronting": 26964, "endings": 21306, "gaa": 19930, "sap": 20066, "##zza": 20715, "\u03bf": 1169, "##ischen": 24488, "mute": 20101, "growls": 27825, "thai": 7273, "http": 8299, "[unused58]": 59, "plural": 13994, "moist": 11052, "mammals": 11993, "channels": 6833, "exhibitions": 8596, "area": 2181, "##edes": 18352, "duration": 9367, "##jit": 18902, "argent": 23157, "pleasures": 26552, "\u2666": 1626, "fleeing": 14070, "focusing": 7995, "##\u793e": 30450, "venezuelan": 15332, "arms": 2608, "##iving": 14966, "stalker": 23883, "villains": 16219, "slopes": 10314, "troy": 9553, "pedestrians": 24946, "[unused297]": 302, "##\u00f8": 16415, "loops": 15932, "persian": 4723, "[unused950]": 955, "\u0bae": 1389, "ts": 24529, "ie": 29464, "distinguish": 10782, "mons": 29408, "anymore": 4902, "tributaries": 15777, "##uh": 27225, "subsequent": 4745, "contractors": 16728, "##evic": 17726, "confederate": 8055, "multicultural": 27135, "blackout": 26717, "##vus": 27500, "external": 6327, "bohemian": 18063, "258": 24398, "hays": 29051, "1740": 21757, "send": 4604, "hines": 25445, "gonzaga": 26840, "frantically": 16460, "beheaded": 28923, "resides": 11665, "poppy": 19745, "perished": 23181, "seeking": 6224, "braden": 27232, "muscle": 6740, "##\u09a3": 29897, "revival": 6308, "executed": 6472, "700": 6352, "endorsement": 20380, "clap": 28618, "##\u22121": 27944, "pipes": 12432, "ignatius": 26841, "##ieg": 28872, "dustin": 24337, "lenin": 17497, "spec": 28699, "\u04cf": 1218, "##quitable": 28298, "endowed": 19038, "blazed": 25590, "stockport": 26284, "##yle": 12844, "eastbound": 24773, "##lch": 29358, "1635": 27426, "##ouk": 27967, "warm": 4010, "rendezvous": 20558, "triggered": 13330, "##inho": 29344, "bony": 22678, "##hel": 16001, "##note": 22074, "naomi": 12806, "knocked": 6573, "limbs": 10726, "[unused71]": 72, "che": 18178, "morrison": 9959, "[unused676]": 681, "contacted": 11925, "sank": 7569, "##bard": 21458, "tossing": 15021, "nfc": 22309, "[unused218]": 223, "parochial": 28773, "wax": 13844, "dev": 16475, "polar": 11508, "[unused155]": 160, "##anu": 24076, "liberated": 19553, "##tagram": 23091, "constant": 5377, "injustice": 21321, "impromptu": 29213, "mclaughlin": 23720, "council": 2473, "dorsey": 27332, "disappearance": 13406, "bottle": 5835, "##\u2193": 30114, "populace": 22508, "pontiac": 24538, "goddamn": 16477, "54": 5139, "failure": 4945, "flora": 10088, "bravo": 17562, "jeremiah": 17526, "fled": 6783, "barney": 15377, "coordinating": 19795, "[unused889]": 894, "favourable": 18731, "analytics": 25095, "olympus": 26742, "brushes": 22569, "hides": 17382, "dl": 21469, "fbi": 8495, "\u0e15": 1411, "homemade": 25628, "prayers": 12583, "protested": 11456, "eventually": 2776, "colourful": 26102, "reuters": 26665, "##\u05e8": 29811, "ufc": 11966, "[unused251]": 256, "##erson": 18617, "requirements": 5918, "clicked": 13886, "es": 9686, "tianjin": 26216, "romero": 18290, "reviewers": 15814, "##bie": 11283, "vo": 29536, "##isen": 28992, "romanized": 7651, "version": 2544, "1954": 4051, "obtain": 6855, "characterized": 7356, "rudd": 25298, "whitaker": 27049, "spaghetti": 26666, "cortex": 17132, "canadiens": 21247, "biomass": 28148, "fused": 19660, "##fine": 23460, "celtics": 23279, "danger": 5473, "##umi": 12717, "researcher": 10753, "gathered": 5935, "trevor": 8672, "##rill": 24714, "[unused42]": 43, "1882": 7131, "vase": 18781, "rhone": 22351, "##\u6f22": 30430, "cf": 12935, "1658": 28944, "remarried": 19316, "owning": 19273, "writhing": 26185, "dancing": 5613, "alcoholism": 25519, "columns": 7753, "##dates": 27122, "##ut": 4904, "##rity": 15780, "district": 2212, "##hiti": 27798, "loyal": 8884, "removes": 20362, "park": 2380, "phase": 4403, "##iah": 12215, "brilliance": 28850, "assumes": 15980, "##em": 6633, "degraded": 26131, "defender": 8291, "1703": 28366, "composers": 9929, "matt": 4717, "cavity": 17790, "##ocks": 25384, "translations": 11913, "wonderland": 20365, "1872": 7572, "##ivar": 28739, "proper": 5372, "galilee": 28928, "kei": 26679, "chesterfield": 22699, "dissolve": 21969, "bishops": 8414, "##pani": 26569, "##bahn": 16052, "wednesday": 9317, "deux": 24756, "starting": 3225, "unaware": 11499, "lungs": 8948, "neglect": 19046, "week": 2733, "slippery": 22274, "malay": 12605, "##bow": 18912, "arid": 17511, "inserted": 12889, "apartments": 9620, "dropping": 7510, "##tling": 15073, "comune": 21130, "brewers": 20007, "sketch": 11080, "rom": 17083, "world": 2088, "##than": 21604, "doomed": 20076, "deserts": 28858, "movie": 3185, "ching": 19992, "surviving": 6405, "##mon": 8202, "restricting": 26996, "\u2660": 1623, "financial": 3361, "##hausen": 13062, "jace": 10352, "hospitality": 15961, "josephine": 16117, "earls": 27371, "threads": 16457, "retained": 6025, "textiles": 18762, "worm": 15485, "appoint": 16823, "\u067e": 1302, "sounds": 4165, "consultants": 22283, "malaga": 27382, "inverted": 20037, "##os": 2891, "biotechnology": 20353, "parted": 10277, "dungeons": 20264, "##actic": 28804, "iv": 4921, "stagecoach": 26025, "##\u00a3": 29646, "allegiance": 14588, "promoters": 26512, "unusual": 5866, "snarl": 24845, "breaks": 7807, "##pled": 21132, "section": 2930, "cycle": 5402, "deposition": 19806, "\u10d2": 1440, "encourage": 8627, "roots": 6147, "3rd": 3822, "astonishment": 23819, "installation": 8272, "equilibrium": 14442, "eyre": 26975, "estimated": 4358, "lawn": 10168, "polly": 17543, "##gano": 29451, "salvage": 18340, "ace": 9078, "##inates": 28184, "american": 2137, "##iny": 24300, "posters": 14921, "##thus": 19877, "##\u5bfa": 30353, "santa": 4203, "residues": 22644, "courage": 8424, "reissued": 14805, "domain": 5884, "shelter": 7713, "shelley": 15828, "suffered": 4265, "whistling": 24350, "kia": 27005, "field": 2492, "aston": 14327, "actively": 8851, "##anial": 27532, "[unused187]": 192, "baptized": 19775, "caracas": 21675, "1910s": 28088, "seat": 2835, "##bant": 29604, "ontario": 4561, "healed": 15027, "transgender": 16824, "apologetic": 29352, "thayer": 25563, "rewards": 19054, "pollution": 10796, "crore": 21665, "##tlan": 28922, "##rgh": 27172, "##opped": 27288, "implying": 20242, "asleep": 6680, "battleships": 21327, "[unused455]": 460, "forcefully": 23097, "queens": 8603, "336": 27954, "##ays": 22916, "stimuli": 22239, "generalized": 18960, "intimately": 29024, "crotch": 28629, "##eson": 21421, "gospel": 8036, "reward": 10377, "##bb": 10322, "policies": 6043, "\u9ad8": 1981, "##gat": 20697, "tracts": 22069, "operated": 3498, "##eth": 11031, "[unused607]": 612, "exercise": 6912, "turner": 6769, "sentenced": 7331, "pictorial": 28304, "criminals": 12290, "scoop": 23348, "succeeded": 4594, "##icides": 22698, "cap": 6178, "limiting": 14879, "jonah": 15617, "##oia": 25463, "ridiculous": 9951, "nix": 23330, "505": 28952, "##tze": 23102, "are": 2024, "copper": 6967, "anton": 9865, "edouard": 21627, "ornate": 18099, "sima": 26769, "electrification": 23679, "stubborn": 14205, "possibility": 6061, "\u6728": 1875, "hindus": 18221, "sheila": 15062, "earliest": 5700, "affect": 7461, "west": 2225, "##mal": 9067, "cu": 12731, "students": 2493, "##inium": 27585, "##\u116e": 30014, "standards": 4781, "marin": 16400, "\u5dff": 1837, "##lge": 28875, "##eet": 15558, "##eem": 21564, "palatine": 22202, "advising": 23875, "##aya": 12186, "165": 13913, "[unused221]": 226, "##rator": 16259, "##dor": 7983, "collaborated": 8678, "date": 3058, "clapton": 24705, "app": 10439, "ronin": 29249, "##lands": 8653, "spruce": 19893, "elegance": 27745, "brat": 28557, "\u3059": 1658, "##\u00b1": 29657, "counts": 9294, "loss": 3279, "tapping": 15135, "prostitution": 15016, "sensing": 13851, "mack": 11349, "median": 3991, "locally": 7246, "sparta": 21251, "corners": 8413, "identifiable": 27800, "embark": 28866, "supervising": 21238, "voters": 7206, "##lized": 28931, "drug": 4319, "ridden": 15230, "types": 4127, "spa": 12403, "[unused214]": 219, "marquette": 24223, "weeks": 3134, "sachs": 22818, "template": 23561, "1704": 27769, "sparkled": 28092, "rid": 9436, "##\u0646": 15915, "##hawk": 17998, "far": 2521, "##esian": 25253, "mia": 8764, "[unused43]": 44, "uta": 28981, "1979": 3245, "##oons": 27174, "##oon": 7828, "sparkle": 26831, "appropriations": 22713, "packet": 14771, "ff": 21461, "candidates": 5347, "fries": 22201, "nobody": 6343, "##mona": 21781, "aryan": 26030, "omar": 13192, "poured": 8542, "evidence": 3350, "\u0916": 1316, "choreography": 16967, "2019": 10476, "monograph": 24039, "##\u0433": 29741, "popularity": 6217, "##essed": 23656, "awarding": 21467, "jane": 4869, "julie": 7628, "asean": 27974, "##nare": 26148, "losses": 6409, "ascension": 18071, "rugged": 17638, "cognition": 26497, "spade": 23288, "heaving": 23907, "x": 1060, "bombing": 8647, "gallery": 3916, "##lass": 27102, "##fus": 25608, "planned": 3740, "humming": 20364, "drying": 17462, "cluster": 9324, "lever": 15929, "overhaul": 18181, "##haus": 13821, "mccoy": 16075, "##im": 5714, "##\u308a": 30212, "##pel": 11880, "\u03c0": 1170, "israelis": 28363, "eligible": 7792, "comic": 5021, "affiliates": 18460, "never": 2196, "lok": 13660, "##ddin": 18277, "##ther": 12399, "internally": 16058, "dawn": 6440, "vic": 10967, "##oot": 17206, "saxe": 24937, "blurred": 18449, "##\u0e40": 29959, "##\u0434": 29742, "reveals": 7657, "##sf": 22747, "##ep": 13699, "[unused679]": 684, "tilt": 17010, "##eles": 26741, "radial": 15255, "80": 3770, "[unused549]": 554, "##\u2016": 30054, "hearing": 4994, "adobe": 18106, "151": 16528, "shown": 3491, "##\u2030": 30065, "continuously": 10843, "atoll": 22292, "conversely": 18868, "transferred": 4015, "##estinal": 19126, "##\u30c8": 30240, "##eaux": 25639, "[unused274]": 279, "inspectors": 28421, "reduce": 5547, "streamlined": 29445, "1b": 26314, "toilets": 21674, "[unused352]": 357, "1783": 15331, "suppression": 16341, "fragmented": 26872, "maximal": 29160, "individually": 14258, "results": 3463, "gazes": 23514, "aiding": 24791, "overcome": 9462, "reclamation": 27389, "mild": 10256, "massage": 21881, "mixture": 8150, "##christ": 26654, "##\u624b": 30384, "\u0ba9": 1387, "thor": 15321, "1929": 4612, "##cliff": 27580, "xv": 15566, "##ma": 2863, "hypnotic": 28322, "socrates": 26772, "reilly": 13875, "stationary": 17337, "shafts": 20542, "##lam": 10278, "reminiscent": 14563, "1966": 3547, "1739": 25801, "shire": 13182, "kissing": 7618, "value": 3643, "##oi": 10448, "calderon": 28129, "\u30bf": 1709, "sequel": 8297, "clashes": 17783, "000": 2199, "##ja": 3900, "sibling": 22941, "##cano": 23803, "nellie": 25365, "mandy": 18193, "##zzling": 20838, "##cca": 16665, "##\u5fe0": 30378, "chopin": 25479, "youthful": 22446, "pulmonary": 21908, "norway": 5120, "haynes": 21805, "office": 2436, "shrill": 28349, "[unused108]": 113, "marc": 7871, "##ological": 10091, "1722": 26689, "peru": 7304, "evident": 10358, "##bers": 17198, "delaying": 29391, "employ": 12666, "query": 23032, "gesturing": 22317, "healer": 19783, "[unused363]": 368, "pagoda": 27387, "dressing": 11225, "markedly": 29295, "unlock": 19829, "jana": 23341, "appealing": 16004, "whereby": 13557, "older": 3080, "nehru": 23556, "referendum": 9782, "hiring": 14763, "oxford": 4345, "[unused493]": 498, "shipping": 7829, "audition": 14597, "134": 15170, "##dicated": 26022, "##ape": 24065, "prompted": 9469, "mussolini": 22554, "##brates": 25258, "circulating": 22458, "cyclone": 11609, "##gio": 11411, "##\u0e25": 29954, "\u2227": 1602, "##war": 9028, "diplomats": 23473, "hugely": 27564, "ascribed": 28025, "therapist": 19294, "customary": 16120, "talbot": 14838, "ge": 16216, "help": 2393, "distract": 15886, "##gaard": 18839, "##\u884c": 30471, "##naut": 24619, "organisms": 11767, "liberalism": 26505, "restoration": 6418, "fay": 23201, "slender": 10944, "struggles": 11785, "gandhi": 12338, "##gny": 19393, "##\u1175": 30019, "attracts": 17771, "##grave": 12830, "##iad": 28665, "esa": 28776, "identification": 8720, "locomotives": 7830, "\u30bb": 1708, "diagnosis": 11616, "concentrate": 10152, "divine": 7746, "##hid": 27511, "strasbourg": 18104, "##\u026c": 29687, "tae": 22297, "spike": 9997, "lamp": 10437, "bags": 8641, "\u98a8": 1977, "vanish": 25887, "q": 1053, "authority": 3691, "cai": 29080, "violation": 11371, "##ops": 11923, "shenzhen": 26555, "simulated": 23599, "swaying": 21826, "corresponds": 14788, "450": 10332, "[unused463]": 468, "\u0436": 1186, "##\u702c": 30431, "contrast": 5688, "vampire": 4393, "kilometer": 20595, "danzig": 26669, "drawing": 5059, "##wyl": 27740, "sri": 5185, "painful": 9145, "##minster": 24431, "viva": 20022, "indo": 11424, "flotilla": 17150, "troubled": 11587, "bat": 7151, "structurally": 29060, "carvings": 22838, "##\u201e": 30060, "skipper": 23249, "music": 2189, "1888": 6690, "seater": 23392, "subdivisions": 22095, "financed": 13790, "##\u0644": 23673, "bishopric": 20664, "orthodoxy": 26582, "##nig": 25518, "inspire": 18708, "surfaces": 9972, "peach": 18237, "booker": 16674, "\u0263": 1117, "dora": 21008, "##\u0254": 29679, "onset": 14447, "\u0927": 1326, "leslie": 8886, "##su": 6342, "aquarium": 18257, "oblivious": 18333, "silvery": 21666, "international": 2248, "delle": 24121, "beginning": 2927, "##cuit": 28168, "gotta": 10657, "advocating": 20324, "##fera": 27709, "##iente": 25099, "saint": 3002, "hearts": 8072, "1861": 6863, "pistols": 18248, "man": 2158, "bray": 19743, "ivo": 28346, "##ogo": 22844, "rook": 28620, "##ecin": 28191, "triggering": 29170, "spain": 3577, "54th": 29570, "\u7f8e": 1935, "stride": 18045, "odyssey": 18735, "eduardo": 14846, "185": 15376, "recycled": 22207, "##gam": 22864, "resources": 4219, "jesse": 7627, "##koff": 26126, "##\u2229": 30131, "fictional": 7214, "delilah": 23006, "cannon": 8854, "##isson": 24077, "haifa": 21303, "##aar": 26526, "##gi": 5856, "grand": 2882, "##eke": 23941, "imitation": 20017, "db": 16962, "eliminating": 15349, "impression": 8605, "errors": 10697, "hammering": 27883, "##\u30a6": 30222, "rigid": 11841, "iran": 4238, "departmental": 28912, "baked": 17776, "utility": 9710, "decides": 7288, "drafted": 7462, "leeds": 7873, "##zel": 12638, "nightmare": 10103, "capturing": 11847, "##sworth": 12255, "\u0989": 1350, "meteor": 23879, "reproduced": 22296, "survey": 5002, "vince": 12159, "perceived": 8690, "adam": 4205, "trainers": 21992, "unaffected": 24720, "directing": 9855, "lightly": 8217, "dubois": 26258, "##\u2022": 30063, "forcing": 6932, "ufo": 24321, "##mbs": 29232, "vietnamese": 9101, "viz": 26619, "psychiatrist": 18146, "riding": 5559, "makes": 3084, "cartoon": 9476, "##lizer": 28863, "openly": 10132, "electromagnetic": 17225, "jill": 10454, "prequel": 28280, "\u3089": 1685, "hostilities": 17601, "##\u306f": 30198, "space": 2686, "1774": 17593, "forewings": 13211, "nbl": 28013, "##weight": 11179, "##dgets": 28682, "1685": 25053, "witness": 7409, "cords": 24551, "civil": 2942, "##das": 8883, "magic": 3894, "sanders": 12055, "soothing": 16684, "##channel": 26058, "cache": 17053, "contact": 3967, "##\u20a9": 30101, "sprung": 22057, "1776": 13963, "##bell": 17327, "larsen": 20094, "artisans": 26818, "##\u4f1a": 30289, "exposing": 14944, "fraud": 9861, "ip": 12997, "server": 8241, "vargas": 20556, "##art": 8445, "enslaved": 22216, "warner": 6654, "beetles": 14538, "reagan": 11531, "bangs": 28490, "specifications": 15480, "##yn": 6038, "torches": 24711, "'": 1005, "junction": 5098, "fixed": 4964, "wreck": 12006, "immersion": 27013, "wigan": 15598, "exhaled": 16242, "stark": 9762, "\u063a": 1289, "calmly": 12885, "4": 1018, "materialized": 27075, "##yra": 19563, "gain": 5114, "bender": 25386, "lds": 17627, "korean": 4759, "##tro": 13181, "##jevic": 26782, "inside": 2503, "comparing": 13599, "lotus": 13030, "##ick": 6799, "cayman": 26164, "deadline": 15117, "freshly": 20229, "\u0621": 1269, "pneumonia": 18583, "paths": 10425, "paste": 19351, "pursed": 21954, "##\u03b1": 14608, "silvio": 28107, "volcano": 12779, "unexpectedly": 14153, "charleston": 10907, "exclude": 23329, "##tel": 9834, "alexander": 3656, "rosemary": 18040, "dumped": 14019, "intercollegiate": 21587, "airs": 14369, "subtly": 28797, "surreal": 16524, "firm": 3813, "hillside": 18573, "blaze": 15347, "[unused366]": 371, "ill": 5665, "##itarian": 25691, "mono": 18847, "##ional": 19301, "chassis": 11832, "taylor": 4202, "##ham": 3511, "persuaded": 11766, "authorization": 20104, "flashing": 12659, "11": 2340, "prisoner": 7267, "accord": 15802, "##je": 6460, "af": 21358, "hide": 5342, "pinnacle": 26007, "skyla": 21738, "yale": 7996,
[...]
