{"billboard": 4908, "\u96c4": 1974, "cincinnati": 7797, "huff": 21301, "##de": 3207, "poems": 5878, "eleven": 5408, "naming": 10324, "planned": 3740, "diversion": 20150, "##felt": 26675, "snap": 10245, "lviv": 23814, "editing": 9260, "entity": 9178, "moldova": 16772, "1892": 6527, "##evsky": 27015, "davidson": 12017, "##vers": 14028, "indifferent": 24436, "##ricted": 20623, "tennessee": 5298, "peruvian": 15432, "inequality": 16440, "338": 27908, "1000": 6694, "##ovich": 12303, "curses": 23897, "##w": 2860, "chopped": 24881, "mounds": 19503, "occult": 27906, "martial": 7761, "anastasia": 19447, "fury": 8111, "communion": 15661, "mustard": 23187, "yellowstone": 29231, "hacker": 23307, "segments": 9214, "embroidery": 29507, "##\u0570": 29775, "brooks": 8379, "ra": 10958, "oliver": 6291, "density": 4304, "prefect": 19402, "output": 6434, "[unused150]": 155, "achieve": 6162, "1920s": 6641, "stanley": 6156, "retirement": 5075, "##iot": 25185, "\u8a01": 1949, "[unused284]": 289, "249": 23628, "ashton": 13772, "curving": 21439, "##ome": 8462, "havana": 15278, "wii": 16568, "boats": 6242, "solemnly": 26294, "pennsylvania": 3552, "dye": 18554, "executive": 3237, "broadband": 19595, "##meric": 25531, "fraudulent": 27105, "1880": 6756, "##pants": 27578, "##nant": 16885, "edison": 17046, "philipp": 20765, "vulture": 27588, "dioxide": 14384, "absently": 21284, "liberties": 18271, "musee": 18070, "heartland": 27399, "partnership": 5386, "berry": 10498, "##\u539f": 30313, "##bright": 26614, "detected": 11156, "\u0454": 1212, "rockets": 12496, "javier": 13824, "##pc": 15042, "nephew": 7833, "garlic": 20548, "includes": 2950, "withstand": 19319, "identifies": 14847, "##py": 7685, "swollen": 13408, "alphabet": 12440, "##tative": 27453, "fender": 19028, "tripoli": 21841, "##\u093e": 29876, "##wley": 20609, "aleppo": 22973, "shining": 9716, "flynn": 13259, "proud": 7098, "##stones": 29423, "nils": 27282, "theatrical": 8900, "physics": 5584, "##turn": 22299, "v8": 15754, "tucking": 25056, "distinctions": 25995, "quivering": 26012, "novels": 6002, "merritt": 26701, "patient": 5776, "scramble": 25740, "##\u6751": 30404, "portray": 17279, "residential": 5647, "\u79c0": 1928, "hands": 2398, "sequel": 8297, "punt": 18975, "ripe": 22503, "\u967d": 1973, "supervisor": 12366, "afro": 17694, "penelope": 18641, "[unused450]": 455, "hub": 9594, "handcuffs": 28338, "dependency": 24394, "##tz": 5753, "gymnasium": 11288, "mated": 28795, "1916": 4947, "groundbreaking": 23222, "##tling": 15073, "##ization": 3989, "dimly": 25361, "etienne": 16821, "drinking": 5948, "gift": 5592, "companion": 7452, "receipt": 24306, "1993": 2857, "abc": 5925, "alive": 4142, "##\u1d50": 30038, "lashed": 25694, "lanka": 7252, "olympiad": 25225, "warming": 12959, "braced": 15515, "compliance": 12646, "##eti": 20624, "inputs": 20407, "wakefield": 16045, "taiwan": 6629, "decatur": 27783, "document": 6254, "bullets": 10432, "fascination": 18987, "promote": 5326, "winchester": 12841, "tone": 4309, "hindi": 9269, "straighten": 28568, "concepts": 8474, "guantanamo": 23094, "jurisdiction": 7360, "beads": 17530, "##\u826f": 30464, "##une": 9816, "medallist": 28595, "1612": 29186, "##urities": 29366, "[unused42]": 43, "suburbs": 9435, "peer": 8152, "jersey": 3933, "epoch": 25492, "[unused506]": 511, "salman": 28542, "##llon": 22179, "splitting": 14541, "locate": 12453, "##ris": 6935, "parish": 3583, "sentences": 11746, "##camp": 26468, "hunts": 28526, "multi": 4800, "asks": 5176, "march": 2233, "aft": 16638, "twentieth": 9086, "rumored": 22710, "spacious": 22445, "sparks": 12300, "tough": 7823, "gazed": 11114, "outdoor": 7254, "persistent": 14516, "conventional": 7511, "graphs": 19287, "william": 2520, "##tails": 22081, "reprise": 16851, "thinner": 23082, "arc": 8115, "\u0f66": 1436, "holds": 4324, "vaccine": 17404, "##gic": 12863, "factions": 13815, "[unused638]": 643, "heirs": 15891, "umpire": 20887, "\u6751": 1878, "\u0993": 1352, "aesthetics": 20749, "##*": 29621, "act": 2552, "veto": 22102, "##imate": 21499, "##dge": 11818, "felipe": 17095, "\u898b": 1948, "envy": 21103, "involves": 7336, "awaiting": 15497, "moons": 23377, "darkening": 27862, "##ih": 19190, "##board": 6277, "1861": 6863, "strongest": 10473, "despised": 26626, "##\u53f2": 30316, "restore": 9239, "bringing": 5026, "swear": 8415, "basins": 22739, "neighbours": 14754, "chromosomes": 26874, "collins": 6868, "airfields": 25278, "technician": 16661, "##jean": 27687, "##uram": 27618, "northern": 2642, "284": 26871, "bart": 12075, "employs": 13495, "bolivia": 11645, "decks": 19963, "\u0282": 1129, "crescent": 13152, "director": 2472, "volcanoes": 23694, "##dget": 24291, "luisa": 25412, "##tish": 24788, "acquisitions": 19530, "[unused787]": 792, "attractions": 13051, "##ivate": 21466, "ceremony": 5103, "binoculars": 29549, "contractual": 27948, "remnant": 19614, "preschool": 23655, "basilica": 13546, "centro": 18120, "1906": 5518, "automobiles": 19207, "[unused894]": 899, "drugs": 5850, "[unused663]": 668, "tb": 26419, "onset": 14447, "lacrosse": 13488, "upland": 25770, "##pate": 17585, "announcement": 8874, "evans": 6473, "activation": 13791, "provider": 10802, "##bo": 5092, "\u7fa9": 1936, "unfair": 15571, "##nsky": 25655, "apical": 29197, "crystal": 6121, "uncovered": 14486, "options": 7047, "##\u00bf": 29666, "beneath": 4218, "worthless": 22692, "##\u7537": 30438, "strasbourg": 18104, "79": 6535, "##tta": 5946, "adoption": 9886, "vibrations": 22755, "`": 1036, "##roller": 26611, "\u6e05": 1903, "rosie": 15820, "handheld": 27291, "760": 24643, "##gold": 21270, "conservative": 4603, "squinting": 29156, "##\u99ac": 30506, "secular": 10644, "celeste": 21113, "consumer": 7325, "gymnast": 25055, "nilsson": 29376, "##hei": 26036, "##pps": 28281, "awakening": 16936, "rutherford": 18472, "##acious": 20113, "##rr": 12171, "revealing": 8669, "sizes": 10826, "[unused551]": 556, "##ines": 10586, "##heim": 8049, "196": 20035, "praying": 14488, "[unused939]": 944, "iron": 3707, "exterior": 8829, "defines": 11859, "tumbling": 21552, "mixture": 8150, "peasant": 14539, "trevor": 8672, "singles": 3895, "hillside": 18573, "to": 2000, "##folding": 21508, "naive": 15743, "[unused83]": 84, "devout": 26092, "readers": 8141, "##25": 17788, "valentine": 10113, "##chel": 15721, "sponsored": 6485, "##psy": 18075, "##rard": 25561, "turin": 13667, "##bri": 23736, "[unused940]": 945, "irrigation": 12442, "flourished": 17893, "italianate": 25302, "amtrak": 20208, "##cr": 26775, "plenty": 7564, "taxpayer": 26980, "andrei": 18125, "##nan": 7229, "voice": 2376, "aqueduct": 24016, "mis": 28616, "ignited": 22395, "wellesley": 25658, "brig": 16908, "seek": 6148, "croatian": 7963, "##js": 22578, "[unused601]": 606, "consecrated": 12299, "nepali": 23418, "reviewing": 15252, "rhetoric": 17871, "[unused158]": 163, "centenary": 17705, "stocked": 24802, "##ffer": 12494, "linking": 11383, "mala": 28935, "apocalypse": 16976, "melinda": 23721, "255": 20637, "sequential": 25582, "noteworthy": 19144, "##oc": 10085, "ives": 23945, "domestically": 27143, "floppy": 28491, "new": 2047, "satisfied": 8510, "treating": 12318, "balloon": 13212, "##alo": 23067, "demands": 7670, "generations": 8213, "##anga": 18222, "packers": 15285, "[unused896]": 901, "##\u062b": 29818, "entirely": 4498, "galician": 28830, "unfamiliar": 16261, "37th": 23027, "logistical": 28961, "castile": 15656, "wilfred": 26026, "registrar": 24580, "278": 24709, "410": 19151, "dan": 4907, "1920": 4444, "##tead": 14565, "communicate": 10639, "parrot": 22530, "feelings": 5346, "warmly": 22775, "dex": 20647, "auxiliary": 9830, "enrollment": 10316, "cork": 8513, "##\u9fb8": 30509, "clube": 24852, "squinted": 17425, "tucked": 9332, "allowing": 4352, "struggles": 11785, "listening": 5962, "mastery": 26364, "exaggerated": 16903, "##bation": 23757, "buzzing": 20386, "##\u1173": 30017, "temps": 29023, "sentence": 6251, "##ulously": 21227, "gunmen": 28932, "childless": 26983, "afar": 28978, "##\u5c1a": 30356, "stairwell": 22109, "conversation": 4512, "##rsa": 22381, "maia": 23478, "uttered": 20947, "avoiding": 9992, "[unused824]": 829, "\u0926": 1325, "##rcle": 21769, "inferno": 21848, "albans": 26311, "florida": 3516, "ocean": 4153, "bluegrass": 21286, "harry": 4302, "##physical": 23302, "##trix": 29184, "##yoshi": 19196, "tours": 7562, "##aby": 21275, "sachs": 22818, "recovering": 13400, "managerial": 24465, "rossi": 18451, "fault": 6346, "allotted": 23932, "split": 3975, "bust": 13950, "bobbed": 29579, "siblings": 9504, "##chio": 23584, "drills": 28308, "##pile": 22090, "##erie": 17378, "[unused513]": 518, "##thest": 20515, "bhp": 22245, "seville": 18983, "muttered": 6250, "trams": 19216, "gertrude": 18734, "\u8033": 1937, "respect": 4847, "communication": 4807, "slashed": 23587, "encounters": 11340, "seo": 27457, "der": 4315, "divorce": 8179, "offerings": 14927, "valley": 3028, "repeats": 17993, "##asurable": 28329, "safer": 13726, "##ghi": 28891, "warren": 6031, "presentation": 8312, "silvery": 21666, "coal": 5317, "professors": 12655, "\u8857": 1946, "exemplified": 28593, "##\u0f60": 29969, "applied": 4162, "##centric": 22461, "\u30db": 1722, "##\u30ea": 30258, "##dp": 18927, "concert": 4164, "seamen": 28671, "dempsey": 28165, "shareholders": 15337, "huddersfield": 19715, "serves": 4240, "teenagers": 12908, "cruise": 8592, "##23": 21926, "predators": 12630, "##vati": 20203, "enzo": 26218, "secession": 22965, "[unused759]": 764, "\u6d77": 1902, "\u0268": 1118, "##ty": 3723, "vanessa": 13226, "##zy": 9096, "somalia": 14717, "##\u6c11": 30418, "pressures": 15399, "election": 2602, "terminology": 18444, "outlet": 13307, "soaring": 23990, "hobart": 14005, "comets": 27138, "insignia": 16751, "exception": 6453, "parade": 7700, "utilities": 16548, "##aday": 28039, "alicia": 15935, "makers": 11153, "pollen": 22482, "meat": 6240, "veronica": 13133, "mutiny": 19306, "##bala": 25060, "rankings": 10385, "growls": 27825, "willing": 5627, "[unused712]": 717, "mickey": 11021, "mollusk": 13269, "economists": 22171, "habitat": 6552, "settler": 18556, "headed": 3753, "emancipation": 22656, "concluded": 5531, "intrigued": 18896, "sinks": 23462, "##\u00b3": 18107, "snuck": 24492, "[unused108]": 113, "mule": 20568, "##\u79cb": 30455, "absorption": 16326, "calhoun": 22982, "thoughts": 4301, "##\u0e15": 29947, "competence": 22219, "daytime": 12217, "have": 2031, "gershwin": 25600, "chilean": 12091, "ignorant": 21591, "leonardo": 14720, "motioned": 13054, "puddle": 25081, "schoolhouse": 26301, "routing": 16972, "delightful": 26380, "\u30ad": 1701, "namesake": 17283, "##orted": 15613, "rivals": 9169, "wireless": 9949, "pear": 28253, "blooms": 29037, "devotion": 13347, "##media": 16969, "jones": 3557, "incomes": 29373, "account": 4070, "allan": 8926, "gould": 14913, "##ess": 7971, "declared": 4161, "positively": 13567, "##\u00aa": 29653, "##\u0142a": 22972, "##hardt": 13778, "##uming": 24270, "##\u30ce": 30243, "[unused978]": 983, "placed": 2872, "##\u2077": 30076, "ist": 21541, "drastically": 21040, "causes": 5320, "bypass": 11826, "flinders": 29120, "grasp": 10616, "jumping": 8660, "requiring": 9034, "releases": 7085, "honour": 6225, "##\u0e17": 29948, "1953": 4052, "thump": 21324, "thrive": 25220, "leveled": 22915, "sara": 7354, "contention": 18974, "##resses": 25932, "pets": 18551, "aggressive": 9376, "chambers": 8477, "##the": 10760, "##\u5b9a": 30348, "airlift": 20019, "nationals": 10342, "marco": 8879, "cushion": 22936, "drafted": 7462, "yeomanry": 26883, "2014": 2297, "piston": 16733, "##\u0432": 25529, "schultz": 22378, "jem": 24193, "horizon": 9154, "##tag": 15900, "cues": 23391, "ivan": 7332, "reformed": 9114, "masonic": 21152, "perch": 21836, "sack": 12803, "##dhar": 25632, "##\u5cf6": 30359, "daughter": 2684, "[unused376]": 381, "intimately": 29024, "\u0f63": 1435, "##60": 16086, "roll": 4897, "phones": 11640, "champion": 3410, "thread": 11689, "institutions": 4896, "##ne": 2638, "baha": 13253, "lunch": 6265, "jury": 6467, "##ulating": 10924, "\u0932": 1334, "trade": 3119, "##\u5948": 30340, "chickens": 21868, "lucknow": 23571, "parana": 28383, "\u5cf6": 1833, "##ratic": 23671, "armenians": 20337, "adolescent": 20274, "linguistic": 12158, "canadians": 16485, "##harat": 28074, "himalayan": 28333, "##aur": 21159, "\u057a": 1233, "vamp": 20279, "##\u00a9": 29652, "##nier": 14862, "gambling": 12219, "##torium": 24390, "inner": 5110, "1757": 22621, "cheung": 22632, "##mada": 23574, "acquaintances": 29409, "##\u092e": 29867, "grasses": 21620, "##\u2014": 30052, "##usa": 10383, "##vio": 25500, "heart": 2540, "hyper": 23760, "robyn": 28047, "##rial": 14482, "oilers": 19778, "##nail": 25464, "suppliers": 20141, "noses": 27518, "##arns": 23549, "totally": 6135, "##all": 8095, "[unused327]": 332, "stacey": 19997, "##\u4e8b": 30277, "honor": 3932, "agricultural": 4910, "\u5ca1": 1832, "sequence": 5537, "jaguar": 16490, "transmitting": 23820, "baroness": 21479, "lesley": 23920, "\u9762": 1976, "beers": 18007, "arden": 26225, "flipping": 18497, "lucrative": 21115, "##oteric": 29112, "\u4ebb": 1757, "saying": 3038, "heinrich": 10952, "[unused771]": 776, "librarian": 13850, "extras": 26279, "495": 29302, "protectorate": 20394, "spectrum": 8674, "##chers": 21844, "isles": 14195, "##\u305b": 30185, "punishments": 29115, "211": 19235, "beverages": 21705, "francs": 24313, "omar": 13192, "leto": 24543, "proficient": 27029, "##mi": 4328, "persist": 29486, "cheryl": 19431, "convergence": 19143, "confiscated": 17182, "checking": 9361, "10": 2184, "193": 19984, "xinjiang": 25904, "##vc": 25465, "##kam": 27052, "survivors": 8643, "##hosh": 26643, "reliefs": 27670, "1873": 7612, "frenzy": 21517, "##ned": 7228, "affects": 13531, "siegel": 27996, "combo": 25025, "nineteenth": 9137, "1652": 28853, "movie": 3185, "[unused724]": 729, "impoverished": 25488, "yvonne": 21684, "smoothing": 27045, "each": 2169, "mckenna": 21749, "\u30fb": 1738, "lin": 11409, "fivb": 28423, "extremely": 5186, "##\u0938": 29874, "[unused808]": 813, "awoke": 19179, "newborn": 20662, "##sson": 7092, "obedience": 22645, "circuit": 4984, "##was": 17311, "shields": 11824, "\u53f2": 1790, "ham": 10654, "critical": 4187, "nun": 16634, "##\u5916": 30335, "##ages": 13923, "##ahu": 21463, "develops": 11791, "tour": 2778, "absorbed": 9063, "narrated": 17356, "ripple": 24644, "[unused143]": 148, "synthesizers": 22211, "explosives": 14792, "gps": 14658, "partial": 7704, "##\u30e7": 30256, "d": 1040, "244": 24194, "sweeps": 26981, "master": 3040, "dodd": 21258, "instrumentalist": 29253, "triple": 6420, "cause": 3426, "communicating": 20888, "##tub": 28251, "ode": 24040, "tiffany": 14381, "assassinated": 16370, "translating": 22969, "\u6238": 1857, "stomach": 4308, "##vision": 17084, "devon": 7614, "marsden": 29558, "##mart": 22345, "somewhat": 5399, "body": 2303, "differentiation": 20582, "participants": 6818, "realises": 25924, "reflects": 11138, "organist": 16397, "##\u304d": 30178, "burned": 5296, "280": 13427, "elusive": 26475, "na": 6583, "indications": 24936, "look": 2298, "verified": 20119, "lauren": 10294, "##abe": 16336, "malawi": 18137, "ngc": 27645, "generally": 3227, "[unused835]": 840, "##5": 2629, "consensus": 10465, "ce": 8292, "thrust": 7400, "husband": 3129, "wolfgang": 13865, "##urse": 28393, "vince": 12159, "smallpox": 25765, "stammered": 28532, "cemetery": 4528, "louis": 3434, "criminal": 4735, "ecstasy": 19069, "sheath": 21867, "dt": 26718, "list": 2862, "##aneous": 17191, "##amp": 16613, "blitz": 22312, "butte": 25024, "prefer": 9544, "tracing": 16907, "magdalena": 23984, "czechoslovak": 21282, "wharf": 16435, "serbian": 6514, "few": 2261, "logical": 11177, "bourne": 15803, "avoided": 9511, "retribution": 25928, "pie": 11345, "mingled": 25959, "##kla": 26086, "screening": 11326, "xiao": 19523, "busch": 15840, "reproduce": 21376, "##bot": 18384, "earnest": 17300, "barriers": 13500, "brought": 2716, "foliage": 19624, "threatens": 17016, "trophy": 5384, "aimed": 6461, "assisted": 7197, "sacred": 6730, "travers": 29053, "bathed": 24614, "\u4e3b": 1747, "briefs": 28760, "practitioners": 14617, "demonstrating": 14313, "customer": 8013, "valid": 9398, "troy": 9553, "rae": 14786, "##ffy": 16329, "marathon": 8589, "dolly": 19958, "jude": 12582, "hampstead": 29557, "##\u0bc1": 29933, "##ivism": 22486, "valentin": 24632, "\u76ee": 1918, "[unused428]": 433, "radically": 25796, "##dents": 28986, "radial": 15255, "##\u20ac": 30102, "[unused272]": 277, "persuade": 13984, "##pta": 22799, "su": 10514, "##iva": 11444, "reapers": 27733, "possibilities": 12020, "fanny": 17813, "##riety": 27840, "##ibe": 20755, "background": 4281, "ranger": 11505, "spinal": 16492, "\u0441": 1196, "literacy": 8433, "desirable": 16166, "loosely": 11853, "island": 2479, "belly": 7579, "##oto": 11439, "\u062e": 1277, "bows": 21207, "##ance": 6651, "##dda": 25062, "##\u0251": 29677, "enhanced": 9412, "grocery": 13025, "marian": 14042, "##vn": 16022, "unknown": 4242, "##rzburg": 29136, "\u064a": 1300, "1620": 24259, "\u6c11": 1892, "edwards": 7380, "##tar": 7559, "marek": 29318, "keyboard": 9019, "##khov": 25495, "140": 8574, "##sh": 4095, "tian": 23401, "disturbing": 14888, "mole": 16709, "harpsichord": 26504, "ported": 27650, "\u2218": 1599, "##ctric": 22601, "##\u0637": 29828, "coca": 16787, "##sner": 20479, "solved": 13332, "beef": 12486, "qu": 24209, "##rgy": 22637, "jenna": 13504, "vegetation": 10072, "1862": 6889, "might": 2453, "essendon": 25149, "\u05de": 1255, "choking": 18329, "scottish": 4104, "charity": 5952, "confront": 14323, "##+": 29622, "[unused145]": 150, "coliseum": 18338, "scar": 11228, "olivier": 14439, "##nage": 27031, "greens": 15505, "[unused18]": 19, "suzuki": 14278, "shaved": 20665, "##reate": 29313, "rights": 2916, "psycho": 18224, "##t": 2102, "diamond": 6323, "\u2084": 1551, "candy": 9485, "test": 3231, "vent": 18834, "entrusted": 18011, "eccentric": 18080, "modified": 6310, "\u539f": 1787, "confusion": 6724, "[unused174]": 179, "[unused563]": 568, "##hui": 20552, "##hampton": 21946, "steals": 15539, "vamps": 24064, "##\u300c": 30167, "justify": 16114, "680": 23944, "stony": 16104, "33rd": 20883, "obligation": 14987, "cho": 16480, "independents": 23756, "##oric": 29180, "sainte": 16947, "[unused658]": 663, "marguerite": 15334, "tombstone": 26671, "whenever": 7188, "noel": 10716, "nominations": 9930, "pillow": 10005, "heavier": 11907, "marriages": 12743, "api": 17928, "manufacturing": 5814, "pisa": 25472, "##\u8033": 30463, "monsieur": 21380, "##kat": 24498, "turned": 2357, "levi": 11902, "worse": 4788, "forts": 15421, "maris": 23787, "##inating": 19185, "commuted": 26704, "[unused359]": 364, "sold": 2853, "[unused861]": 866, "divinity": 16968, "\u2093": 1563, "allegro": 25319, "intersect": 29261, "sichuan": 20980, "nintendo": 10022, "vaulted": 24616, "appealed": 12068, "nevertheless": 6600, "##yman": 17906, "[unused916]": 921, "morality": 16561, "percy": 11312, "equality": 9945, "latitude": 15250, "storms": 12642, "##irus": 26013, "go": 2175, "\u00bb": 1090, "masovian": 23703, "elk": 18995, "##roi": 26692, "modules": 14184, "waivers": 28654, "vc": 18315, "homer": 11525, "##tr": 16344, "##puri": 24661, "enforce": 16306, "##ut": 4904, "##\u0bb2": 29928, "prisons": 15996, "warriors": 6424, "art": 2396, "featured": 2956, "1866": 7647, "coil": 17085, "##\u9580": 30494, "failure": 4945, "thereafter": 6920, "##kov": 7724, "ma": 5003, "octopus": 24318, "crowd": 4306, "exercised": 17747, "occupying": 13992, "addition": 2804, "crippled": 24433, "##uting": 20807, "##overs": 24302, "bit": 2978, "today": 2651, "polish": 3907, "iso": 11163, "##\u0281": 29694, "horton": 18469, "communes": 16569, "hailed": 16586, "lennox": 21060, "##shire": 7430, "assistant": 3353, "vh1": 26365, "##onzo": 29452, "butterflies": 15023, "\u79cb": 1929, "##zard": 26154, "stabbed": 13263, "skip": 13558, "fishery": 22880, "bargain": 17113, "pauline": 15595, "feeding": 8521, "timed": 22313, "ser": 14262, "##ayo": 28852, "[unused602]": 607, "\u53e4": 1789, "upper": 3356, "stone": 2962, "##zone": 15975, "[unused487]": 492, "beamed": 22587, "[unused558]": 563, "##ran": 5521, "smacked": 19203, "scratches": 25980, "hazy": 26710, "##dened": 24589, "##nick": 13542, "\u4e0b": 1743, "##hong": 19991, "strangled": 21384, "250": 5539, "gesturing": 22317, "##promising": 25013, "martyr": 17216, "interceptor": 24727, "##ity": 3012, "##tya": 21426, "differentiated": 24374, "highlights": 11637, "signaled": 22319, "1888": 6690, "johann": 8968, "##oke": 11045, "##eon": 10242, "adapt": 15581, "shine": 12342, "cat": 4937, "sought": 4912, "attache": 29489, "crook": 19302, "beaten": 7854, "enactment": 26465, "[unused801]": 806, "raids": 11217, "constructive": 26157, "[unused464]": 469, "##bolic": 18647, "gb": 16351, "sue": 9790, "cerambycidae": 13168, "li": 5622, "editors": 10195, "subjective": 20714, "renowned": 8228, "loves": 7459, "columbus": 8912, "hopper": 20517, "requirements": 5918, "parochial": 28773, "shang": 29382, "##venting": 26703, "weep": 27874, "pegasus": 26606, "##sch": 11624, "ash": 6683, "[unused139]": 144, "##acies": 20499, "goaltender": 21437, "420": 17442, "22": 2570, "##rized": 18425, "##wr": 13088, "focusing": 7995, "flashes": 16121, "michelangelo": 27701, "##gingly": 28392, "chandra": 16469, "zeus": 15208, "eric": 4388, "cedric": 26170, "parameters": 11709, "bone": 5923, "[unused979]": 984, "romance": 7472, "[unused167]": 172, "starboard": 25211, "elliptical": 27213, "[unused761]": 766, "rebound": 27755, "upheld": 16813, "possessed": 8679, "[unused21]": 22, "telenovela": 25754, "##\u0252": 29678, "consists": 3774, "abdullah": 14093, "##chet": 20318, "##pine": 19265, "shipping": 7829, "sprang": 15627, "ama": 25933, "consistency": 18700, "talent": 5848, "clones": 24418, "##nessy": 25441, "upgrading": 25925, "##vir": 21663, "analyze": 17908, "1834": 10700, "email": 10373, "gallons": 18501, "baby": 3336, "bennett": 8076, "function": 3853, "bookstore": 21785, "1995": 2786, "bro": 22953, "dockyard": 24874, "1761": 21364, "leased": 12019, "prescribed": 16250, "knots": 9439, "valuation": 26004, "abigail": 15983, "\u0e2a": 1420, "items": 5167, "leans": 12671, "threats": 8767, "region": 2555, "164": 17943, "\u21d2": 1591, "appointments": 14651, "scanned": 11728, "colton": 21000, "fixed": 4964, "sioux": 16615, "homicide": 18268, "supplied": 8127, "popularly": 16071, "##rona": 26788, "\u305b": 1659, "##lizer": 28863, "rational": 11581, "compilation": 6268, "romney": 19615, "##aton": 22436, "sustaining": 22663, "##olved": 16116, "pam": 14089, "hasty": 27151, "lukas": 23739, "reliance": 17975, "##mide": 24284, "jp": 16545, "bureaucracy": 25934, "periodic": 15861, "##sos": 17063, "twists": 21438, "translations": 11913, "concordia": 24982, "##\u02c8": 29715, "##\u7ae0": 30458, "saliva": 26308, "##\u0bb5": 29930, "convenience": 15106, "##going": 26966, "edward": 3487, "forgotten": 6404, "[unused439]": 444, "defected": 26330, "cambodia": 12899, "\u884c": 1945, "shredded": 29022, "\u0274": 1124, "missiles": 10815, "##vating": 26477, "typhoon": 15393, "47": 4700, "emery": 24294, "1840": 8905, "[UNK]": 100, "##buch": 25987, "irresistible": 27149, "curtain": 11002, "[unused111]": 116, "hysteria": 29004, "1713": 27016, "ariel": 16126, "mcnamara": 28340, "denominations": 17384, "##ila": 11733, "perry": 6890, "teasing": 12216, "##thal": 24090, "sammy": 14450, "unions": 9209, "1752": 24736, "##ists": 5130, "mcdonnell": 23149, "skulls": 21542, "##ud": 6784, "##lous": 15534, "\u00a31": 14534, "commands": 10954, "doi": 9193, "installed": 5361, "##akh": 27573, "klein": 12555, "fabian": 21174, "him": 2032, "watch": 3422, "recommendation": 12832, "sway": 17812, "boring": 11771, "##odies": 27391, "disturb": 22995, "neighbor": 11429, "glint": 25263, "refugees": 8711, "trailer": 9117, "tobacco": 9098, "rouse": 27384, "##udence": 29424, "bubba": 19606, "rapids": 12775, "addressed": 8280, "haunt": 24542, "prayed": 14283, "joshua": 9122, "usc": 15529, "korean": 4759, "domed": 29208, "spores": 23763, "anticipated": 11436, "hertfordshire": 18889, "##sius": 24721, "relating": 8800, "seeds": 8079, "levy": 12767, "drugged": 25483, "correspondent": 11370, "rope": 8164, "randomly": 18154, "##tes": 4570, "sun": 3103, "cactus": 23265, "lambda": 23375, "textiles": 18762, "nominees": 17853, "sponge": 25742, "hits": 4978, "regan": 16964, "##lag": 17802, "responding": 14120, "barry": 6287, "herb": 12810, "superior": 6020, "so": 2061, "##lastic": 28723, "\u028b": 1133, "trustee": 13209, "\u1d63": 1508, "wise": 7968, "##vara": 24516, "rode": 8469, "midlands": 13256, "##\u694a": 30409, "bump": 16906, "\u09c7": 1381, "##ctors": 24817, "mcgregor": 23023, "forgetting": 17693, "clamped": 18597, "distance": 3292, "basics": 24078, "completes": 28123, "lettering": 25782, "woody": 13703, "##ses": 8583, "##\u1d64": 30044, "##unce": 17457, "edged": 13011, "ljubljana": 21588, "enforced": 16348, "textual": 25304, "xx": 22038, "dwelling": 13160, "fatigue": 16342, "punish": 16385, "cleveland": 6044, "likely": 3497, "##zow": 22670, "shielded": 25474, "secretly": 10082, "already": 2525, "royal": 2548, "enjoys": 15646, "\u5dde": 1836, "[unused887]": 892, "transporting": 18276, "[unused309]": 314, "##vered": 25896, "lifelong": 13506, "june": 2238, "rearview": 28726, "teddy": 11389, "##\u2011": 30049, "bibliography": 24751, "##usions": 22016, "38": 4229, "##ule": 9307, "\u1d2e": 1491, "##\u5289": 30303, "colours": 8604, "donnie": 28486, "decrees": 28966, "##ulum": 25100, "muddy": 15405, "particular": 3327, "##ays": 22916, "leaned": 4016, "try": 3046, "clermont": 27956, "lighting": 7497, "young": 2402, "classical": 4556, "festival": 2782, "remark": 17674, "hounds": 27772, "multiple": 3674, "juliet": 13707, "385": 24429, "graph": 10629, "whisper": 7204, "landowners": 20152, "[unused221]": 226, "trying": 2667, "predator": 15267, "##\u25cf": 30146, "mellon": 22181, "spun": 7455, "clusters": 12906, "palermo": 18705, "##eva": 13331, "dorothy": 9984, "suez": 21974, "frontiers": 28750, "chris": 3782, "donnell": 18016, "##\u8279": 30465, "nicholls": 27043, "##balls": 18510, "google": 8224, "ronald": 8923, "capture": 5425, "bosnian": 16163, "##kian": 28545, "swedish": 4467, "recovery": 7233, "whitish": 16800, "[unused41]": 42, "synthesized": 23572, "180": 8380, "[unused375]": 380, "inclination": 21970, "##hic": 16066, "cambodian": 24417, "dude": 12043, "differ": 11234, "##rret": 27032, "mag": 23848, "##bee": 11306, "##koff": 26126, "powers": 4204, "pioneers": 13200, "240": 11212, "cult": 8754, "dental": 11394, "rudy": 18254, "lea": 12203, "notified": 19488, "\u2297": 1613, "[unused384]": 389, "pamela": 17217, "admit": 6449, "##\u00b1": 29657, "quasi": 17982, "lodge": 7410, "waters": 5380, "ingram": 23231, "banished": 21319, "[unused224]": 229, "stories": 3441, "##ogen": 23924, "chapters": 9159, "smash": 15132, "##lyn": 9644, "environmental": 4483, "comparing": 13599, "montane": 21704, "paul": 2703, "ceo": 5766, "\u0e40": 1423, "peek": 19043, "clothed": 24963, "##tland": 19270, "##g": 2290, "ceasefire": 26277, "marx": 13518, "accompanied": 5642, "bags": 8641, "breathless": 16701, "sorts": 11901, "antigen": 28873, "narration": 21283, "hubbard": 16580, "bethany": 16559, "myspace": 24927, "job": 3105, "1750": 18171, "##ark": 17007, "violinist": 16609, "grimaced": 19014, "calcutta": 13419, "##phic": 17926, "yellowish": 17804, "knelt": 12804, "buckinghamshire": 21712, "[unused159]": 164, "[unused903]": 908, "##nging": 22373, "mcintosh": 29052, "processing": 6364, "##moor": 17622, "attaining": 26615, "##\u092c": 29865, "researchers": 6950, "confronting": 26964, "[unused409]": 414, "spaceship": 25516, "slicing": 26514, "illustrating": 28252, "barrel": 8460, "##\u2218": 30126, "deposited": 14140, "satisfaction": 9967, "fen": 21713, "[unused348]": 353, "wolverine": 22162, "franz": 8965, "english": 2394, "overseas": 6931, "dal": 17488, "casts": 23942, "1748": 24445, "##ira": 7895, "asked": 2356, "estuary": 18056, "##bon": 11735, "granddaughter": 12787, "1896": 6306, "tang": 9745, "suggesting": 9104, "97": 5989, "det": 20010, "amp": 23713, "##\u203f": 30069, "##2": 2475, "ritter": 23168, "mccormick": 23213, "##isa": 14268, "implies": 12748, "cynthia": 15809, "elise": 14251, "undergoing": 14996, "docking": 25776, "##rton": 11715, "accelerated": 14613, "samurai": 16352, "dhabi": 23153, "gaston": 18572, "fade": 12985, "freeman": 11462, "symphonic": 18957, "##bla": 28522, "copenhagen": 9664, "demolished": 7002, "guadalupe": 23529, "horned": 26808, "difference": 4489, "gala": 16122, "##or": 2953, "##qu": 28940, "##nally": 26827, "sebastian": 6417, "##oney": 17791, "questions": 3980, "##ans": 6962, "physiology": 16127, "sudbury": 26487, "yao": 23711, "bees": 13734, "##crat": 23185, "novelty": 21160, "toronto": 4361, "incidents": 10444, "mercury": 8714, "stuff": 4933, "dairy": 11825, "ventures": 13252, "memory": 3638, "##turing": 16037, "traversed": 27797, "dowry": 29603, "barrett": 12712, "\u09a7": 1365, "advantages": 12637, "carries": 7883, "##rey": 15202, "##\u3008": 30163, "declare": 13520, "##ager": 17325, "212": 18164, "crowns": 24364, "veins": 9607, "bid": 7226, "stables": 16232, "jerked": 8245, "[unused687]": 692, "accuracy": 10640, "agreed": 3530, "##ter": 3334, "programme": 4746, "##\u043a": 23925, "printed": 6267, "scala": 26743, "##dar": 7662, "[unused13]": 14, "suffered": 4265, "princeton": 9173, "##\u571f": 30327, "rwanda": 17591, "magnet": 16853, "##\u305d": 30186, "stones": 6386, "##\u1d9c": 30046, "loud": 5189, "rap": 9680, "princess": 4615, "##mes": 7834, "georgetown": 12982, "##anza": 16076, "gym": 9726, "generators": 16937, "trainers": 21992, "bulb": 20581, "anthropology": 12795, "european": 2647, "kit": 8934, "yen": 18371, "tully": 25724, "[unused362]": 367, "gonzales": 24334, "frog": 10729, "trait": 18275, "##oku": 21940, "tri": 13012, "locality": 10246, "##\u5206": 30301, "1816": 12357, "crested": 25413, "##\u6cd5": 30427, "##lau": 17298, "savoy": 16394, "forestry": 13116, "##lars": 28695, "##_": 29638, "outbreak": 8293, "gypsy": 16006, "##bert": 8296, "norte": 19931, "##ered": 6850, "facebook": 9130, "glided": 26936, "\u2098": 1567, "chatting": 22331, "ds": 16233, "produced": 2550, "popular": 2759, "chao": 22455, "obviously": 5525, "notorious": 12536, "seminole": 28909, "##nto": 13663, "sculpture": 6743, "tolerance": 13986, "bud": 13007, "charities": 15430, "someone": 2619, "##roids": 29514, "##foil": 24323, "##\u11bc": 30025, "[unused246]": 251, "[unused19]": 20, "vanish": 25887, "got": 2288, "checkpoint": 26520, "beyond": 3458, "[unused213]": 218, "##hy": 10536, "##iously": 19426, "summit": 6465, "shan": 17137, "distressed": 24305, "troubled": 11587, "afb": 16909, "scared": 6015, "barn": 8659, "##bility": 8553, "\u25a0": 1617, "disgusted": 17733, "##hl": 7317, "dirty": 6530, "purge": 24694, "rebuilding": 14584, "##tsk": 29064, "##taro": 28160, "##enham": 23580, "##logram": 24915, "menace": 19854, "##pro": 21572, "##\u09a7": 29901, "claire": 6249, "flirting": 20661, "##jou": 23099, "pounding": 9836, "arguments": 9918, "sexes": 21024, "relevance": 21923, "banners": 23562, "fauna": 15018, "artefacts": 25762, "balanced": 12042, "##ined": 21280, "paula": 13723, "recent": 3522, "scales": 9539, "##rdan": 26992, "injuries": 6441, "dwarf": 11229, "cannes": 14775, "106": 10114, "##oted": 27428, "abdul": 10298, "none": 3904, "convent": 10664, "sweeney": 21178, "##anor": 27869, "reelection": 17648, "nicolas": 9473, "column": 5930, "\u2193": 1586, "##boot": 27927, "prematurely": 28179, "thru": 27046, "buddy": 8937, "samba": 29086, "\u0459": 1215, "long": 2146, "humor": 8562, "cochrane": 22329, "1788": 15622, "clasped": 16763, "##aud": 19513, "sediments": 20476, "kylie": 9008, "##wk": 26291, "100": 2531, "##mann": 5804, "smart": 6047, "premiered": 5885, "##nology": 21020, "cavern": 16679, "##lver": 26229, "laude": 21602, "professorship": 22661, "parole": 17393, "encountered": 8567, "grade": 3694, "archers": 23118, "1807": 13206, "arms": 2608, "coloring": 22276, "contributed": 5201, "extent": 6698, "##lch": 29358, "helps": 7126, "maui": 28566, "poets": 9736, "power": 2373, "finally": 2633, "##\u044c": 23742, "hacking": 23707, "genetic": 7403, "encourages": 16171, "rumble": 15658, "andre": 7213, "[unused715]": 720, "run": 2448, "muscle": 6740, "##ksha": 28132, "her": 2014, "countdown": 18144, "progress": 5082, "blacksmith": 20987, "\u2500": 1615, "\u091c": 1319, "\u09bf": 1379, "advancing": 10787, "studying": 5702, "##ok": 6559, "rush": 5481, "obligations": 14422, "phantom": 11588, "displaced": 12936, "lan": 17595, "cast": 3459, "newark": 12948, "dignity": 13372, "apart": 4237, "##eries": 28077, "kota": 23856, "sindh": 20284, "fees": 9883, "elected": 2700, "fleets": 25515, "poland": 3735, "endowed": 19038, "loaded": 8209, "arising": 17707, "lineman": 24062, "##cape": 19464, "strangers": 12358, "\u3092": 1690, "whitley": 27007, "##\u05d3": 29791, "signs": 5751, "exemption": 19621, "##\u3063": 30189, "##s": 2015, "walden": 24834, "##\u30e1": 30252, "[unused765]": 770, "infiltrate": 29543, "reagan": 11531, "operated": 3498, "somerset": 9198, "paralyzed": 22348, "multiplied": 28608, "tender": 8616, "submit": 12040, "grill": 18651, "vanished": 9955, "##rick": 11285, "til": 18681, "addresses": 11596, "decade": 5476, "##wee": 28394, "havre": 28890, "wyatt": 12986, "##cise": 18380, "vivid": 14954, "wreckage": 21056, "designations": 26672, "##bach": 7693, "constable": 12294, "contest": 5049, "wagons": 14525, "motives": 17108, "admiration": 17005, "\u1d3a": 1494, "desperately": 9652, "##dly": 18718, "bragg": 23678, "bet": 6655, "mana": 24951, "##amps": 25167, "represents": 5836, "##\u026c": 29687, "overshadowed": 28604, "##oting": 20656, "chalmers": 29069, "[unused453]": 458, "nelly": 29498, "creaked": 28068, "tell": 2425, "odds": 10238, "[unused172]": 177, "shower": 6457, "[unused203]": 208, "containing": 4820, "straw": 13137, "##tled": 14782, "skylar": 27970, "converse": 23705, "whipped": 12428, "modifications": 12719, "fang": 15197, "[unused17]": 18, "shimmering": 22349, "1891": 6607, "##gb": 18259, "right": 2157, "coral": 11034, "daisy": 10409, "financially": 13732, "mendez": 28950, "##cloth": 23095, "earls": 27371, "jumped": 5598, "##ality": 23732, "##rath": 27362, "\u307f": 1678, "buenos": 9204, "stack": 9991, "[unused366]": 371, "dynamics": 10949, "bend": 8815, "visuals": 26749, "lie": 4682, "[unused956]": 961, "empirical": 17537, "waterways": 21938, "[unused202]": 207, "deng": 26957, "rover": 13631, "spared": 16891, "claims": 4447, "[unused130]": 135, "##eki": 26576, "widowed": 22874, "disrepair": 27799, "##year": 29100, "vibrated": 27801, "leonard": 7723, "spontaneous": 17630, "wellington": 8409, "nancy": 7912, "bats": 12236, "viewing": 10523, "350": 8698, "nh": 18699, "trickle": 26027, "conceded": 15848, "yun": 22854, "\u09ae": 1370, "georgie": 20280, "nassau": 14646, "##werk": 29548, "sense": 3168, "approaching": 8455, "##kh": 10023, "\u0b9a": 1383, "descend": 18855, "licensing": 13202, "##rosis": 29166, "appearances": 3922, "frontman": 21597, "brody": 19631, "purity": 18433, "\u0bb2": 1392, "forcibly": 20951, "electronic": 4816, "jillian": 27286, "stop": 2644, "difficult": 3697, "rochelle": 25649, "save": 3828, "generator": 13103, "ecole": 12431, "conditioning": 14372, "##orough": 26388, "boiling": 16018, "buttons": 11287, "\u30b1": 1703, "##ception": 24422, "conclude": 16519, "belle": 9852, "teaches": 12011, "adi": 27133, "splash": 17624, "1930s": 5687, "suited": 10897, "jeremiah": 17526, "priest": 5011, "##lices": 29146, "marched": 9847, "\u00aa": 1076, "1923": 4927, "cadets": 15724, "wings": 4777, "sevens": 19463, "fabricated": 24212, "ko": 12849, "deny": 9772, "firm": 3813, "reliable": 10539, "commonplace": 27550, "thwarted": 28409, "##tin": 7629, "empty": 4064, "[unused263]": 268, "twisted": 6389, "humid": 14178, "1849": 9037, "shane": 8683, "commenting": 15591, "basalt": 26343, "founder": 3910, "\u592a": 1812, "useless": 11809, "with": 2007, "##buro": 23670, "lexie": 24123, "suicide": 5920, "fisher": 8731, "lily": 7094, "##tone": 5524, "township": 3545, "casey": 9036, "meeting": 3116, "riddle": 21834, "##waite": 29601, "aback": 26575, "presenting": 10886, "256": 17273, "oriented": 8048, "\u2248": 1606, "launched": 3390, "condemning": 28525, "user": 5310, "1662": 25909, "palestinians": 21524, "textbook": 16432, "brightest": 26849, "##orum": 20527, "peters": 12420, "##\u21a6": 30116, "pizza": 10733, "##gr": 16523, "[unused747]": 752, "blouse": 18149, "enveloped": 25407, "lithium": 22157, "##position": 26994, "\u306b": 1668, "kade": 26159, "maternity": 23676, "semitic": 20604, "plague": 11629, "##ovic": 9142, "song": 2299, "peru": 7304, "cosmos": 21182, "maxwell": 10691, "##\u0993": 29888, "##lay": 8485, "proxy": 24540, "##tek": 23125, "\u2282": 1610, "valve": 10764, "patti": 22732, "##et": 3388, "alam": 26234, "itf": 27682, "exit": 6164, "salad": 16521, "\u540c": 1794, "planets": 11358, "ucla": 12389, "drilled": 24311, "allegiance": 14588, "##wari": 20031, "\u7cf9": 1934, "trillion": 23458, "dupont": 22848, "competes": 14190, "upon": 2588, "chu": 14684, "##xious": 25171, "mill": 4971, "stabbing": 21690, "bradford": 9999, "theresa": 14781, "54": 5139, "american": 2137, "cain": 11557, "[unused819]": 824, "##imus": 19315, "##itated": 15198, "##ifying": 11787, "ventral": 23420, "##rar": 19848, "patron": 9161, "\u10e0": 1451, "\u5948": 1814, "afforded": 22891, "lifestyle": 9580, "43rd": 25747, "263": 25246, "melting": 13721, "usher": 20774, "##\u5343": 30310, "bean": 14068, "muscular": 13472, "herr": 23506, "##mism": 26725, "holmes": 9106, "unsuitable": 25622, "lund": 21860, "mil": 23689, "welch": 17939, "clashed": 22600, "conditions": 3785, "saigon": 24001, "antioch": 19078, "uniquely": 20640, "own": 2219, "[unused312]": 317, "mason": 6701, "manfred": 19149, "certificates": 17987, "drains": 18916, "adler": 17969, "pressured": 25227, "crack": 8579, "amber": 8994, "commandant": 15254, "##\u0621": 29815, "800": 5385, "\u5e1d": 1838, "paint": 6773, "lynne": 26938, "##logies": 21615, "but": 2021, "thoroughbred": 18359, "mist": 11094, "##ulation": 9513, "rack": 14513, "rockefeller": 16696, "containment": 29174, "arson": 24912, "##nos": 15460, "##im": 5714, "poll": 8554, "[unused122]": 127, "orthodoxy": 26582, "anand": 18887, "rig": 19838, "ricardo": 13559, "sergeant": 6722, "emigrated": 11367, "angled": 18756, "excused": 28512, "##mat": 18900, "chapter": 3127, "exceeded": 14872, "ex": 4654, "ottoman": 6188, "kensington": 17775, "whereupon": 26090, "stair": 23788, "socket": 22278, "regrets": 23161, "stryker": 25429, "holiness": 27692, "##\u7248": 30433, "ill": 5665, "[unused779]": 784, "39th": 22702, "childhood": 5593, "products": 3688, "resembling": 15525, "oxidation": 19577, "independently": 9174, "toward": 2646, "judge": 3648, "jackie": 9901, "##bians": 26376, "populated": 10357, "movements": 5750, "nebraska": 8506, "racism": 14398, "stress": 6911, "disputes": 11936, "inherited": 7900, "\u5206": 1775, "##uising": 28580, "##usion": 14499, "van": 3158, "##ave": 10696, "sanchez": 10568, "westward": 15165, "charismatic": 23916, "francois": 8173, "batted": 12822, "racers": 25791, "ashland": 24346, "bedrock": 28272, "mansions": 26842, "[unused40]": 41, "##ckey": 29183, "schumann": 29448, "##\uff0c": 30515, "admits": 14456, "bancroft": 29351, "hike": 21857, "manufacture": 9922, "behave": 16582, "\u09b9": 1377, "imagination": 9647, "advisors": 18934, "champs": 29008, "sniffed": 18013, "acting": 3772, "flat": 4257, "inactive": 16389, "petra": 20953, "pissed": 9421, "coarse": 20392, "hind": 17666, "ore": 10848, "degree": 3014, "470": 21064, "peptide": 25117, "##inian": 15830, "nocturnal": 23789, "greater": 3618, "preferences": 18394, "chennai": 12249, "30": 2382, "writes": 7009, "graf": 22160, "##ks": 5705, "posting": 14739, "blaze": 15347, "gerry": 14926, "[unused480]": 485, "trip": 4440, "shone": 14707, "1844": 9730, "exposing": 14944, "southland": 29121, "weimar": 20695, "walled": 17692, "canceled": 13261, "archibald": 15917, "library": 3075, "recipe": 17974, "##hee": 21030, "christians": 8135, "##(": 29619, "successfully": 5147, "app": 10439, "also": 2036, "##\u300f": 30170, "statements": 8635, "saxe": 24937, "screenwriter": 11167, "oblique": 20658, "inaccurate": 24949, "##omo": 19506, "sutherland": 14274, "##bag": 16078, "clad": 13681, "landscapes": 12793, "fission": 27521, "tampa": 9925, "guangdong": 21287, "##mount": 20048, "fresco": 26991, "motorsport": 21044, "misconduct": 23337, "urdu": 12454, "beneficial": 15189, "34": 4090, "sons": 4124, "former": 2280, "blow": 6271, "##zz": 13213, "yusuf": 23495, "##wes": 18192, "consolidation": 17439, "ought": 11276, "##day": 10259, "cr": 13675, "hastily": 15789, "stimulated": 25194, "fia": 19807, "superstructure": 28391, "lands": 4915, "visually": 17453, "##parts": 26950, "1653": 29309, "inference": 28937, "[unused716]": 721, "regimes": 25228, "stalls": 19753, "sorcerer": 23324, "evolved": 7964, "##dgets": 28682, "normandy": 13298, "##\u043d\u0430": 19865, "trunks": 20509, "##oration": 21223, "your": 2115, "jammu": 21433, "29": 2756, "writing": 3015, "rainy": 16373, "monitor": 8080, "inquisition": 24638, "sterile": 25403, "widely": 4235, "promoting": 7694, "coffee": 4157, "boulder": 13264, "##card": 11522, "hunting": 5933, "gamble": 18503, "altitude": 7998, "spilled": 13439, "ways": 3971, "duchy": 11068, "ricky": 11184, "liverpool": 6220, "baseman": 18038, "##owski": 15249, "stroking": 14943, "softness": 27012, "florence": 7701, "coherent": 18920, "cantor": 26519, "savings": 10995, "##plin": 28296, "chopper": 28057, "volunteered": 14382, "dutton": 28784, "progression": 14967, "sleep": 3637, "murray": 6264, "##sser": 18116, "lack": 3768, "[unused586]": 591, "breach": 12510, "##connected": 24230, "classmates": 19846, "packages": 14555, "councillor": 10674, "dozen": 6474, "##dicate": 16467, "##hom": 23393, "ga": 11721, "##bin": 8428, "##lk": 13687, "56": 5179, "throat": 3759, "organizers": 18829, "torres": 13101, "goran": 28356, "appreciate": 9120, "feminine": 12320, "##tern": 16451, "tv": 2694, "pending": 14223, "respectively": 4414, "ascension": 18071, "value": 3643, "##neck": 18278, "pdf": 11135, "libya": 12917, "rr": 25269, "greeted": 11188, "berger": 16758, "sic": 14387, "tina": 11958, "dane": 14569, "spotting": 27963, "turkic": 22926, "erratic": 24122, "pickup": 15373, "##pass": 15194, "flyer": 23821, "shouts": 15701, "wanna": 10587, "families": 2945, "makes": 3084, "icc": 16461, "stalker": 23883, "portland": 6734, "accordion": 19060, "kyoto": 15008, "[unused103]": 108, "always": 2467, "locking": 14889, "delaware": 8452, "abs": 14689, "liter": 23675, "_": 1035, "##\u02bf": 29714, "##vert": 16874, "aggression": 14974, "frown": 11330, "[unused299]": 304, "rbis": 23583, "aquarium": 18257, "physician": 7522, "bidding": 17534, "pillows": 17860, "##\u2248": 30133, "sprint": 9043, "colour": 6120, "yawned": 27626, "mundo": 25989, "fairness": 26935, "collin": 22180, "defined": 4225, "narrator": 11185, "##uddin": 17375, "##eaux": 25639, "bundled": 24378, "created": 2580, "\u306a": 1667, "rotting": 22005, "trucks": 9322, "[unused961]": 966, "23": 2603, "beer": 5404, "aisles": 25442, "##gent": 11461, "##ith": 8939, "desires": 14714, "dub": 12931, "robson": 23698, "vein": 12818, "esa": 28776, "confronted": 12892, "predecessors": 16372, "demand": 5157, "##ites": 7616, "limousine": 28012, "orderly": 23589, "giggle": 17565, "broke": 3631, "leukemia": 25468, "important": 2590, "credited": 5827, "grande": 9026, "##chemical": 15869, "track": 2650, "\u044f": 1210, "primate": 25662, "##kle": 19099, "seminary": 8705, "jj": 29017, "annapolis": 24889, "cameroon": 13841, "##jn": 22895, "interpretations": 15931, "civic": 8388, "hobby": 17792, "subsistence": 27667, "perpetrators": 27675, "il": 6335, "##\u3042": 30172, "remodeled": 27170, "scientist": 7155, "howled": 27489, "##berry": 9766, "topology": 19587, "ancient": 3418, "fall": 2991, "need": 2342, "disappears": 17144, "##eptive": 22048, "occurring": 10066, "gangster": 20067, "actor": 3364, "\u0582": 1238, "fjord": 26158, "recipients": 15991, "elliot": 11759, "##led": 3709, "##zin": 17168, "mouths": 15076, "##water": 5880, "augusto": 29085, "insult": 15301, "closure": 8503, "remote": 6556, "kramer": 16322, "kgb": 25467, "##ra": 2527, "next": 2279, "##orus": 21694, "sultan": 7544, "cello": 10145, "##ht": 11039, "##enne": 24336, "exited": 15284, "wiggled": 26750, "raven": 10000, "##\u09af": 29907, "revisited": 24354, "vents": 28287, "specials": 19247, "##ifiers": 28295, "##\u0bbe": 29931, "minimal": 10124, "essen": 29032, "mirage": 21483, "\u30fc": 1739, "summer": 2621, "dramatic": 6918, "peck": 18082, "unavailable": 20165, "##lio": 12798, "shots": 7171, "marin": 16400, "##\u2084": 17004, "horrified": 14603, "lobbying": 19670, "jing": 21536, "faye": 19243, "auditorium": 11448, "coastal": 5780, "eased": 10987, "1623": 29056, "##dation": 20207, "##dent": 16454, "##outs": 12166, "including": 2164, "geraldine": 26987, "donation": 13445, "##4th": 26724, "##oma": 9626, "##ari": 8486, "##jevic": 26782, "##uge": 22890, "device": 5080, "dangers": 16796, "\u9593": 1969, "clary": 13145, "##iensis": 27806, "reorganization": 17118, "learnt": 20215, "my": 2026, "casually": 13217, "syracuse": 11736, "shaft": 9093, "conversions": 25834, "##\u5927": 30336, "crow": 11465, "[unused461]": 466, "\u05ea": 1267, "mexico": 3290, "investments": 10518, "fowler": 14990, "garbage": 13044, "1760": 19096, "talk": 2831, "ballistic": 19630, "injunction": 22928, "ste": 26261, "utter": 14395, "lehman": 28444, "##lane": 20644, "nests": 17415, "dismantled": 17293, "apocalyptic": 27660, "fugitive": 21329, "supervision": 10429, "forum": 7057, "numbers": 3616, "dubai": 11558, "presence": 3739, "church": 2277, "leverage": 21155, "uniting": 26112, "spain": 3577, "ren": 14916, "margaret": 5545, "keith": 6766, "##chang": 22305, "hardware": 8051, "conception": 13120, "crossing": 5153, "dogg": 28844, "decor": 25545, "cooks": 26929, "##\u026b": 29686, "##haw": 14238, "##chase": 26300, "green": 2665, "\u10d4": 1442, "##ic": 2594, "princes": 12000, "\u6728": 1875, "thigh": 10120, "natalie": 10829, "directing": 9855, "sanjay": 29590, "invading": 17657, "physicist": 13702, "stripping": 23987, "down": 2091, "unchanged": 15704, "personally": 7714, "badge": 10780, "bs": 18667, "[unused909]": 914, "neoclassical": 22657, "maggie": 8538, "nicola": 17388, "##ually": 28488, "##listic": 27348, "spirituality": 21244, "dividing": 16023, "folding": 12745, "portals": 27388, "##drome": 29171, "savior": 24859, "huey": 29503, "wrap": 10236, "judging": 13325, "leiden": 20329, "billie": 18210, "buddha": 11903, "product": 4031, "been": 2042, "##\u116e": 30014, "##ture": 11244, "pension": 11550, "werewolves": 18306, "frustrating": 25198, "##won": 19291, "math": 8785, "##mack": 26945, "##cb": 27421, "debated": 15268, "diminished": 15911, "adorable": 23677, "absorbing": 20998, "photos": 7760, "link": 4957, "stylistic": 24828, "hearth": 22885, "te": 8915, "\u2078": 1542, "condor": 29260, "generic": 12391, "core": 4563, "automation": 19309, "ambiguous": 20080, "papers": 4981, "led": 2419, "transmission": 6726, "malabar": 28785, "##bbly": 24200, "guidance": 8606, "athens": 7571, "overthrow": 16857, "lana": 16554, "##chy": 11714, "kari": 27356, "cot": 26046, "attended": 3230, "fidelity": 22625, "turkey": 4977, "waterfalls": 24236, "dining": 7759, "##zai": 25290, "suggests": 6083, "525": 25621, "pas": 14674, "tuition": 15413, "aztec": 25245, "hostilities": 17601, "1824": 11617, "reaper": 19559, "##neer": 19755, "presumed": 14609, "\u4e0d": 1744, "hurriedly": 23878, "algorithms": 13792, "liberia": 18039, "##ocating": 27483, "ethical": 12962, "accounting": 9529, "thoughtful": 16465, "eighth": 5964, "inexpensive": 23766, "sip": 10668, "brennan": 13962, "[unused713]": 718, "bye": 9061, "spies": 16794, "ballet": 7250, "##ism": 2964, "waterloo": 13784, "1570": 28881, "granting": 15080, "199": 20713, "renewable": 13918, "1872": 7572, "raises": 13275, "batavia": 28917, "chip": 9090, "##founded": 21001, "inquiry": 9934, "seventeenth": 15425, "sighted": 19985, "variations": 8358, "milwaukee": 9184, "trolls": 27980, "##rit": 14778, "shetland": 25552, "gig": 15453, "stunts": 28465, "outstretched": 21059, "galveston": 26630, "clenched": 8555, "andersen": 18308, "##rna": 12789, "##hay": 24180, "medicine": 4200, "paused": 5864, "rte": 20375, "trick": 7577, "clicked": 13886, "##mos": 15530, "##chi": 5428, "girlfriends": 27408, "merger": 7660, "theoretically": 22634, "##vance": 21789, "figuring": 23218, "democracy": 7072, "hanson": 17179, "sharing": 6631, "bombardier": 29143, "nicely": 19957, "rides": 12271, "clocks": 20940, "grossed": 17500, "[unused326]": 331, "##rring": 18807, "babylonian": 26990, "monuments": 10490, "concessions": 20638, "spa": 12403, "uptown": 28539, "meyrick": 15228, "beforehand": 25828, "principle": 6958, "1300": 19527, "[unused922]": 927, "[unused422]": 427, "naughty": 20355, "days": 2420, "term": 2744, "pockets": 10306, "1977": 3355, "employed": 4846, "write": 4339, "##grave": 12830, "heaven": 6014, "romano": 22070, "sufi": 21845, "sensory": 16792, "##fen": 18940, "clara": 10254, "sega": 16562, "surgical": 11707, "vital": 8995, "##fire": 10273, "hold": 2907, "brushing": 12766, "lawyer": 5160, "\u7701": 1920, "douglass": 27485, "royalties": 25335, "lopez": 8685, "sailed": 7434, "announces": 17472, "inscription": 9315, "##\u2099": 19110, "pushes": 13956, "choirs": 24743, "pianos": 27864, "forks": 19896, "raged": 28374, "localities": 19664, "##ingdon": 29138, "reconstruction": 8735, "dioceses": 26586, "carla": 17081, "orb": 19607, "##bbing": 23200, "##hism": 23108, "disappear": 10436, "verve": 29230, "manifold": 19726, "406": 27433, "\u85e4": 1944, "comedians": 25119, "societe": 18341, "amusement": 9778, "[unused900]": 905, "illuminating": 27816, "closing": 5494, "finnish": 6983, "mcbride": 18958, "basis": 3978, "vertices": 18984, "exclusion": 15945, "uss": 7234, "xl": 28712, "handgun": 28497, "##qing": 19784, "irregularities": 28868, "##mbs": 29232, "fearing": 14892, "ports": 8831, "hymns": 17777, "##nting": 24360, "sebastien": 28328, "vaccines": 28896, "rat": 9350, "##raz": 20409, "sami": 17015, "intact": 10109, "166": 18610, "cebu": 23312, "yamamoto": 28318, "\u3084": 1682, "repeating": 15192, "morocco": 9835, "haydn": 25595, "effect": 3466, "cables": 15196, "cockpit": 13828, "challenging": 10368, "foods": 9440, "northward": 17192, "umbrella": 12977, "medication": 14667, "fortunes": 18023, "feng": 19004, "tracts": 22069, "##utus": 23998, "catfish": 23723, "neighbors": 10638, "\u4ee3": 1760, "analyst": 12941, "tamara": 21772, "fielding": 15452, "##fies": 14213, "##beck": 12750, "packet": 14771, "scarlett": 20862, "##\u90ce": 30484, "binding": 8031, "##hine": 14014, "adds": 9909, "alexandria": 10297, "legendary": 8987, "##\u624b": 30384, "urges": 23876, "[unused683]": 688, "prosecuted": 21651, "citadel": 15364, "slightest": 15989, "dragoons": 28069, "hedge": 17834, "bravery": 16534, "analyses": 16478, "maxi": 21510, "submerged": 13563, "midsummer": 28171, "##iche": 17322, "##mate": 8585, "##garh": 13484, "activated": 8878, "daniel": 3817, "##oof": 21511, "recorded": 2680, "division": 2407, "accepting": 10564, "ks": 29535, "##o": 2080, "forsyth": 29434, "##yck": 28377, "beau": 17935, "##war": 9028, "##chule": 20269, "pushed": 3724, "wish": 4299, "teens": 13496, "##lic": 10415, "##channel": 26058, "##uin": 20023, "##izations": 22318, "1742": 25704, "recognise": 17614, "ll": 2222, "doherty": 23798, "colder": 21399, "month": 3204, "italy": 3304, "\u308c": 1688, "##written": 15773, "##oko": 16366, "libre": 21091, "##iques": 19516, "commissions": 13239, "comrades": 19033, "bosch": 25936, "abuse": 6905, "zoo": 9201, "herd": 14906, "substances": 13978, "[unused155]": 160, "uno": 27776, "resided": 12427, "yielding": 21336, "##ading": 23782, "##lov": 14301, "notices": 14444, "ric": 26220, "damages": 12394, "factual": 25854, "1611": 28769, "petersburg": 8062, "wiped": 8342, "dwellers": 28857, "prone": 13047, "locus": 25206, "binds": 20817, "##\u3059": 30184, "brasil": 21133, "liquidation": 28763, "wednesday": 9317, "homemade": 25628, "##lusion": 24117, "amalgamation": 21968, "clifton": 16271, "hollywood": 5365, "deemed": 8357, "##aha": 23278, "percival": 27832, "brandon": 8825, "##uls": 28426, "empowered": 26480, "padre": 28612, "rican": 13641, "##rer": 14544, "rio": 5673, "##\u2088": 30084, "edmund": 9493, "fingered": 28842, "finer": 26954, "##house": 4580, "alias": 14593, "malay": 12605, "masculine": 14818, "racks": 27259, "##tify": 27351, "guts": 18453, "hall": 2534, "association": 2523, "global": 3795, "wages": 12678, "bowl": 4605, "affirmative": 27352, "alaska": 7397, "uci": 14504, "weaken": 23021, "anhalt": 27088, "caledonia": 19305, "insane": 9577, "salford": 23001, "presents": 7534, "waiter": 15610, "##\u00fe": 29670, "##\u3048": 30175, "##bbon": 27684, "##way": 4576, "comes": 3310, "truman": 15237, "##erative": 25284, "swiss": 5364, "resisted": 13335, "lovely": 8403, "cardinal": 7185, "counterparts": 14562, "canned": 27141, "nile": 15179, "entrance": 4211, "catering": 18640, "##ves": 6961, "\u0b95": 1382, "massacre": 9288, "stadium": 3346, "tariffs": 26269, "bharatiya": 24243, "acronym": 20137, "shapes": 10466, "requested": 7303, "##ication": 21261, "##real": 22852, "adding": 5815, "internet": 4274, "sabah": 22515, "[unused237]": 242, "flemish": 15427, "bring": 3288, "bree": 21986, "aground": 29406, "kills": 8563, "ashok": 28916, "rumor": 19075, "converted": 4991, "riff": 24808, "lunar": 11926, "antibiotics": 24479, "building": 2311, "navigation": 9163, "jaws": 16113, "##aries": 12086, "connecticut": 6117, "##vos": 19862, "##ecure": 29150, "##ssa": 11488, "##ek": 5937, "53": 5187, "[unused792]": 797, "murdering": 21054, "simpler": 16325, "##\u2096": 30094, "##\u05dd": 29800, "asylum": 11386, "opium": 21075, "1692": 28622, "congressional": 7740, "##nted": 14706, "##\u2191": 30112, "preoccupied": 23962, "audit": 15727, "##cased": 28969, "subject": 3395, "##rella": 21835, "physiological": 19389, "prowess": 26120, "harald": 20966, "courses": 5352, "##edly": 26207, "antennae": 28624, "##roving": 22046, "##text": 18209, "mart": 20481, "method": 4118, "mechanisms": 10595, "pawn": 19175, "established": 2511, "153": 16710, "nasser": 26099, "hue": 20639, "scotia": 9676, "raise": 5333, "county": 2221, "grateful": 8794, "##fa": 7011, "##\u0458": 29761, "fra": 25312, "depended": 17292, "wound": 6357, "handing": 13041, "pixels": 27725, "##eve": 18697, "[unused2]": 3, "##rou": 22494, "donor": 15009, "horrors": 22812, "compiler": 21624, "jack": 2990, "significantly": 6022, "##illon": 20343, "vinegar": 29387, "zion": 19999, "role": 2535, "1711": 28455, "##git": 23806, "persona": 16115, "restrained": 19868, "bike": 7997, "freshman": 10452, "grabbing": 9775, "##dice": 24598, "aqua": 28319, "cdc": 26629, "recurring": 10694, "##hausen": 13062, "episodes": 4178, "##nac": 18357, "fraction": 12884, "hari": 21291, "retains": 14567, "tissue": 8153, "peel": 14113, "offices": 4822, "##\u03c5": 29735, "handball": 12378, "prosecutors": 19608, "honduras": 14373, "engulfed": 24692, "##path": 15069, "##cted": 10985, "[unused277]": 282, "clergyman": 22232, "##torm": 20654, "mia": 8764, "portsmouth": 10913, "police": 2610, "[unused420]": 425, "raked": 22438, "\u05d6": 1247, "wrought": 18481, "##hae": 25293, "##ides": 8621, "trembling": 10226, "rabbi": 7907, "##el": 2884, "tt": 23746, "torches": 24711, "reacts": 27325, "morgan": 5253, "jonah": 15617, "160": 8148, "lobster": 27940, "##ovo": 16059, "twilight": 13132, "##tia": 10711, "johanna": 21498, "##ffen": 18032, "iraqi": 8956, "someday": 13834, "##fb": 26337, "resignation": 8172, "##bria": 21556, "hussein": 16543, "vacant": 10030, "analyzed": 16578, "inscriptions": 12920, "paralysis": 26287, "##rio": 9488, "mediterranean": 7095, "degradation": 16627, "sensations": 21378, "rebecca": 9423, "nutrition": 14266, "headmaster": 16296, "##\u2227": 30129, "##\u03b7\u03c2": 29155, "traumatic": 19686, "uefa": 6663, "dee": 9266, "kent": 5982, "##eger": 26320, "tuberculosis": 15877, "##yra": 19563, "copied": 15826, "##cock": 13959, "must": 2442, "target": 4539, "49th": 25726, "foreigners": 15040, "##\u306f": 30198, "\u1d30": 1492, "##hett": 28499, "debra": 28762, "constituent": 13794, "[unused748]": 753, "toxic": 11704, "##pins": 27915, "assaulted": 17536, "collaborate": 20880, "sunni": 18883, "##nock": 18057, "prototype": 8773, "betray": 20895, "flowed": 13230, "echoing": 17142, "alleged": 6884, "##eet": 15558, "hurricane": 7064, "##\u00bd": 13714, "trading": 6202, "balcony": 11673, "zen": 16729, "kindergarten": 11793, "##diment": 21341, "howe": 13358, "##rina": 11796, "claudio": 19569, "busted": 23142, "##falls": 28067, "##eck": 11012, "##oked": 23461, "##ced": 11788, "incorporates": 12374, "motionless": 19917, "profoundly": 28089, "rare": 4678, "hectares": 9076, "contra": 24528, "discrimination": 9147, "##tort": 25485, "tailored": 21727, "care": 2729, "solar": 5943, "measure": 5468, "forge": 15681, "stand": 3233, "shoulders": 4065, "pathetic": 17203, "##ima": 9581, "stevenson": 13636, "konrad": 22958, "rattle": 23114, "compelling": 17075, "crowded": 10789, "crouched": 14275, "##viere": 27087, "kurdistan": 23627, "##nish": 24014, "barges": 27712, "portugal": 5978, "402": 28048, "1902": 5774, "pulitzer": 17618, "pedersen": 27409, "##vent": 15338, "scope": 9531, "##cens": 19023, "##pol": 18155, "##pio": 22071, "cheekbones": 27181, "\u30a6": 1696, "deposit": 12816, "reluctantly": 11206, "##\u0434": 29742, "parc": 27985, "##boat": 11975, "12th": 5940, "##ra\u00dfe": 27807, "stout": 18890, "##ope": 17635, "##runner": 23195, "lucky": 5341, "in": 1999, "dedicated": 4056, "culture": 3226, "structures": 5090, "hiking": 13039, "colonization": 18962, "starr": 14330, "tighter": 12347, "jaya": 24120, "##ellant": 24178, "met": 2777, "grimsby": 24470, "gable": 13733, "deutsche": 11605, "##\u02bb": 29711, "##quay": 25575, "seminar": 18014, "fined": 16981, "goodbye": 9119, "##point": 8400, "criticisms": 19628, "cardiff": 10149, "batter": 23801, "crucial": 10232, "showdown": 24419, "beheaded": 28923, "demeanor": 21745, "ship": 2911, "##rao": 25667, "jericho": 17309, "order": 2344, "howie": 28211, "##\u5ca1": 30358, "attacking": 7866, "pol": 14955, "##\u2089": 30085, "withdrawal": 10534, "robinson": 6157, "tuning": 17372, "amendment": 7450, "depictions": 20818, "##ren": 7389, "control": 2491, "[unused889]": 894, "##\u5408": 30318, "giggling": 21783, "##rdial": 25070, "strides": 22215, "distorted": 19112, "evolutionary": 12761, "enjoyed": 5632, "issuing": 15089, "intensive": 11806, "beta": 8247, "##gau": 20420, "cara": 14418, "##how": 14406, "\u05d7": 1248, "decline": 6689, "judiciary": 14814, "instances": 12107, "##poulos": 24662, "wonder": 4687, "wwii": 25755, "lectured": 19206, "injected": 19737, "##lism": 28235, "events": 2824, "refueling": 23026, "companies": 3316, "molded": 27992, "sections": 5433, "##ees": 10285, "lucie": 28831, "shoes": 6007, "ton": 10228, "likewise": 10655, "hole": 4920, "c1": 27723, "curator": 13023, "##mbling": 29256, "##monium": 26387, "##lwyn": 29287, "##smith": 21405, "aaron": 7158, "compressor": 29329, "fortunate": 19590, "##tream": 25379, "bass": 3321, "\u1174": 1482, "##bird": 9001, "proven": 10003, "med": 19960, "gas": 3806, "stare": 6237, "trafficking": 11626, "[unused555]": 560, "explodes": 27583, "autobiography": 10828, "malibu": 29047, "chloe": 9318, "ft": 3027, "jean": 3744, "latest": 6745, "absolute": 7619, "mirrored": 22243, "raoul": 22063, "\u03c2": 1172, "prolific": 12807, "untouched": 22154, "sides": 3903, "narcotics": 27290, "##ddle": 20338, "##hita": 23935, "fuzzy": 18001, "##uous": 8918, "discomfort": 17964, "gordon": 5146, "##\u0e2d": 29957, "\u653f": 1860, "\u77f3": 1922, "runners": 7190, "##dna": 28911, "[unused394]": 399, "##rka": 22379, "cattle": 7125, "messengers": 28938, "individual": 3265, "alfa": 22989, "pulsing": 23139, "##wc": 16526, "##eza": 28640, "overgrown": 26433, "##bbs": 17226, "distances": 12103, "andrews": 9261, "arizona": 5334, "cindy": 15837, "kanye": 29270, "##hing": 12053, "doubling": 19383, "fore": 18921, "##\u0b9f": 29920, "oyster": 21480, "dans": 18033, "founding": 4889, "returns": 5651, "##pina": 26787, "substantive": 27737, "essex": 8862, "hurricanes": 17035, "transcribed": 26223, "##ference": 25523, "dialogues": 22580, "mba": 15038, "##ters": 7747, "freaks": 29526, "bland": 20857, "\u09a4": 1362, "aquatics": 26649, "embrace": 9979, "pitch": 6510, "tata": 23236, "memoir": 12558, "##\u03c0": 29731, "##tive": 6024, "supremacy": 22006, "von": 3854, "bared": 23485, "compete": 5566, "burnt": 11060, "##any": 19092, "measurement": 10903, "preserves": 18536, "tag": 6415, "##hp": 22269, "lang": 11374, "bottoms": 24196, "bill": 3021, "pen": 7279, "corruption": 7897, "\u03c4": 1174, "helmet": 10412, "##agger": 27609, "ideally": 28946, "screens": 12117, "objective": 7863, "scripture": 18919, "##houses": 15666, "barnet": 26864, "famous": 3297, "70": 3963, "mrs": 3680, "closely": 4876, "minority": 7162, "programmes": 8497, "\u5341": 1783, "yankees": 11081, "rogue": 12406, "upbeat": 27999, "##isms": 22556, "##cial": 13247, "minus": 15718, "trim": 12241, "sable": 23492, "grips": 24758, "##coming": 18935, "##yeh": 25673, "##\u5ddd": 30361, "fritz": 12880, "##we": 8545, "\u6c38": 1896, "somebody": 8307, "unlimited": 14668, "\u0252": 1111, "talked": 5720, "then": 2059, "motorcycle": 9055, "marcia": 22548, "lawsuits": 20543, "transatlantic": 26617, "accumulate": 27598, "overhaul": 18181, "##ide": 5178, "tank": 4951, "[unused3]": 4, "detectors": 25971, "southward": 22161, "##yan": 7054, "##gence": 17905, "trace": 7637, "brand": 4435, "psychedelic": 18147, "environmentally": 25262, "tehran": 13503, "snake": 7488, "discontinued": 8944, "nikita": 29106, "valued": 11126, "katrina": 16864, "lasers": 23965, "292": 25797, "[unused5]": 6, "command": 3094, "myanmar": 12620, "vector": 9207, "emergency": 5057, "selected": 3479, "##dh": 16425, "##adan": 26335, "outright": 13848, "indoor": 7169, "methodist": 8938, "highest": 3284, "m3": 29061, ":": 1024, "heats": 18559, "##dorff": 26559, "nepal": 8222, "##aj": 13006, "signed": 2772, "##zle": 29247, "##\u090f": 29850, "sculptures": 10801, "##gol": 24141, "instead": 2612, "nara": 27544, "tasting": 18767, "123": 13138, "[unused168]": 173, "alexia": 21683, "##iable": 19210, "pussy": 22418, "ballot": 10428, "##hering": 22658, "ejected": 22607, "evidenced": 21328, "##bro": 12618, "cyclist": 14199, "##lius": 15513, "glorious": 14013, "shooting": 5008, "[unused338]": 343, "controls": 7711, "brighter": 16176, "authority": 3691, "unlike": 4406, "\u9ad8": 1981, "eurasian": 23399, "[unused324]": 329, "reggie": 17963, "nearly": 3053, "smiley": 27420, "juveniles": 25406, "##nent": 21576, "hornets": 24855, "flooded": 10361, "deepened": 20183, "[unused404]": 409, "[unused647]": 652, "avant": 14815, "jane": 4869, "voluntary": 10758, "beliefs": 9029, "satan": 16795, "innovative": 9525, "drama": 3689, "fetch": 18584, "shorter": 7820, "##sities": 24279, "shri": 14880, "vocational": 13099, "flutter": 23638, "##land": 3122, "disappearing": 14489, "temporarily": 8184, "skirts": 18184, "campaigning": 18524, "##ders": 13375, "sabha": 11200, "recounted": 22906, "vera": 12297, "strings": 7817, "##ward": 7652, "publish": 10172, "staging": 15308, "##ef": 12879, "mv": 19842, "concept": 4145, "queensland": 5322, "##aa": 11057, "benefited": 19727, "333": 21211, "cmll": 25395, "lions": 7212, "gorgeous": 9882, "distribution": 4353, "ledger": 27106, "flourish": 24299, "steaming": 19986, "fused": 19660, "\u00a1": 1067, "suggest": 6592, "\u0925": 1324, "##nate": 12556, "precinct": 18761, "argyll": 27365, "\u2190": 1583, "sink": 7752, "surprise": 4474, "ox": 23060, "##nets": 22781, "chains": 8859, "tensions": 13136, "##\u098f": 29887, "##sible": 19307, "wiring": 27930, "enthusiasm": 12024, "rite": 14034, "majors": 15279, "instincts": 16160, "presumably": 10712, "##inus": 13429, "##\u10d3": 29977, "##\u0640": 29832, "antoine": 12445, "[unused579]": 584, "##ern": 11795, "join": 3693, "jesuits": 20297, "frustration": 9135, "##\u04cf": 29765, "##girl": 15239, "jade": 12323, "para": 11498, "psalm": 22728, "marathi": 18388, "coming": 2746, "4th": 4343, "blue": 2630, "quotes": 16614, "implementing": 14972, "burn": 6402, "filing": 15242, "130": 7558, "amongst": 5921, "thrilling": 26162, "trash": 11669, "basement": 8102, "reclaimed": 23119, "nazi": 6394, "oval": 9242, "trieste": 25199, "joel": 8963, "condition": 4650, "snakes": 12971, "americana": 25988, "\u0630": 1279, "stitch": 26035, "indira": 28232, "##tory": 7062, "[unused16]": 17, "##mia": 10092, "flag": 5210, "mug": 14757, "##\u0569": 29771, "##\u05d4": 29128, "##leigh": 13615, "admiralty": 14179, "requests": 11186, "intellectual": 7789, "##gt": 13512, "page": 3931, "topical": 25665, "sci": 16596, "##ply": 22086, "leave": 2681, "sierra": 7838, "schmidt": 12940, "leipzig": 11222, "vegetarian": 23566, "amateur": 5515, "kin": 12631, "condom": 20910, "[unused180]": 185, "livery": 18475, "##ix": 7646, "yi": 12316, "rescuing": 23659, "\u5e74": 1840, "og": 13958, "##ive": 3512, "##\u540d": 30321, "council": 2473, "component": 6922, "hardness": 23608, "pentagon": 20864, "venom": 15779, "azores": 28320, "intervening": 26623, "plantation": 10065, "principally": 16552, "polka": 29499, "##\u0445": 29750, "rivalry": 10685, "fielder": 25000, "arya": 26140, "gills": 29468, "hadn": 2910, "dwyer": 29394, "307": 24559, "score": 3556, "waived": 16301, "consulting": 10552, "##gal": 9692, "clans": 16411, "settlement": 4093, "##writing": 18560, "sewage": 19873, "remotely": 19512, "dock": 8946, "decoration": 11446, "##sko": 21590, "##zes": 11254, "suffolk": 12291, "tasked": 13487, "quiet": 4251, "concealed": 14091, "1695": 29140, "\u535a": 1786, "1978": 3301, "animator": 25132, "stops": 6762, "wheeled": 17320, "lingered": 17645, "crusade": 16282, "artillery": 4893, "##iferous": 23930, "elderly": 9750, "laying": 10201, "##its": 12762, "unopposed": 17123, "##ptic": 20746, "winston": 10180, "taylor": 4202, "hilarious": 26316, "crows": 21623, "damned": 9636, "miguel": 8374, "megan": 12756, "[unused282]": 287, "undertaker": 27568, "speech": 4613, "guarantees": 21586, "##iu": 17922, "filtered": 21839, "adaptive": 19293, "dispatched": 14501, "whore": 17219, "thomas": 2726, "impatiently": 19951, "engineers": 6145, "##han": 4819, "rai": 15547, "statesman": 17689, "benin": 21164, "ghz": 29066, "residency": 14079, "patterned": 25336, "munchen": 25802, "councillors": 13189, "ka": 10556, "##aea": 21996, "larry": 6554, "chiba": 27368, "walkers": 22559, "##\u7687": 30443, "illegitimate": 18102, "infant": 10527, "guest": 4113, "penis": 19085, "objected": 15959, "rfc": 14645, "arranged": 5412, "amy": 6864, "december": 2285, "##sman": 11512, "execute": 15389, "1881": 7005, "stopping": 7458, "##\uff0e": 30517, "whereabouts": 18913, "hatch": 11300, "fifteenth": 16249, "inherently": 26096, "loop": 7077, "##dam": 17130, "##itha": 26054, "rocks": 5749, "195": 17317, "underneath": 7650, "porch": 7424, "interview": 4357, "##\u3009": 30164, "despair": 13905, "becky": 14407, "gesellschaft": 27482, "[unused589]": 594, "authors": 6048, "##cher": 7474, "sustained": 8760, "##ausen": 25701, "bushes": 14568, "dso": 22951, "rubber": 8903, "peacekeeping": 28364, "##taken": 25310, "##jos": 19929, "biggest": 5221, "italians": 16773, "tipping": 25486, "webster": 11635, "undertake": 16617, "malik": 14360, "erik": 10240, "##wl": 13668, "fordham": 27302, "\u2019": 1521, "coupe": 15130, "##acion": 21736, "fares": 27092, "[unused186]": 191, "autopsy": 24534, "reading": 3752, "##\u0436": 29743, "mclaren": 18590, "1638": 27497, "plainly": 24250, "grinned": 6973, "political": 2576, "submarines": 12622, "extensive": 4866, "e": 1041, "##\u1100": 29991, "##iente": 25099, "oz": 11472, "##fulness": 20938, "##ho": 6806, "##tures": 22662, "lists": 7201, "finale": 9599, "##lip": 15000, "grabbed": 4046, "wrexham": 27119, "\u092a": 1328, "rose": 3123, "monograph": 24039, "guo": 22720, "chronology": 17873, "means": 2965, "##sher": 19603, "ict": 25891, "continued": 2506, "\u09a6": 1364, "##beat": 19442, "60th": 20928, "kayla": 26491, "##bard": 21458, "backbone": 21505, "[unused292]": 297, "dances": 11278, "brandenburg": 16426, "##romatic": 23645, "clouds": 8044, "[unused346]": 351, "strengthening": 16003, "##br": 19892, "boutique": 24611, "qaeda": 18659, "agitation": 22356, "##stick": 21354, "obstacle": 18355, "\u209c": 1571, "##il": 4014, "zodiac": 28501, "phases": 12335, "collided": 17745, "##sil": 27572, "relates": 14623, "jet": 6892, "ministerial": 18645, "##ological": 10091, "##train": 23654, "##ples": 21112, "##osaurus": 25767, "sl": 22889, "autism": 19465, "##iste": 27870, "intimate": 10305, "wondered": 4999, "resisting": 22363, "1618": 29029, "gandhi": 12338, "deco": 21933, "##rier": 16252, "replaces": 20736, "##more": 5974, "tells": 4136, "tis": 22320, "##dition": 20562, "respondents": 25094, "##3d": 29097, "152": 15017, "elevations": 18166, "vidhan": 28590, "basin": 6403, "eine": 27665, "17": 2459, "fatalities": 20871, "florian": 29517, "klan": 26613, "##\u6211": 30381, "##ke": 3489, "serialized": 27289, "orphaned": 27093, "chased": 13303, "grady": 19011, "cock": 10338, "##elial": 24587, "necessity": 13185, "##ctor": 16761, "\u20b1": 1575, "##good": 24146, "outcome": 9560, "dissent": 24116, "##sack": 25607, "arrays": 27448, "exponential": 27258, "grades": 7022, "dietrich": 22567, "construct": 9570, "1778": 16331, "##books": 17470, "expert": 6739, "conversations": 11450, "1651": 29077, "\u09ac": 1368, "##\u300e": 30169, "arctic": 10162, "arena": 5196, "##tale": 22059, "2006": 2294, "com": 4012, "##olf": 28027, "rebuilt": 7183, "johnstone": 24160, "interruption": 24191, "compact": 9233, "vow": 19076, "commitment": 8426, "seizures": 25750, "academic": 3834, "outrageous": 25506, "##aro": 10464, "\u3078": 1675, "##bei": 19205, "##meter": 22828, "##plex": 19386, "express": 4671, "##\u2609": 30149, "appreciated": 12315, "accelerating": 29494, "concentration": 6693, "originally": 2761, "[unused342]": 347, "smithsonian": 15720, "contested": 7259, "robb": 26211, "##rom": 21716, "aryan": 26030, "spearheaded": 27721, "28": 2654, "##gated": 11644, "rarely": 6524, "karen": 8129, "##vino": 26531, "discover": 7523, "cbn": 21824, "1690": 24765, "[unused726]": 731, "exempt": 11819, "##dl": 19422, "##dt": 11927, "tommy": 6838, "textures": 29343, "##\u0437": 29744, "##\u0932": 29870, "brightly": 14224, "promptly": 13364, "duplicate": 24473, "[unused827]": 832, "dade": 27647, "mecca": 21340, "wryly": 28325, "##\u516c": 30298, "08": 5511, "endings": 21306, "yan": 13619, "roxy": 23682, "##\u0289": 29697, "napoli": 29485, "[unused403]": 408, "phrase": 7655, "civilian": 6831, "miles": 2661, "haunted": 11171, "##dini": 26039, "nouns": 19211, "1880s": 12751, "##music": 27275, "belgarath": 21256, "redistribution": 25707, "cloth": 8416, "barrow": 15355, "dunes": 17746, "narrow": 4867, "239": 23688, "index": 5950, "gum": 16031, "forbid": 27206, "thirteen": 7093, "nose": 4451, "briggs": 15487, "bafta": 22284, "hive": 26736, "sensors": 13907, "defense": 3639, "noise": 5005, "revolver": 17863, "430": 19540, "pale": 5122, "##iac": 20469, "hilt": 21184, "sheet": 7123, "##18": 15136, "adam": 4205, "owed": 12232, "dive": 11529, "isabella": 10323, "lok": 13660, "[unused301]": 306, "\u06d2": 1310, "##stituting": 21532, "##lai": 19771, "node": 13045, "pro": 4013, "##\u2ea9": 30158, "accelerator": 23468, "denis": 11064, "vested": 26003, "rumors": 11256, "1722": 26689, "##gga": 23033, "skin": 3096, "sheldon": 19369, "hilary": 22744, "nic": 27969, "soothe": 28384, "slayer": 20005, "mb": 16914, "elect": 11322, "moniker": 21937, "##ering": 7999, "[unused796]": 801, "cerebral": 18439, "organization": 3029, "\u2605": 1620, "minas": 21750, "umar": 27981, "104": 9645, "\u266d": 1627, "wipe": 13387, "##eh": 11106, "##\u6709": 30399, "##\u967d": 30499, "algiers": 22947, "acid": 5648, "knuckles": 13513, "baggage": 20220, "trimmed": 21920, "brewers": 20007, "cola": 15270, "maple": 11035, "painters": 12499, "instructed": 10290, "##rong": 17583, "dynamic": 8790, "ample": 20851, "determine": 5646, "ear": 4540, "acacia": 24766, "##nberg": 11144, "batting": 9640, "halifax": 10475, "respectable": 19416, "trusted": 9480, "colleges": 6667, "howling": 22298, "##ccus": 27631, "leaping": 21216, "norway": 5120, "conductor": 7589, "fir": 21554, "staffed": 21121, "jiangsu": 28091, "snails": 13482, "soil": 5800, "accessories": 16611, "therese": 25598, "separating": 14443, "installations": 14111, "herbal": 27849, "##oro": 14604, "##\u09a4": 29898, "told": 2409, "hour": 3178, "##16": 16048, "\u2018": 1520, "seventh": 5066, "##eral": 21673, "bog": 22132, "##udeau": 27627, "properly": 7919, "champagne": 12327, "vows": 16495, "operating": 4082, "taxon": 28521, "aegean": 27198, "surrendered": 10795, "cougars": 26317, "##gard": 13444, "##ua": 6692, "##ophone": 25232, "\u7af9": 1933, "thanksgiving": 15060, "catching": 9105, "##eley": 22352, "pancakes": 28470, "##\u00ba": 29662, "knighted": 19572, "##hdi": 22960, "coptic": 27672, "##riam": 25557, "##ev": 6777, "holly": 9079, "##opsis": 22599, "laureate": 17656, "connolly": 21018, "##ques": 10997, "scraping": 23704, "erosion": 14173, "eun": 26070, "\u306c": 1669, "141": 15471, "barbie": 22635, "##\u2500": 30142, "governor": 3099, "kidding": 12489, "nacional": 10718, "indirectly": 17351, "collectors": 14256, "boredom": 29556, "##ifier": 18095, "hospice": 29277, "plead": 25803, "symptoms": 8030, "##iom": 18994, "ensued": 18942, "##nka": 25804, "\u5d0e": 1834, "signal": 4742, "##nberger": 28825, "spade": 23288, "ears": 5551, "reaching": 4285, "fragmented": 26872, "##izing": 6026, "ipswich": 15435, "[unused307]": 312, "characterization": 23191, "##}": 29642, "ventilation": 19536, "kellogg": 26129, "publicly": 7271, "agriculture": 5237, "taxes": 7773, "homo": 24004, "##\u3066": 30191, "interiors": 20769, "hq": 16260, "##atics": 17592, "objectives": 11100, "##rran": 28327, "##imeter": 19198, "tossing": 15021, "resorts": 16511, "journals": 9263, "amendments": 16051, "bouquet": 26700, "##rmin": 27512, "true": 2995, "[unused849]": 854, "viii": 9937, "distraction": 14836, "##rnik": 26437, "hissing": 26386, "assured": 8916, "contraction": 21963, "##\u51fa": 30300, "pier": 10356, "[unused24]": 25, "[unused952]": 957, "hugs": 24459, "rick": 6174, "aspen": 18567, "lausanne": 22256, "champions": 3966, "gem": 17070, "##\u110a": 29998, "[unused416]": 421, "##ceae": 9071, "##ffey": 24513, "ml": 19875, "[unused701]": 706, "stepping": 9085, "administrator": 8911, "##\u0447": 29752, "bumped": 19030, "cremated": 28376, "revolution": 4329, "##ng": 3070, "##rand": 13033, "napoleonic": 18813, "memorable": 13432, "[unused398]": 403, "barons": 21487, "participated": 4194, "\u3080": 1679, "lifeless": 22185, "berries": 22681, "sigh": 6682, "nairobi": 21124, "climax": 14463, "##ammed": 27479, "crumpled": 19814, "valuable": 7070, "225": 14993, "crossed": 4625, "##uw": 25974, "differed": 19541, "matters": 5609, "tear": 7697, "turk": 22883, "tbilisi": 22406, "carlisle": 13575, "retain": 9279, "exposition": 13080, "cookies": 16324, "commonwealth": 5663, "we": 2057, "##\u6ca2": 30424, "lean": 8155, "plea": 14865, "##itating": 16518, "bangkok": 12627, "tq": 28816, "choice": 3601, "masterpiece": 17743, "seeing": 3773, "plagued": 17808, "black": 2304, "##oint": 25785, "##old": 11614, "manifesto": 17124, "mead": 19855, "debuted": 6006, "900": 7706, "##pes": 10374, "##osed": 24768, "##\u0564": 29769, "eyre": 26975, "##mering": 27851, "##\u22121": 27944, "unrest": 16591, "pm": 7610, "radical": 7490, "borne": 15356, "dipping": 23427, "madness": 12013, "announced": 2623, "##vira": 24093, "interspersed": 25338, "tucker": 9802, "glowed": 16497, "placing": 6885, "1786": 17436, "source": 3120, "cuban": 9642, "recital": 25521, "##ker": 5484, "randall": 12813, "ideas": 4784, "mri": 27011, "tango": 17609, "aired": 4836, "##ille": 10484, "philosophers": 17586, "headwaters": 25345, "tolerated": 25775, "perpendicular": 19581, "shouldn": 5807, "lei": 26947, "stretch": 7683, "word": 2773, "johnson": 3779, "cardboard": 19747, "grooves": 25880, "[unused950]": 955, "syn": 19962, "shah": 7890, "##\u2071": 30072, "tribune": 10969, "geoff": 14915, "soaking": 22721, "fire": 2543, "hasan": 17000, "mates": 14711, "rented": 12524, "sous": 27411, "broadcasts": 8960, "##\u767d": 30441, "overcome": 9462, "specifies": 27171, "##\u2018": 30055, "court": 2457, "[unused215]": 220, "empires": 23560, "##aer": 27867, "worsened": 27622, "transparency": 16987, "dare": 8108, "\u09b0": 1372, "##wad": 26016, "mode": 5549, "##\u0f0d": 29961, "clustered": 25221, "##\u0438": 10325, "selangor": 28904, "enduring": 16762, "bullying": 18917, "wedding": 5030, "diaries": 18707, "others": 2500, "regulates": 26773, "symbolism": 22050, "any": 2151, "scientists": 6529, "mets": 15253, "wi": 15536, "accepts": 13385, "[unused95]": 96, "worker": 7309, "toulouse": 17209, "adaptation": 6789, "char": 25869, "pace": 6393, "gossip": 13761, "circular": 8206, "graphics": 8389, "outward": 15436, "neglected": 15486, "wo": 24185, "##zoo": 23221, "amulet": 25087, "stuttgart": 13022, "lump": 15116, "joan": 7437, "1857": 8204, "levine": 17780, "budge": 24981, "##pping": 14853, "##abia": 29039, "xii": 14371, "swinging": 11820, "chatham": 16727, "enjoyable": 22249, "##\u76ee": 30444, "quickly": 2855, "[unused666]": 671, "favorable": 11119, "collaborations": 17437, "serve": 3710, "producing": 5155, "handkerchief": 23975, "ultimately": 4821, "##rada": 28510, "1928": 4662, "##\u0444": 29749, "opinions": 10740, "husbands": 19089, "poses": 22382, "compulsion": 27638, "panels": 9320, "taliban": 16597, "cornerstone": 23354, "ancestor": 13032, "everything": 2673, "buddies": 24115, "hasn": 8440, "colonel": 4327, "households": 3911, "tool": 6994, "tunic": 23002, "vaughn": 18220, "prevailed": 19914, "subset": 16745, "fluctuations": 28892, "flop": 28583, "baxter": 14664, "##logue": 24277, "sociology": 11507, "marquis": 13410, "##ular": 7934, "specification": 12827, "swell": 18370, "covert": 19813, "fixtures": 17407, "shoved": 7468, "folk": 5154, "##tana": 20496, "orioles": 18893, "intuition": 26406, "##\u4eac": 30281, "##\u30fc": 30265, "slots": 19832, "sabre": 22002, "investigates": 28062, "stint": 12116, "equity": 10067, "[unused87]": 88, "inspections": 29589, "compares": 22963, "##lean": 20898, "orbit": 8753, "##mour": 20360, "attacked": 4457, "quran": 21288, "arches": 13540, "piss": 18138, "##cycle": 23490, "hoping": 5327, "##witz": 15362, "##ju": 9103, "filippo": 28669, "straight": 3442, "reno": 17738, "\u4e94": 1753, "dominant": 7444, "121": 12606, "bull": 7087, "dubois": 26258, "slices": 25609, "fragment": 15778, "##\u306a": 30193, "swift": 9170, "ching": 19992, "innocence": 12660, "##town": 4665, "jubilee": 13078, "tom": 3419, "ryan": 4575, "confirms": 23283, "connector": 19400, "indigo": 22472, "##vington": 21827, "eight": 2809, "ibn": 7839, "##\u2032": 30066, "1729": 28449, "geology": 13404, "accept": 5138, "curls": 14484, "##raphy": 26228, "doha": 26528, "nokia": 22098, "\u30c8": 1714, "hopping": 26397, "[unused349]": 354, "hate": 5223, "thorns": 28408, "hayden": 13872, "\u02be": 1147, "intrinsic": 23807, "henson": 27227, "elliptic": 29413, "android": 11924, "greg": 6754, "push": 5245, "praises": 27128, "character": 2839, "bay": 3016, "craig": 7010, "hardwood": 23165, "coverage": 6325, "madeleine": 19324, "foreigner": 29524, "feather": 15550, "traffic": 4026, "##\u10d2": 29976, "people": 2111, "##rill": 24714, "towering": 20314, "affiliate": 8727, "[unused447]": 452, "consistent": 8335, "##\u209a": 30097, "geneva": 9810, "apologize": 12134, "\u8ecd": 1955, "##gley": 22971, "echo": 9052, "disciples": 17102, "gavin": 9448, "\u3086": 1683, "leroy": 19103, "dough": 23126, "slick": 13554, "palo": 24326, "elegant": 11552, "fate": 6580, "drill": 12913, "transaction": 12598, "[unused603]": 608, "##dra": 7265, "##aan": 14634, "westminster": 9434, "nme": 23770, "kei": 26679, "bald": 13852, "coincidentally": 27542, "millimetres": 13388, "##vant": 18941, "##ple": 10814, "deported": 17929, "##ve": 3726, "yahoo": 20643, "gurney": 25061, "wills": 17234, "blake": 6511, "modest": 10754, "\u0576": 1231, "brandy": 17951, "254": 22234, "reply": 7514, "grammar": 8035, "madagascar": 11934, "##tary": 18219, "rations": 29559, "stockholm": 8947, "valves": 17355, "##iana": 11410, "eruption": 17259, "##rug": 26549, "1720": 23535, "seating": 10747, "cargo": 6636, "electrified": 18042, "poe": 18922, "village": 2352, "warrant": 10943, "decided": 2787, "fuss": 28554, "[unused54]": 55, "highlands": 11784, "captured": 4110, "\u203a": 1533, "artificial": 7976, "believer": 24591, "weaving": 15360, "93": 6109, "metropolis": 18236, "##\u00f8": 16415, "reinforced": 11013, "cliffs": 13333, "venues": 9356, "liquid": 6381, "pitches": 19299, "spider": 6804, "deserved": 10849, "yearly": 12142, "nicknamed": 9919, "blessings": 24618, "mixes": 21109, "cairo": 11096, "[unused863]": 868, "##oom": 17650, "billings": 26124, "\u4eac": 1755, "##\u06a9": 29841, "covering": 5266, "understand": 3305, "tajikistan": 23538, "tricked": 24929, "reduced": 4359, "born": 2141, "huge": 4121, "##anger": 25121, "babylon": 17690, "charge": 3715, "[unused983]": 988, "luxembourg": 10765, "resigned": 5295, "peaceful": 9379, "rallied": 24356, "glistening": 25203, "keep": 2562, "qualification": 8263, "blazers": 28513, "##onus": 24891, "claws": 10702, "add": 5587, "processors": 18017, "electricity": 6451, "[unused78]": 79, "\u0562": 1220, "tests": 5852, "##nay": 16741, "draught": 25349, "frederick": 5406, "dilapidated": 29283, "large": 2312, "##\u0930": 29869, "quarter": 4284, "279": 25745, "marianne": 19887, "monty": 18446, "agreeing": 16191, "##fers": 24396, "##away": 9497, "meters": 5563, "\u09ad": 1369, "[unused493]": 498, "1735": 26063, "1921": 4885, "##liche": 27412, "shifts": 12363, "finding": 4531, "stew": 20717, "revealed": 3936, "seneca": 21224, "prospects": 16746, "##56": 26976, "\u7592": 1913, "showed": 3662, "ashby": 28729, "benefactor": 27398, "joyce": 11830, "messina": 27270, "hindwings": 15998, "insight": 12369, "utilizing": 16911, "##tres": 19168, "67": 6163, "basel": 14040, "80": 3770, "resumed": 7943, "pike": 12694, "software": 4007, "scans": 27404, "mon": 12256, "##\u5e7f": 30368, "441": 28015, "sino": 19432, "##urus": 20089, "merry": 12831, "chong": 24008, "moderate": 8777, "armstrong": 9143, "added": 2794, "##tique": 28437, "##rak": 16555, "annexation": 18985, "weiss": 17889, "oath": 11292, "filled": 3561, "emphasize": 17902, "properties": 5144, "speed": 3177, "rhythmic": 14797, "immigrated": 17352, "organised": 7362, "archival": 22796, "flanked": 15874, "##ssing": 18965, "easter": 10957, "victory": 3377, "cranes": 27083, "alvin": 17348, "bartender": 15812, "hound": 19598, "kia": 27005, "modes": 11583, "wrists": 12150, "##ela": 10581, "op": 6728, "sum": 7680, "ramsey": 15092, "1871": 7428, "##zily": 28431, "redwood": 27552, "rico": 7043, "harvey": 7702, "priory": 14284, "theo": 14833, "183": 18677, "interactive": 9123, "gloss": 27068, "[unused131]": 136, "##tt": 4779, "98": 5818, "orient": 16865, "##rya": 20444, "regained": 11842, "jerome": 11120, "##\u056f": 29774, "myra": 23020, "smoke": 5610, "restructuring": 18322, "\u516c": 1772, "worrying": 15366, "apostolic": 11815, "makeup": 5789, "##tched": 28265, "##ffie": 29055, "ecumenical": 23540, "##pired": 21649, "give": 2507, "##\u063a": 29831, "[unused832]": 837, "harmonies": 28594, "76": 6146, "spit": 13183, "[unused194]": 199, "\u9673": 1972, "appalled": 29279, "\u2205": 1593, "wainwright": 25305, "##icides": 22698, "bergen": 12674, "##rok": 27923, "##rera": 24068, "##fan": 15143, "slow": 4030, "acidic": 24171, "\u2087": 1554, "civil": 2942, "##ations": 10708, "societal": 23382, "attends": 23933, "enlisted": 9417, "##aina": 27971, "\u0927": 1326, "palais": 22113, "##ttering": 19567, "box": 3482, "siberian": 21822, "musicians": 5389, "caves": 10614, "cameras": 8629, "\u4e16": 1745, "wiley": 18825, "##\u00a7": 29650, "\u116d": 1477, "optimism": 27451, "strengths": 20828, "##\u3092": 30216, "aboard": 7548, "barangay": 20937, "##res": 6072, "##vana": 27313, "\u110f": 1466, "forth": 5743, "##ew": 7974, "breathe": 7200, "[unused604]": 609, "constituencies": 13315, "huh": 9616, "kaladin": 22588, "bjorn": 24998, "##\u0250": 29676, "[unused379]": 384, "##sons": 23345, "jesuit": 13840, "##can": 9336, "##sha": 7377, "huts": 23326, "brutal": 12077, "[unused316]": 321, "##tp": 25856, "veteran": 8003, "alexis": 13573, "ymca": 26866, "##ps": 4523, "caused": 3303, "paced": 13823, "##thic": 23048, "mindanao": 23669, "finland": 6435, "##orf": 16347, "thrown": 6908, "much": 2172, "eng": 25540, "wholesale": 17264, "##ately": 28239, "monk": 8284, "sectors": 11105, "offenses": 25173, "shovel": 24596, "bolivar": 22118, "##\u30de": 30249, "wand": 23967, "##\u5e1d": 30364, "nerve": 9113, "##iti": 25090, "detailed": 6851, "stella": 11894, "stephanie": 11496, "macedonian": 13037, "##gul": 24848, "suppress": 16081, "##lto": 23223, "##\u1d30": 30028, "robot": 8957, "[unused785]": 790, "##tics": 14606, "tornadoes": 22668, "annoyed": 11654, "xavier": 10062, "reviewer": 12027, "loomed": 24358, "floated": 13715, "sang": 6369, "ngo": 17895, "barrington": 26469, "laguna": 18169, "##ming": 6562, "maximize": 25845, "interests": 5426, "[unused270]": 275, "fulton": 17049, "insect": 14211, "frequented": 24832, "[unused10]": 11, "[unused794]": 799, "##\u5e73": 30365, "classed": 27811, "beat": 3786, "shortages": 22623, "excavations": 14018, "##rgen": 25892, "wai": 23701, "##\u00a6": 29649, "##sts": 12837, "licked": 11181, "arithmetic": 20204, "safari": 23591, "parker": 6262, "member": 2266, "##filtration": 28674, "339": 28977, "solitary": 14348, "\u300e": 1643, "quakers": 28301, "snacks": 27962, "bell": 4330, "##metry": 24327, "##fm": 16715, "net": 5658, "sedimentary": 25503, "heels": 8265, "somme": 25158, "tentatively": 19325, "##game": 16650, "campus": 3721, "verlag": 14552, "additions": 13134, "pharmaceuticals": 24797, "8": 1022, "alfonso": 13591, "leisure": 12257, "deleted": 17159, "##ified": 7810, "too": 2205, "fades": 26784, "nantes": 25387, "##ttal": 28200, "##nded": 25848, "##tagram": 23091, "clubs": 4184, "regular": 3180, "##ops": 11923, "deliveries": 23534, "galerie": 17941, "##laya": 22923, "\u2228": 1603, "antennas": 26315, "narrowly": 11866, "brunei": 18692, "##\u1d4d": 30036, "childish": 24282, "lex": 17244, "suv": 15620, "permitting": 24523, "those": 2216, "livingstone": 27656, "excelled": 23081, "airborne": 10519, "##\u03b5": 29723, "trenton": 17148, "##oured": 16777, "died": 2351, "beth": 7014, "##uttered": 23128, "variants": 10176, "analytic": 23521, "fatal": 10611, "separate": 3584, "innings": 7202, "bio": 16012, "paris": 3000, "resolution": 5813, "lace": 12922, "##rgh": 27172, "restriction": 16840, "guadalajara": 22887, "tornado": 11352, "projecting": 18398, "translated": 5421, "highways": 10292, "##raus": 25965, "prisoner": 7267, "jenny": 8437, "nightmare": 10103, "##tees": 28313, "ukrainian": 5969, "\u00b0c": 6362, "weekday": 16904, "[unused898]": 903, "november": 2281, "heard": 2657, "ter": 28774, "torino": 24737, "libyan": 19232, "scattered": 7932, "jeff": 5076, "pontifical": 22362, "##chester": 25322, "##\u90e8": 30486, "[unused914]": 919, "gets": 4152, "thermal": 9829, "backed": 6153, "289": 27054, "##\u0280": 29693, "##nz": 14191, "##es": 2229, "##antly": 15706, "angles": 12113, "peerage": 18760, "ordinary": 6623, "9th": 6280, "feat": 8658, "expansive": 25145, "restricted": 7775, "1629": 27882, "##sted": 14701, "earnings": 16565, "assessing": 20077, "lake": 2697, "blaming": 24114, "revenue": 6599, "##\u300a": 30165, "[unused951]": 956, "owning": 19273, "##tree": 13334, "residual": 21961, "harmon": 25546, "poisoned": 17672, "genesis": 11046, "refrigerator": 18097, "##ungen": 23239, "composition": 5512, "##yu": 10513, "williamsburg": 26366, "wandered": 13289, "dick": 5980, "status": 3570, "##pment": 24073, "diesel": 7937, "consuming": 15077, "skipped": 16791, "witness": 7409, "redevelopment": 15582, "monument": 6104, "##11": 14526, "share": 3745, "[unused634]": 639, "wendell": 24526, "ecology": 13517, "daddy": 8600, "brew": 24702, "portions": 8810, "[unused760]": 765, "##jas": 17386, "streetcar": 21420, "##\u6708": 30398, "messaging": 24732, "shipyard": 13858, "moisture": 14098, "\u2026": 1529, "thematic": 23539, "reckless": 18555, "##\u00b2": 10701, "poppy": 19745, "pledge": 16393, "##shah": 25611, "##sling": 28886, "relative": 5816, "\u9f8d": 1982, "equals": 19635, "fought": 4061, "\u09be": 1378, "kilograms": 18857, "installing": 23658, "wolfe": 14212, "namely": 8419, "27": 2676, "21st": 7398, "saline": 28413, "##atter": 20097, "##ie": 2666, "kinase": 21903, "##omp": 25377, "1937": 4347, "[unused653]": 658, "mikey": 25998, "baseball": 3598, "##ium": 5007, "##personal": 28823, "willie": 9893, "respected": 9768, "depression": 6245, "climate": 4785, "shortstop": 25359, "##apes": 29040, "aquino": 24183, "\u306e": 1671, "presidency": 8798, "genuine": 10218, "##istle": 24242, "fiat": 18550, "jerking": 22387, "encoded": 12359, "satellite": 5871, "##walker": 26965, "monitoring": 8822, "bao": 25945, "##kshi": 27488, "ballots": 17069, "##cating": 18252, "##jak": 18317, "jaguars": 24017, "precisely": 10785, "##100": 18613, "1": 1015, "jed": 24401, "wilton": 26407, "governed": 9950, "treasurer": 10211, "##litz": 24725, "book": 2338, "##bell": 17327, "resurrected": 23053, "content": 4180, "sunday": 4465, "greenberg": 24190, "1728": 26833, "beaufort": 23622, "\u624c": 1859, "proton": 20843, "alternate": 6585, "cancel": 17542, "sciences": 4163, "azure": 24296, "rhino": 24091, "velvet": 10966, "mumbled": 11567, "gone": 2908, "scrolls": 23074, "3d": 7605, "compliant": 24577, "\u21a6": 1588, "##ehan": 24660, "chronological": 23472, "insulation": 25710, "cobra": 16604, "punched": 11696, "jessica": 8201, "\u209b": 1570, "pearson": 12874, "cadence": 23620, "projectile": 25921, "interdisciplinary": 18593, "papyrus": 29575, "pasadena": 18880, "commissioners": 12396, "mane": 23055, "astronaut": 19748, "bolshevik": 24477, "emerging": 8361, "lids": 26122, "##tadt": 18808, "bernie": 15941, "department": 2533, "kerman": 24500, "alba": 18255, "##ville": 3077, "ron": 6902, "broadcasting": 5062, "eels": 29317, "[unused68]": 69, "berg": 15214, "##fi": 8873, "stunt": 15412, "static": 10763, "afternoons": 24738, "recognize": 6807, "lies": 3658, "mental": 5177, "erie": 13374, "suddenly": 3402, "syntax": 20231, "reynolds": 9579, "torre": 22047, "trance": 16588, "stephane": 26624, "##ena": 8189, "neck": 3300, "ardent": 25314, "serene": 25388, "nationwide": 9053, "bun": 21122, "mortally": 26495, "enforcement": 7285, "\u6a39": 1884, "cadillac": 20425, "disposition": 22137, "provost": 18523, "##emi": 23238, "irregular": 12052, "403": 28203, "##hale": 15238, "simi": 28684, "vanguard": 18332, "dear": 6203, "6": 1020, "mass": 3742, "##\u5e78": 30367, "[unused804]": 809, "##finger": 20349, "superman": 10646, "1999": 2639, "russia": 3607, "##nsis": 11745, "hackett": 28630, "centrally": 25497, "bogota": 21240, "filling": 8110, "zheng": 20985, "179": 20311, "##dran": 24914, "railroad": 4296, "\u043c": 1191, "finn": 9303, "threatening": 8701, "\u05e8": 1265, "\u0e22": 1416, "niger": 16842, "allegheny": 21192, "113": 12104, "[unused491]": 496, "bacteria": 10327, "snapped": 5941, "##test": 22199, "unicef": 29073, "##lat": 20051, "1625": 26263, "se": 7367, "cheap": 10036, "##ti": 3775, "work": 2147, "propellers": 23405, "goddamn": 16477, "disagreed": 18335, "##mming": 25057, "\u11a8": 1484, "##\u5fc3": 30375, "classification": 5579, "quality": 3737, "##ahl": 28083, "reviewed": 8182, "cafe": 7668, "loyalists": 26590, "syndicate": 16229, "##bain": 29148, "auschwitz": 24363, "mega": 13164, "danny": 6266, "until": 2127, "ottomans": 17774, "derby": 7350, "##\u0565": 29770, "excavation": 16456, "##\u03b7": 24824, "residence": 5039, "activate": 20544, "structural": 8332, "##oya": 18232, "tokyo": 5522, "borders": 6645, "##ators": 18926, "scientific": 4045, "icon": 12696, "suits": 11072, "\u0e23": 1417, "unmarked": 25779, "reactor": 13308, "##jing": 29518, "##udi": 21041, "##uded": 13936, "lowlands": 26411, "vogue": 17734, "creepy": 17109, "attorneys": 16214, "wheelbase": 29141, "prepare": 7374, "assume": 7868, "devices": 5733, "##\u026a": 29685, "assassins": 18364, "faults": 19399, "amenities": 19870, "[unused483]": 488, "brien": 9848, "graffiti": 17990, "kingdoms": 12028, "##\u6771": 30405, "landslide": 20148, "##\u30b7": 30232, "##ffed": 15388, "start": 2707, "##unes": 26639, "##rov": 12298, "##emy": 26662, "authoritative": 23949, "##rsten": 19020, "##inated": 15833, "doubt": 4797, "flood": 7186, "citrus": 20418, "outfit": 11018, "mons": 29408, "merely": 6414, "moderator": 29420, "experiencing": 13417, "convey": 16636, "yells": 22114, "##\u116a": 30012, "##plane": 11751, "steele": 12872, "affiliates": 18460, "[unused183]": 188, "demonic": 23170, "##cci": 14693, "lure": 17256, "##vna": 29207, "##7": 2581, "##\u0261": 29682, "malice": 28238, "unfortunately": 6854, "convinced": 6427, "forster": 21316, "##pp": 9397, "punches": 17957, "boer": 19945, "fear": 3571, "gland": 25320, "vincent": 6320, "obscene": 27744, "otago": 21831, "lenin": 17497, "##cke": 19869, "loose": 6065, "##horse": 23024, "employ": 12666, "bilingual": 17636, "lime": 14123, "bitter": 8618, "contributors": 16884, "\u5bbf": 1826, "biomedical": 20906, "##ior": 25346, "\u05d1": 1242, "##21": 17465, "fabulous": 18783, "transgender": 16824, "[unused753]": 758, "deployment": 10813, "deaf": 12419, "credibility": 21553, "battered": 17548, "continuing": 5719, "transitions": 22166, "saturated": 23489, "merton": 28169, "##\u0ba9": 29923, "dependence": 18642, "detachment": 11009, "approximation": 20167, "couch": 6411, "moves": 5829, "umm": 26114, "burrows": 22009, "tales": 7122, "built": 2328, "parramatta": 22820, "osman": 28609, "cured": 21391, "000": 2199, "vengeance": 14096, "cowboy": 11762, "defiant": 27836, "fiction": 4349, "geometric": 14965, "luc": 12776, "oscar": 7436, "pioneered": 16193, "mining": 5471, "##tm": 21246, "standings": 11869, "prophets": 23172, "detention": 12345, "rotation": 9963, "lima": 12967, "synthesis": 10752, "synonymous": 22594, "beings": 9552, "fay": 23201, "eagles": 8125, "debbie": 16391, "das": 8695, "consultants": 22283, "auditioned": 23008, "##olic": 23518, "excursion": 26144, "outreach": 15641, "species": 2427, "offer": 3749, "adept": 26398, "shocking": 16880, "\u9577": 1967, "##ril": 15928, "shelby": 15294, "wally": 18202, "##lating": 22248, "irving": 12415, "racehorse": 25068, "tackled": 26176, "twisting": 12814, "hawaiian": 12188, "pratt": 13208, "talented": 10904, "blinded": 20641, "##\u672c": 30402, "vikram": 29063, "fiercely": 16265, "paolo": 14174, "bricks": 14219, "\u2663": 1624, "psychiatrist": 18146, "silvia": 27827, "##ex": 10288, "noticeable": 17725, "alleviate": 24251, "idaho": 9795, "written": 2517, "des": 4078, "double": 3313, "homme": 26574, "savanna": 22323, "[unused574]": 579, "nl": 17953, "950": 20317, "donors": 17843, "examinations": 14912, "[unused385]": 390, "cf": 12935, "needs": 3791, "hollow": 8892, "andrew": 4080, "1950": 3925, "store": 3573, "hardest": 18263, "[unused472]": 477, "##llum": 20845, "##yuan": 17236, "scenes": 5019, "persians": 27229, "mcintyre": 24564, "caught": 3236, "akron": 22735, "papua": 13049, "##tum": 11667, "variation": 8386, "pilot": 4405, "occasional": 8138, "##heimer": 18826, "financing": 12135, "moravian": 28131, "helpful": 14044, "fully": 3929, "virtual": 7484, "fleeing": 14070, "[unused344]": 349, "ioc": 25941, "taut": 21642, "jealousy": 14225, "tingling": 23690, "##ink": 19839, "bentley": 15988, "##henko": 19767, "player": 2447, "hiring": 14763, "##ski": 5488, "destroyers": 13242, "##\u3064": 30190, "practically": 8134, "worthy": 11007, "programming": 4730, "##\u1d47": 30033, "souls": 9293, "welcome": 6160, "mcleod": 25363, "plata": 19534, "ethiopian": 15101, "parallels": 18588, "1086": 28196, "camps": 7958, "[unused320]": 325, "brass": 8782, "##ram": 6444, "andersson": 28643, "practicing": 12560, "pulse": 8187, "dreamer": 24726, "inverse": 19262, "genetically": 19345, "##500": 29345, "thames": 11076, "apples": 18108, "remember": 3342, "symmetrical": 23476, "##yas": 16303, "isbn": 3175, "bahn": 17392, "musicals": 20103, "plotted": 27347, "comfort": 7216, "[unused289]": 294, "babies": 10834, "\u5c71": 1831, "urbana": 27929, "anson": 25435, "##\u5834": 30332, "dexter": 14375, "traveling": 7118, "mount": 4057, "kapoor": 17129, "imperial": 4461, "tun": 27112, "##yna": 18279, "rosewood": 29528, "##\u76f8": 30445, "##less": 3238, "immigrant": 11560, "clock": 5119, "##yde": 18124, "##\u529b": 30304, "##mata": 21022, "##matic": 12644, "\u5185": 1773, "##ues": 15808, "substance": 9415, "sweatshirt": 28095, "chuckles": 26088, "[unused340]": 345, "mozart": 13177, "frame": 4853, "marquez": 27320, "adult": 4639, "attempts": 4740, "traditions": 7443, "bruins": 18159, "[unused618]": 623, "quartermaster": 24688, "creation": 4325, "baskets": 25946, "40th": 16541, "##sms": 19230, "##oun": 23709, "wellness": 25860, "sorbonne": 28452, "##\u308d": 30215, "##ume": 17897, "wiping": 14612, "##ova": 7103, "slogan": 14558, "buick": 28865, "##\u3075": 30200, "ritchie": 20404, "hz": 22100, "298": 27240, "basha": 26074, "exclude": 23329, "legislators": 22680, "##mler": 18602, "squash": 18794, "##bai": 26068, "357": 26231, "karin": 24537, "##oth": 14573, "who": 2040, "baltimore": 6222, "owls": 22388, "gustav": 13430, "woke": 8271, "lodged": 20451, "u": 1057, "synod": 15374, "\u05df": 1256, "amazed": 15261, "late": 2397, "roth": 12211, "sant": 15548, "##boro": 12691, "##\u4e0b": 30269, "spraying": 29035, "restart": 23818, "engraved": 16328, "rods": 19485, "##rito": 28414, "sparta": 21251, "manufacturer": 7751, "303": 19988, "belt": 5583, "##\u03ba": 29726, "numbering": 15200, "draw": 4009, "anarchy": 26395, "lifting": 8783, "seaside": 20276, "reilly": 13875, "butch": 17520, "copies": 4809, "tendency": 11765, "ur": 24471, "british": 2329, "cafeteria": 16673, "ulysses": 22784, "object": 4874, "[unused431]": 436, "disposal": 13148, "commercially": 11088, "[unused417]": 422, "dinosaurs": 18148, "mountain": 3137, "noting": 9073, "moan": 13673, "[unused531]": 536, "goodwin": 19928, "mathew": 25436, "beauty": 5053, "settlers": 7322, "##\u05e9": 29812, "assigns": 24022, "ahmedabad": 27249, "quartz": 20971, "##jhl": 29001, "landau": 28570, "johnston": 10773, "jo": 8183, "remedy": 19519, "thai": 7273, "impression": 8605, "##pper": 18620, "mobile": 4684, "238": 22030, "dazzling": 28190, "##llar": 17305, "ashamed": 14984, "##\u2092": 30091, "centres": 8941, "sincerity": 23997, "storm": 4040, "commercial": 3293, "boyer": 23456, "\u20ac": 1574, "goodwill": 22875, "##dson": 25112, "waitress": 13877, "playback": 18245, "bollywood": 16046, "recall": 9131, "fiber": 11917, "obstacles": 15314, "flinched": 19201, "yiddish": 20112, "prediction": 17547, "export": 9167, "formulated": 19788, "brushes": 22569, "##fully": 7699, "1938": 4260, "taxpayers": 26457, "poles": 10567, "excitedly": 23885, "hungary": 5872, "reads": 9631, "courtesy": 14571, "lastly": 22267, "clapton": 24705, "rappers": 28257, "marlene": 26921, "elephant": 10777, "\u2153": 1581, "1759": 21667, "showtime": 23811, "initiating": 26616, "[unused528]": 533, "\u026a": 1119, "cox": 9574, "salty": 23592, "zoological": 26168, "solomon": 9168, "fifteen": 5417, "justice": 3425, "spin": 6714, "peeling": 28241, "tubular": 25147, "accomplishments": 17571, "attitude": 7729, "recognizes": 14600, "[unused672]": 677, "261": 24441, "##uto": 16161, "denounced": 17787, "##lvis": 28530, "##\u27e8": 30155, "clancy": 24530, "sight": 4356, "\u5f35": 1844, "yank": 23178, "[unused98]": 99, "##fires": 26332, "burgess": 17754, "brow": 8306, "astonishing": 26137, "delgado": 26532, "shared": 4207, "336": 27954, "##ship": 9650, "journalists": 8845, "vertically": 20018, "distributor": 16632, "##claim": 25154, "##pole": 15049, "\u30b3": 1704, "regaining": 28657, "chesapeake": 20867, "##\u09b9": 29913, "heaved": 19970, "assertion": 23617, "forecast": 19939, "treasury": 9837, "vineyards": 20597, "brodie": 27379, "cerro": 25498, "avenue": 3927, "infinite": 10709, "outset": 26674, "##\u00a3": 29646, "dormant": 22170, "1821": 11723, "##\u9ad8": 30507, "suffer": 9015, "chairs": 8397, "##uti": 21823, "cote": 17155, "concerto": 10405, "managed": 3266, "addict": 26855, "##rion": 14772, "guards": 4932, "fiba": 13651, "chronic": 11888, "bestowed": 17398, "monasteries": 15947, "nino": 20801, "damp": 10620, "presbyterian": 10133, "1622": 28133, "vial": 28475, "##logist": 10727, "frank": 3581, "approval": 6226, "limestone": 9771, "burger": 15890, "brent": 12895, "robbed": 20114, "chorus": 7165, "councils": 10784, "dealing": 7149, "##\u0646": 15915, "siam": 25583, "##ote": 12184, "verdi": 20580, "1828": 11517, "##ege": 24746, "hart": 7530, "bully": 20716, "##put": 18780, "\u2015": 1518, "soared": 29127, "grassroots": 23299, "hunted": 14682, "117": 12567, "jorge": 10853, "displayed": 6913, "helplessly": 24942, "##6": 2575, "[CLS]": 101, "restoring": 16487, "##lar": 8017, "admiring": 24588, "cod": 19429, "##26": 23833, "deceased": 10181, "ms": 5796, "submitted": 7864, "coyotes": 26880, "recoil": 27429, "discipline": 9009, "##rooms": 29020, "##ert": 8743, "soundtrack": 6050, "mosques": 21922, "breuning": 18177, "bribes": 29117, "boca": 22765, "antrim": 24142, "customs": 8205, "##cter": 21162, "##osing": 18606, "yell": 14315, "passion": 6896, "josh": 6498, "sick": 5305, "##op": 7361, "statute": 11671, "substrates": 23725, "terrifying": 17082, "##nnis": 27803, "pray": 11839, "carol": 8594, "\u0ca8": 1400, "##\u06af": 29842, "##\u1d35": 30029, "crest": 11146, "acids": 12737, "platform": 4132, "receives": 8267, "writer": 3213, "cbs": 6568, "[unused242]": 247, "aggressively": 24663, "\u06c1": 1308, "\u10dc": 1449, "144": 14748, "ted": 6945, "luck": 6735, "##oon": 7828, "weir": 16658, "specified": 9675, "fi": 10882, "puck": 22900, "##under": 20824, "1628": 28627, "##vey": 12417, "zinc": 15813, "##\u03c6": 29736, "dynasty": 5321, "priestess": 27677, "asturias": 26798, "hearings": 19153, "##\u056c": 29773, "known": 2124, "progressing": 27673, "portrait": 6533, "archway": 28189, "dinamo": 22306, "kassel": 27884, "\u56d7": 1797, "finest": 10418, "##ect": 22471, "balkans": 19733, "frogs": 17582, "peculiar": 14099, "grazing": 15400, "##bau": 27773, "widespread": 6923, "324": 27234, "[unused44]": 45, "##ane": 7231, "sadie": 21330, "ducked": 13781, "circumstances": 6214, "hog": 27589, "sweden": 4701, "pillars": 13766, "profits": 11372, "obligatory": 26471, "gnu": 27004, "tomato": 20856, "##cking": 23177, "palms": 9486, "##iae": 19001, "##gn": 16206, "##\u3055": 30182, "expands": 24545, "##olar": 19478, "plurality": 29018, "sloppy": 28810, "sedan": 15134, "\u062d": 1276, "purely": 11850, "##rnier": 28484, "unleashed": 22416, "springfield": 10493, "callum": 15229, "rigorous": 20001, "##se": 3366, "suspicion": 10928, "[unused331]": 336, "comparable": 12435, "unlock": 19829, "driving": 4439, "admissions": 20247, "intelligent": 9414, "##\u300d": 30168, "[unused915]": 920, "ebert": 22660, "44": 4008, "philanthropist": 15246, "1847": 9176, "daily": 3679, "entertainer": 21751, "bison": 22285, "recipient": 7799, "sympathy": 11883, "favour": 7927, "##zio": 12426, "##nator": 27413, "grunt": 20696, "29th": 16318, "##\u0582": 29785, "##\u057f": 29783, "\u0dbd": 1406, "payton": 28666, "1966": 3547, "tobias": 16858, "curved": 9203, "pang": 20657, "rumours": 19200, "1b": 26314, "spruce": 19893, "photograph": 9982, "##cina": 28748, "##hal": 8865, "conspicuous": 19194, "australians": 15739, "arrogant": 15818, "##sm": 6491, "##aca": 19629, "conquer": 16152, "manned": 15371, "translator": 11403, "astonishment": 23819, "297": 27502, "##sight": 25807, "lyricist": 19489, "elections": 3864, "dots": 14981, "##ingham": 16445, "planetary": 17700, "##cano": 23803, "##\u208e": 30088, "##\u093f": 29877, "\u02b0": 1140, "puerto": 5984, "retrieved": 5140, "mandolin": 17687, "clung": 14752, "conscription": 26329, "regression": 26237, "reborn": 24910, "stabilized": 27697, "##non": 8540, "##nya": 17238, "##working": 21398, "markers": 16387, "##relli": 22948, "upgraded": 9725, "##ulu": 20391, "325": 19652, "housekeeper": 22583, "tavern": 13090, "mostly": 3262, "orbital": 13943, "profit": 5618, "judges": 6794, "immature": 26838, "everywhere": 7249, "abandoning": 19816, "chests": 28717, "prized": 25695, "losing": 3974, "clicking": 22042, "advanced": 3935, "heath": 9895, "duration": 9367, "36th": 21460, "scuba": 28651, "identifying": 12151, "##thes": 24138, "parcel": 20463, "inspection": 10569, "arenas": 26434, "[unused488]": 493, "sikh": 17246, "dave": 4913, "##ored": 19574, "##marine": 21966, "\u03bf": 1169, "##ech": 15937, "##\u2194": 30115, "challenger": 12932, "##ange": 22043, "parcels": 28998, "51": 4868, "floral": 18686, "gravely": 28070, "york": 2259, "monopoly": 15404, "##\u221e": 30128, "##fer": 7512, "conform": 23758, "sol": 14017, "##ractive": 26884, "topic": 8476, "##keeper": 13106, "##tidae": 21861, "lived": 2973, "engaging": 11973, "schedules": 20283, "refurbished": 18662, "screamed": 7210, "water": 2300, "##rise": 29346, "modification": 14080, "##dian": 11692, "shen": 21882, "pierced": 16276, "transylvania": 20816, "sabres": 26969, "synthesizer": 13564, "[unused129]": 134, "dubious": 22917, "\u1019": 1437, "bisexual": 22437, "gag": 18201, "boyfriend": 6898, "##ba": 3676, "arched": 9194, "awakened": 20256, "mr": 2720, "1600": 14883, "finely": 22126, "stalk": 23899, "discoveries": 15636, "cylinders": 18729, "props": 24387, "jogged": 27812, "mammoth": 23714, "##gli": 25394, "welding": 23604, "##\u0563": 29768, "##tila": 26065, "189": 20500, "##ooping": 29046, "##erine": 24226, "##ayton": 29319, "stay": 2994, "##inates": 28184, "##sphere": 23874, "##\u099f": 29895, "summers": 10945, "fractured": 21726, "lucia": 12337, "##lva": 22144, "##strel": 26877, "##\u4e95": 30280, "remington": 25282, "sac": 17266, "13th": 6122, "francisco": 3799, "kim": 5035, "kn": 14161, "liberty": 7044, "debut": 2834, "table": 2795, "brahms": 28419, "gracie": 19005, "##sky": 5874, "##lford": 23211, "ap": 9706, "brest": 22451, "takahashi": 25585, "bush": 5747, "outlined": 14801, "305": 20405, "\u0569": 1224, "terry": 6609, "##ndt": 26379, "acute": 11325, "lola": 15137, "27th": 15045, "originates": 16896, "\u0baa": 1388, "traps": 16735, "penned": 17430, "remembrance": 19451, "##star": 14117, "truncated": 25449, "conversion": 7584, "course": 2607, "##rent": 22787, "bey": 20289, "eagerly": 17858, "##kko": 22426, "leads": 5260, "banged": 22843, "gratitude": 15531, "##lik": 18393, "##sa": 3736, "##orro": 29459, "\u7687": 1917, "jayne": 24408, "improvisation": 24584, "\u4f8d": 1765, "insert": 19274, "mothers": 10756, "owners": 5608, "##mine": 11233, "renovations": 15576, "sousa": 28535, "globalization": 24370, "budget": 5166, "philips": 19087, "slant": 27474, "billion": 4551, "raymond": 7638, "accurately": 14125, "hannah": 8410, "\u20a4": 1572, "blogger": 28205, "religious": 3412, "\u3068": 1666, "\u266f": 1628, "seed": 6534, "evaluating": 23208, "\u4e95": 1754, "##\u00d7": 26306, "securing": 12329, "sparrow": 19479, "islands": 3470, "ana": 9617, "negative": 4997, "\u20a9": 1573, "somerville": 27209, "flex": 23951, "mercy": 8673, "translate": 17637, "cartridges": 22998, "##rance": 21621, "aiding": 24791, "indies": 9429, "favourite": 8837, "uganda": 10031, "computation": 22334, "##\u0937": 29873, "joins": 9794, "ruin": 10083, "##ties": 7368, "unaffected": 24720, "considerable": 6196, "mystical": 17529, "ot": 27178, "epsilon": 28038, "wait": 3524, "upset": 6314, "prague": 8634, "opt": 23569, "guitarists": 28523, "fisheries": 13424, "headlined": 25214, "exploited": 18516, "[unused667]": 672, "313": 22997, "-": 1011, "realize": 5382, "persisted": 19035, "patrolling": 24248, "swarm": 21708, "##rain": 21166, "progressed": 12506, "\u5065": 1768, "\u1d64": 1509, "gallantry": 22111, "##nai": 26416, "take": 2202, "humidity": 18213, "##\u0f44": 29963, "##hurst": 10510, "loser": 10916, "notre": 10289, "##\u211d": 30107, "guinness": 17323, "mammals": 11993, "officer": 2961, "tower": 3578, "squads": 20191, "16": 2385, "maori": 12600, "obsession": 17418, "##ake": 13808, "victories": 9248, "hermitage": 24708, "stabilization": 28715, "touring": 6828, "##gizing": 28660, "##rsk": 27472, "copper": 6967, "##xide": 19491, "ensemble": 7241, "shards": 23327, "hardly": 6684, "ramps": 24943, "equilibrium": 14442, "smarter": 25670, "extracted": 15901, "ranked": 4396, "##lite": 22779, "##rson": 17753, "nearer": 20388, "camp": 3409, "qb": 26171, "jimmie": 24671, "repaired": 13671, "devi": 14386, "\u30e7": 1730, "##sca": 15782, "bar": 3347, "##coe": 16288, "1650": 21875, "##\u06be": 29844, "coin": 9226, "joe": 3533, "\u30b7": 1706, "##roll": 28402, "biographies": 22056, "searches": 17193, "\u30af": 1702, "festivals": 7519, "\u300a": 1639, "caller": 20587, "styx": 21856, "joke": 8257, "##tten": 25970, "[unused475]": 480, "lucan": 20764, "starring": 4626, "kissing": 7618, "delivering": 12771, "perceived": 8690, "league": 2223, "alert": 9499, "\u10e1": 1452, "inspecting": 29508, "congenital": 27480, "narratives": 22143, "nucleus": 13502, "easton": 21636, "marty": 12578, "kellan": 19697, "fantasies": 21233, "viceroy": 19007, "khmer": 19472, "prevalence": 20272, "clothes": 4253, "cuisine": 12846, "pursue": 7323, "devils": 13664, "about": 2055, "archbishop": 6507, "detonated": 28110, "##\u03b8": 29725, "conclusions": 15306, "asia": 4021, "seemingly": 9428, "egyptians": 23437, "ryder": 11731, "economics": 5543, "##\u0936": 29872, "reed": 7305, "conner": 17639, "vinnie": 24214, "manage": 6133, "says": 2758, "wives": 10403, "bomb": 5968, "while": 2096, "expresses": 16783, "battalion": 4123, "##gano": 29451, "supposedly": 10743, "simulate": 26633, "tract": 12859, "longer": 2936, "\u6b66": 1889, "nikolai": 13870, "least": 2560, "park": 2380, "##lho": 28061, "##\u2154": 30110, "chimneys": 28885, "730": 28004, "paved": 12308, "apron": 20376, "locomotives": 7830, "bumps": 18548, "##\u4eee": 30287, "##\u30af": 30228, "adamant": 29502, "tempo": 13657, "\u045a": 1216, "##zione": 20574, "westwood": 21730, "reprinted": 13603, "[unused607]": 612, "realizes": 10919, "archdeacon": 21742, "desk": 4624, "tolerant": 23691, "##\u0635": 29826, "##car": 10010, "kerala": 8935, "refusal": 13948, "edna": 21051, "[PAD]": 0, "bundesliga": 14250, "fl": 13109, "edition": 3179, "realised": 11323, "\u00b2": 1082, "elementary": 4732, "ghetto": 17276, "mob": 11240, "blossom": 20593, "##\u0987": 29885, "##stor": 23809, "counseling": 17041, "engineered": 13685, "hermes": 24127, "privilege": 14293, "prohibits": 25822, "##right": 15950, "modeled": 14440, "spy": 8645, "loans": 10940, "protection": 3860, "banging": 22255, "downwards": 28457, "##ys": 7274, "mobilized": 27526, "dickinson": 17590, "dismounted": 29580, "observes": 24451, "[unused697]": 702, "331": 27533, "directory": 14176, "felony": 24648, "hyderabad": 13624, "##\u207a": 12744, "##\u0440": 16856, "corrections": 20983, "##ta": 2696, "dancing": 5613, "##\u00ac": 29655, "##ones": 21821, "mccann": 28641, "xiv": 15939, "##rid": 14615, "jacqueline": 17551, "typed": 21189, "loss": 3279, "##unk": 16814, "##icative": 25184, "\u201a": 1522, "gingerly": 26961, "maid": 10850, "##dberg": 25190, "\u58eb": 1807, "accumulation": 20299, "lumber": 13891, "scattering": 17501, "terminate": 20320, "cute": 10140, "injustice": 21321, "haitian": 21404, "aires": 9149, "277": 25578, "wilde": 18575, "nazareth": 27192, "820": 26667, "generates": 19421, "##stle": 22516, "robbery": 13742, "evaluation": 9312, "##\u1d48": 30034, "##\u0638": 29829, "dig": 10667, "chaotic": 19633, "controllers": 21257, "spelling": 11379, "confederate": 8055, "row": 5216, "holden": 9988, "subway": 10798, "chopra": 28826, "locals": 10575, "mean": 2812, "bas": 19021, "ringo": 25589, "selena": 19166, "##ives": 24653, "caucasus": 16512, "hubert": 15346, "##ald": 19058, "gladys": 22386, "unseen": 16100, "##ye": 6672, "steadily": 11328, "##bos": 15853, "showing": 4760, "gregory": 7296, "compelled": 15055, "concerned": 4986, "##\u044a": 29755, "recognition": 5038, "phrases": 15672, "##cula": 19879, "##eg": 13910, "##rted": 17724, "cramped": 22766, "jena": 27510, "zeppelin": 22116, "flexed": 24244, "kobe": 24113, "##drive": 23663, "reckon": 29072, "kevin": 4901, "campeonato": 17675, "##wig": 16279, "##zog": 28505, "emphasizing": 22671, "enthusiastically": 24935, "burton": 9658, "exhibited": 8176, "occurs": 5158, "##iki": 17471, "cells": 4442, "ascent": 16354, "[unused115]": 120, "graded": 21976, "visible": 5710, "morrison": 9959, "alvarez": 16309, "deserted": 12768, "##\u0561": 29766, "aj": 19128, "lindsay": 12110, "olga": 15585, "sharpe": 22147, "suggested": 4081, "sticky": 15875, "anyway": 4312, "##ib": 12322, "aside": 4998, "##hem": 29122, "booth": 9065, "universities": 5534, "##ories": 18909, "providence": 11293, "analogous": 19639, "##\u06d2": 29846, "illustrious": 26150, "leadership": 4105, "248": 24568, "uber": 19169, "detainees": 26485, "citing": 8951, "samoa": 15075, "processed": 13995, "madison": 7063, "jeremy": 7441, "##ressed": 16119, "ignoring": 9217, "rn": 29300, "motel": 14901, "circles": 7925, "quarterly": 12174, "phylogenetic": 23192, "charged": 5338, "drove": 5225, "##quel": 22197, "##\u2082": 8229, "islamabad": 26905, "##beau": 26401, "##uma": 12248, "##\u5b87": 30345, "giro": 19226, "inhibitor": 24054, "050": 28714, "jakarta": 14426, "##ido": 13820, "breakfast": 6350, "minh": 19538, "1737": 26738, "at": 2012, "iucn": 20333, "respecting": 27818, "amend": 27950, "reich": 14365, "[unused508]": 513, "composing": 16572, "junk": 18015, "jameson": 22324, "newest": 14751, "popcorn": 24593, "threaded": 26583, "stemmed": 27674, "215": 17405, "##ncies": 14767, "arabs": 14560, "hahn": 24266, "edwin": 10049, "montenegrin": 24099, "shanghai": 8344, "unbeaten": 20458, "armament": 14410, "surgery": 5970, "lagoon": 15825, "elevator": 7764, "protested": 11456, "headline": 17653, "fountain": 9545, "arguing": 9177, "burkina": 23089, "[unused614]": 619, "rejection": 13893, "prize": 3396, "surgeon": 9431, "##cake": 17955, "collier": 20466, "\u00a6": 1072, "longest": 6493, "enraged": 18835, "swamp": 11963, "posters": 14921, "harvest": 11203, "expeditionary": 15372, "##rrie": 22155, "##oga": 18170, "##ieri": 21939, "correspond": 17254, "theorem": 9872, "organise": 22933, "anchors": 24674, "doncaster": 18895, "accent": 9669, "privileged": 21598, "going": 2183, "gel": 21500, "suitable": 7218, "\u209a": 1569, "wherein": 16726, "lucille": 28016, "st": 2358, "candi": 27467, "savannah": 10891, "##\u00bb": 29663, "##uld": 21285, "bloomfield": 25584, "jana": 23341, "##cana": 28621, "171": 18225, "highway": 3307, "##\u0dba": 29940, "##for": 29278, "jacobite": 28725, "calculus": 19276, "bop": 29432, "enrolled": 8302, "z": 1062, "sophomore": 13758, "=": 1027, "exports": 14338, "whiskey": 13803, "ready": 3201, "##adt": 18727, "libertarian": 19297, "##national": 25434, "nearest": 7205, "representatives": 4505, "jointly": 10776, "arbitrary": 15275, "demonstrators": 28337, "##\u4e0a": 30268, "barracks": 10492, "disguise": 14249, "##scope": 26127, "redhead": 26705, "##athy": 17308, "denim": 26762, "foundation": 3192, "[unused482]": 487, "frequencies": 13139, "flair": 22012, "##\u094b": 29879, "guangzhou": 18693, "##\u30c6": 30239, "mercenary": 22146, "homeless": 11573, "ltd": 5183, "##inho": 29344, "kyle": 7648, "##elle": 14774, "humans": 4286, "1831": 10937, "precautions": 29361, "surreal": 16524, "info": 18558, "##trics": 29392, "\u063a": 1289, "secretariat": 15128, "buddhism": 11388, "capped": 13880, "security": 3036, "##hone": 27406, "##uno": 27819, "soils": 13622, "ecosystems": 20440, "forewings": 13211, "daly": 18509, "identified": 4453, "gardner": 11764, "showcases": 27397, "##sor": 21748, "junction": 5098, "apex": 13450, "nautical": 11339, "jurisprudence": 24697, "trend": 9874, "dora": 21008, "custody": 9968, "baccalaureate": 27802, "tribe": 5917, "bis": 20377, "groin": 20092, "bother": 8572, "##fall": 13976, "squat": 26783, "due": 2349, "[unused944]": 949, "confessed": 14312, "heller": 25038, "integrity": 11109, "smack": 21526, "shifted": 5429, "trends": 12878, "kilometer": 20595, "##oning": 13369, "\u0928": 1327, "tease": 18381, "relay": 8846, "far": 2521, "figured": 6618, "##wt": 26677, "##rt": 5339, "ptolemy": 23517, "maha": 24404, "pan": 6090, "scientology": 23845, "\u0647": 1297, "1835": 10150, "fis": 27424, "clipped": 20144, "610": 19827, "sarcastic": 22473, "[unused869]": 874, "rooted": 15685, "snuggled": 26867, "ruthless": 18101, "##games": 26393, "vox": 29450, "##ura": 4648, "galileo": 21514, "votes": 4494, "smashed": 14368, "##tua": 26302, "translation": 5449, "faster": 5514, "reassured": 26350, "##ago": 23692, "ultimatum": 29227, "mikhail": 11318, "bird": 4743, "stats": 26319, "interviewing": 27805, "motivation": 14354, "flank": 12205, "brooding": 28902, "compositions": 9265, "homestead": 14473, "terraces": 25633, "cheek": 5048, "lifts": 13695, "##\u0459": 29762, "vacuum": 11641, "cobalt": 25627, "fisted": 28273, "off": 2125, "backdrop": 18876, "\u0283": 1130, "boycott": 17757, "infections": 15245, "gal": 14891, "dependent": 7790, "horst": 28565, "playstation": 9160, "arch": 7905, "santos": 11053, "peter": 2848, "ming": 11861, "nunez": 28454, "willingly": 18110, "##quist": 18331, "##kit": 23615, "darrell": 23158, "\u4ecb": 1759, "amman": 25703, "desperation": 15561, "##\u0291": 29703, "parishes": 11600, "unconscious": 9787, "belgian": 6995, "stretches": 14082, "molecular": 8382, "chief": 2708, "abolished": 8961, "##face": 12172, "mantle": 16019, "##31": 21486, "delivery": 6959, "step": 3357, "##\u30c8": 30240, "##tarian": 28897, "sire": 15785, "release": 2713, "##jure": 25243, "honoring": 21494, "agra": 29542, "sunken": 23470, "assistants": 16838, "braid": 24148, "owes": 24381, "##dou": 26797, "substrate": 16305, "helium": 22764, "twain": 24421, "started": 2318, "##rize": 25709, "sonny": 13584, "wren": 16255, "locker": 12625, "ashes": 11289, "array": 9140, "fuels": 20145, "laurie": 16450, "vegas": 7136, "closer": 3553, "[unused9]": 10, "[unused179]": 184, "##nikov": 22576, "turnout": 15512, "repairing": 26296, "byrne": 14928, "maine": 7081, "competition": 2971, "super": 3565, "northeastern": 8763, "commemorates": 25530, "ripped": 9157, "maclean": 22528, "skier": 21294, "govt": 22410, "reproduction": 14627, "highs": 26836, "raft": 21298, "roc": 21326, "\"": 1000, "dominating": 21949, "[unused892]": 897, "blanket": 8768, "invention": 11028, "monastery": 6408, "##\u099a": 29892, "##llation": 20382, "[unused719]": 724, ",": 1010, "sniper": 17515, "denise": 15339, "shirley": 11280, "ta": 11937, "gaps": 16680, "thompson": 5953, "calvert": 24800, "bt": 18411, "withdrawing": 21779, "higher": 3020, "ranking": 5464, "relief": 4335, "1702": 26776, "ubiquitous": 28498, "proposition": 14848, "municipalities": 7602, "washington": 2899, "correct": 6149, "lease": 10084, "antoinette": 28429, "motifs": 17366, "\u0e01": 1409, "\u00a3": 1069, "touchdown": 7921, "charted": 12568, "trondheim": 26331, "\u0570": 1228, "[unused437]": 442, "##vus": 27500, "severn": 24753, "shandong": 25768, "purse": 8722, "##ngo": 16656, "kimberly": 23729, "tends": 12102, "beck": 10272, "electoral": 6092, "edith": 13257, "greatly": 6551, "seminars": 17239, "photon": 26383, "##ul": 5313, "filly": 22062, "guilt": 8056, "cone": 13171, "rams": 13456, "daughters": 5727, "191": 19871, "hymn": 14825, "07": 5718, "storage": 5527, "residing": 7154, "##ums": 18163, "charter": 6111, "consultation": 16053, "rising": 4803, "nestor": 25397, "wallet": 15882, "commented": 7034, "amos": 13744, "##pher": 27921, "salmon": 11840, "lips": 2970, "easily": 4089, "##gus": 12349, "1939": 3912, "[unused141]": 146, "loaned": 13190, "gown": 11739, "mandarin": 15831, "pepper": 11565, "##giri": 23243, "brute": 26128, "herring": 22103, "recognised": 7843, "jung": 11810, "##minating": 27932, "casualties": 8664, "acclaimed": 10251, "##\u3068": 30192, "digging": 10443, "statue": 6231, "ceylon": 16447, "classic": 4438, "worm": 15485, "irvine": 16272, "tongue": 4416, "421": 29403, "actresses": 19910, "horribly": 27762, "advantage": 5056, "##fera": 27709, "##lak": 23451, "hilltop": 25566, "sequels": 25815, "##\u03c3": 29733, "amidst": 17171, "##kken": 24192, "striker": 11854, "kabul": 21073, "reaches": 6561, "cassette": 13903, "pauses": 19623, "graders": 23256, "infancy": 22813, "liang": 16982, "incorporating": 13543, "appleton": 26050, "[unused458]": 463, "disappointment": 10520, "##phine": 20738, "forwards": 19390, "\u0254": 1112, "##\u4f8d": 30291, "choreographer": 17334, "customary": 16120, "stacks": 20829, "translators": 28396, "\u0f0d": 1425, "##ede": 14728, "believes": 7164, "juris": 27551, "expulsion": 18272, "hammering": 27883, "##eria": 11610, "1743": 25615, "universite": 22176, "tides": 22487, "cyclists": 21912, "\u91ce": 1963, "caribbean": 7139, "chords": 18495, "##itz": 8838, "neurological": 23130, "exercise": 6912, "keyboardist": 20173, "[unused77]": 78, "bowman": 19298, "squealed": 26175, "##bor": 12821, "newbury": 29457, "picasso": 22457, "##lee": 10559, "[unused336]": 341, "308": 24232, "ve": 2310, "##\u05d5": 29792, "##piece": 11198, "##ler": 3917, "sinclair": 11881, "gifts": 9604, "sometimes": 2823, "khorasan": 23225, "coroner": 22896, "leslie": 8886, "faction": 10233, "filming": 7467, "\u2021": 1527, "dryly": 20825, "##ently": 28198, "influx": 18050, "billing": 25640, "smackdown": 22120, "preparations": 12929, "overland": 21400, "teach": 6570, "originating": 14802, "##d": 2094, "118": 12963, "##ar": 2906, "##\u0e2a": 29956, "blanche": 18158, "battles": 7465, "lap": 5001, "fancy": 11281, "fairies": 20182, "taste": 5510, "catalogue": 10161, "[unused675]": 680, "stream": 5460, "kits": 18628, "slams": 25967, "sounding": 9391, "returning": 4192, "##var": 10755, "disputed": 11621, "sky": 3712, "##\u798f": 30452, "dylan": 7758, "upward": 10745, "kazakh": 25907, "##boy": 11097, "##sian": 17043, "kids": 4268, "taluk": 23140, "dreaming": 12802, "##lete": 25890, "andhra": 14065, "sane": 22856, "womb": 26578, "spanning": 13912, "emilia": 20417, "antibodies": 22931, "odessa": 19693, "##phonic": 27385, "[unused96]": 97, "qualifier": 10981, "encouraged": 6628, "bosnia": 9562, "turf": 14585, "pacing": 15732, "\u2032": 1531, "bahadur": 21715, "myths": 17218, "slips": 17433, "millions": 8817, "thomson": 11161, "entire": 2972, "##dya": 25838, "symbolic": 12613, "[unused595]": 600, "evergreen": 16899, "##eville": 21187, "##trick": 22881, "soup": 11350, "lds": 17627, "##cts": 16649, "principal": 4054, "2000": 2456, "announcer": 14073, "##lika": 25421, "receivers": 19278, "freedom": 4071, "resort": 7001, "semifinal": 16797, "loan": 5414, "gilded": 23880, "they": 2027, "recommendations": 11433, "##ports": 25378, "##inae": 16414, "##ache": 15395, "ranch": 8086, "upbringing": 24615, "insurrection": 27860, "composite": 12490, "palestinian": 9302, "fished": 26281, "prism": 26113, "processes": 6194, "blind": 6397, "##dern": 25888, "sparked": 13977, "missionaries": 11743, "recognizing": 14622, "drainage": 11987, "indicate": 5769, "trails": 9612, "boundary": 6192, "amc": 21962, "silly": 10021, "##\u0131": 11722, "archdiocese": 12658, "##ounded": 26240, "broadway": 5934, "tested": 7718, "morale": 19292, "##hly": 27732, "beginning": 2927, "pointed": 4197, "steward": 17946, "canteen": 26449, "cathy": 18305, "ida": 16096, "minimize": 18478, "sarah": 4532, "bracelet": 19688, "[unused119]": 124, "1799": 13839, "##rs": 2869, "greenwich": 13861, "subdivisions": 22095, "piles": 18526, "##io": 3695, "hydrogen": 9732, "##\u0574": 29776, "lower": 2896, "[unused847]": 852, "skater": 18815, "believers": 20373, "manga": 8952, "locke": 18343, "determination": 9128, "aspect": 7814, "williams": 3766, "excellent": 6581, "discarded": 15105, "rid": 9436, "[unused899]": 904, "pedestrians": 24946, "goo": 27571, "[unused504]": 509, "peng": 26473, "sources": 4216, "ruined": 9868, "##eded": 19082, "##ols": 27896, "exhibition": 4538, "unitarian": 25477, "overs": 15849, "royale": 24483, "##ap": 9331, "driven": 5533, "##tute": 24518, "[unused429]": 434, "siena": 23754, "##wire": 20357, "1913": 5124, "##uding": 24539, "adjustment": 19037, "exercising": 28428, "nesting": 21016, "selections": 16310, "shutting": 17521, "topics": 7832, "bang": 9748, "241": 22343, "standard": 3115, "dance": 3153, "cody": 13326, "siding": 17326, "angelina": 23847, "nasa": 9274, "chunks": 24839, "tires": 13310, "vet": 29525, "contrasting": 22133, "entrepreneurship": 20213, "speechless": 25146, "##9th": 25660, "bard": 22759, "meyer": 11527, "##avian": 21654, "carver": 20163, "abdomen": 13878, "soul": 3969, "alzheimer": 21901, "prospect": 9824, "judo": 19083, "averages": 20185, "pastures": 24813, "calculation": 17208, "\u0564": 1222, "forgiveness": 17213, "forearms": 27323, "tangent": 27250, "announce": 14970, "sit": 4133, "communities": 4279, "##enbach": 21409, "##e": 2063, "detect": 11487, "##onal": 16026, "bilateral": 17758, "concession": 16427, "422": 29269, "alloy": 17564, "##gy": 6292, "amar": 23204, "##ull": 18083, "disgrace": 29591, "\u0e07": 1410, "speaker": 5882, "1664": 28485, "dark": 2601, "[unused619]": 624, "anthologies": 25675, "marketed": 11625, "##a1": 27717, "##uter": 19901, "periodical": 21802, "[unused875]": 880, "miraculous": 26106, "miriam": 16925, "backseat": 19978, "##kyu": 23076, "170": 10894, "margarita": 24570, "##dah": 18417, "[unused276]": 281, "hard": 2524, "huddled": 20258, "lotus": 13030, "neumann": 22860, "##dad": 14697, "newt": 25597, "gods": 5932, "geese": 28519, "quit": 8046, "inhuman": 29582, "wee": 16776, "cavalry": 5945, "distracting": 25012, "merlin": 15993, "110": 7287, "cube": 14291, "penetrate": 19136, "averaged": 11398, "jamie": 6175, "cruelty": 18186, "cale": 21854, "##ine": 3170, "monde": 23117, "decorations": 14529, "grimes": 24865, "gloom": 24067, "virtually": 8990, "hezbollah": 25713, "octagonal": 22340, "hydroelectric": 18541, "rendezvous": 20558, "turbulent": 22609, "##ensis": 9911, "subgenus": 25356, "subtropical": 11935, "04": 5840, "ile": 17869, "cade": 18615, "defects": 18419, "rehearsal": 17887, "tenor": 9534, "##lding": 24573, "##hide": 26100, "##pw": 28400, "commit": 10797, "shaking": 5513, "budapest": 10926, "justin": 6796, "##night": 15864, "##mir": 14503, "biochemistry": 22419, "isle": 8842, "controversial": 6801, "mineral": 9754, "shift": 5670, "samson": 18375, "##oux": 28700, "resources": 4219, "root": 7117, "##erted": 28728, "prizes": 11580, "ry": 29431, "\u5317": 1781, "combined": 4117, "1550": 26245, "oversight": 15709, "thoughtfully": 19897, "lawn": 10168, "liking": 16663, "nec": 26785, "##dhi": 19114, "aiden": 15086, "lobes": 24423, "johannes": 12470, "centers": 6401, "pump": 10216, "##ergy": 24395, "[unused100]": 105, "credits": 6495, "swim": 9880, "boots": 6879, "28th": 15538, "esther": 14631, "development": 2458, "\u7f8e": 1935, "\u767d": 1915, "bound": 5391, "supervisory": 26653, "gestures": 18327, "splits": 19584, "versa": 18601, "franciscan": 19420, "alexandre": 16971, "shreveport": 23740, "influences": 8092, "unidentified": 20293, "kara": 13173, "##\u27e9": 30156, "air": 2250, "kitchen": 3829, "hooks": 18008, "avoidance": 24685, "##iard": 14619, "##it": 4183, "manually": 21118, "alf": 24493, "sherman": 11011, "##ak": 4817, "##mmy": 18879, "holy": 4151, "dissolve": 21969, "rv": 27634, "reigning": 16323, "coveted": 28821, "\u067e": 1302, "##lain": 15987, "##jana": 18803, "comprising": 9605, "65": 3515, "yielded": 17544, "zagreb": 12974, "strife": 27865, "gaelic": 11196, "youngest": 6587, "seeded": 13916, "neighborhood": 5101, "##oic": 19419, "##rford": 26430, "##rney": 27114, "plants": 4264, "duc": 26363, "##zie": 14272, "bowls": 15220, "victorious": 13846, "##ny": 4890, "[unused636]": 641, "##ital": 18400, "judith": 12924, "execution": 7781, "##grove": 21525, "sticking": 13423, "##dek": 24463, "michigan": 4174, "\u0e1e": 1414, "ministry": 3757, "starving": 18025, "terribly": 16668, "context": 6123, "tricks": 12225, "happen": 4148, "[unused518]": 523, "nk": 25930, "apt": 26794, "fluent": 19376, "1970": 3359, "urgent": 13661, "receipts": 28258, "##\u266f": 30154, "insects": 9728, "precursor": 14988, "mistake": 6707, "sahib": 23513, "bites": 15424, "street": 2395, "instructional": 23219, "##sai": 15816, "mayo": 14415, "planck": 26486, "yu": 9805, "stirring": 18385, "uncredited": 8104, "boarded": 17383, "uncommon": 13191, "approx": 22480, "radio": 2557, "skinner": 17451, "richie": 14411, "##\u5b50": 30342, "airplay": 15341, "plotting": 20699, "risked": 22374, "devotees": 22707, "joint": 4101, "ab": 11113, "##enburg": 12059, "hopeful": 17772, "ras": 20710, "quad": 17718, "##rdon": 28176, "complaint": 12087, "102": 9402, "##inatory": 28230, "jacob": 6213, "vols": 18709, "padres": 21577, "##kowski": 15449, "sums": 20571, "\u0640": 1290, "widows": 24835, "##uance": 26620, "standardization": 28648, "exclusive": 7262, "oversized": 21698, "macintosh": 22228, "garion": 12523, "chicken": 7975, "evolve": 19852, "laborers": 23428, "popularity": 6217, "impressions": 19221, "##ping": 4691, "technique": 6028, "sheets": 8697, "quantity": 11712, "critique": 16218, "nair": 22525, "##pled": 21132, "closeness": 28398, "bumper": 21519, "folds": 15439, "dresser": 16641, "sakura": 23066, "artemis": 19063, "\u0292": 1138, "##zbek": 28733, "volumes": 6702, "shenzhen": 26555, "shot": 2915, "privileges": 14310, "christ": 4828, "1604": 28754, "purchase": 5309, "##ritan": 25279, "choices": 9804, "ar": 12098, "##ita": 6590, "##\u0279": 29691, "saskatchewan": 10068, "rudd": 25298, "configurations": 22354, "messing": 22308, "card": 4003, "elgin": 23792, "##sboro": 25623, "##65": 26187, "guitars": 7334, "birch": 16421, "velocity": 10146, "kimberley": 25004, "socially": 14286, "everest": 23914, "cultural": 3451, "azerbaijan": 8365, "avid": 18568, "curve": 7774, "dublin": 5772, "attain": 18759, "galleries": 11726, "embraced": 14218, "prosperity": 14165, "make": 2191, "##rma": 17830, "christianity": 7988, "[unused615]": 620, "quoting": 27394, "[unused907]": 912, "generate": 9699, "wooden": 4799, "lakers": 18264, "euros": 19329, "##nosis": 27109, "jeopardy": 26604, "instrumental": 6150, "scrap": 15121, "[unused791]": 796, "##\u30d2": 30245, "maldives": 25059, "##oh": 11631, "reports": 4311, "nut": 17490, "##sei": 20240, "switzerland": 5288, "proteins": 8171, "hansen": 13328, "1859": 8165, "unpublished": 19106, "neutron": 20393, "abundance": 14531, "bread": 7852, "educate": 16957, "reissued": 14805, "##vil": 14762, "anton": 9865, "##ivist": 21997, "tigers": 7600, "[unused823]": 828, "mate": 6775, "expanse": 22944, "proximity": 10039, "suburban": 9282, "access": 3229, "watts": 11042, "counselor": 17220, "holm": 28925, "##xa": 18684, "hospitals": 8323, "mormon": 15111, "##cend": 23865, "barbarians": 28056, "wisdom": 9866, "hooper": 23717, "engaged": 5117, "seals": 13945, "sharply": 9249, "evil": 4763, "ineligible": 22023, "remarked": 10783, "low": 2659, "##amina": 27651, "##frid": 27439, "[": 1031, "trajectory": 22793, "intentions": 11174, "moritz": 28461, "handbook": 14812, "marxist": 15511, "foot": 3329, "successes": 14152, "##fl": 10258, "1941": 3874, "lakshmi": 21352, "mls": 16287, "##vik": 13309, "\u06be": 1307, "##wart": 18367, "##fra": 27843, "[unused445]": 450, "cancers": 25409, "##iri": 15735, "chilled": 23362, "inhabitants": 4864, "##er": 2121, "kan": 22827, "tamil": 6008, "presidents": 11274, "callie": 20072, "crypt": 19888, "toro": 23790, "stalks": 29594, "\u099c": 1358, "contestant": 10832, "celtics": 23279, "differing": 16965, "deter": 28283, "1943": 3826, "sites": 4573, "backside": 25065, "[unused612]": 617, "prestigious": 8919, "##\u308a": 30212, "message": 4471, "##race": 22903, "\u028c": 1134, "gracefully": 28266, "amplifiers": 28633, "altitudes": 21973, "amara": 28599, "leary": 22986, "disclosure": 19380, "[unused668]": 673, "##nh": 25311, "[unused466]": 471, "##\u30a2": 30219, "minute": 3371, "worcester": 12539, "virtues": 21560, "employees": 5126, "drilling": 15827, "acceleration": 16264, "##\u0254": 29679, "mortar": 14335, "##ct": 6593, "##kk": 19658, "##class": 26266, "derbyshire": 15207, "1710": 23841, "golden": 3585, "durable": 25634, "coordinating": 19795, "premiere": 6765, "[unused484]": 489, "divisions": 5908, "##\u2020": 30061, "##sur": 26210, "[unused965]": 970, "borough": 5538, "##eter": 15141, "hawks": 12505, "hare": 14263, "##iman": 18505, "##\u6cbb": 30426, "lowest": 7290, "messenger": 11981, "doors": 4303, "vlad": 19163, "chevy": 29009, "##very": 27900, "ropes": 14607, "mid": 3054, "clasp": 23465, "1800": 9807, "##nstein": 15493, "strong": 2844, "feels": 5683, "\u30ce": 1717, "biology": 7366, "general": 2236, "salary": 10300, "##sas": 20939, "kyiv": 25669, "earned": 3687, "##iad": 28665, "##\u516b": 30297, "settle": 7392, "rufus": 18316, "improved": 5301, "417": 27519, "##ick": 6799, "##lova": 24221, "proposed": 3818, "fever": 9016, "##ctic": 13306, "heights": 7535, "##stadt": 21543, "http": 8299, "[unused799]": 804, "##gp": 21600, "seemed": 2790, "investors": 9387, "sands": 13457, "koppen": 20139, "possession": 6664, "##lish": 13602, "versatile": 22979, "##abas": 27537, "daze": 28918, "durban": 25040, "219": 20636, "bequeathed": 27180, "ismail": 19214, "bauer": 17838, "remnants": 11270, "tiger": 6816, "quick": 4248, "##bots": 27014, "stuffing": 28652, "territories": 6500, "cavendish": 23570, "spec": 28699, "minor": 3576, "##wai": 21547, "courtney": 14139, "##islaus": 25678, "worried": 5191, "cluster": 9324, "##rates": 20370, "cohen": 9946, "reject": 15454, "radios": 22229, "cooperation": 6792, "sideways": 12579, "whilst": 5819, "exercises": 11110, "alarmed": 19260, "##pped": 11469, "batch": 14108, "chet": 25157, "1975": 3339, "aggravated": 25817, "saves": 13169, "##ysis": 20960, "##dler": 21222, "##loe": 26846, "[unused275]": 280, "##\u5d0e": 30360, "typically": 4050, "##see": 19763, "\u533a": 1782, "doubled": 11515, "sul": 21396, "craftsmen": 25736, "trek": 10313, "owns": 8617, "piers": 16067, "memorials": 22899, "##kker": 23793, "##wheel": 22920, "mortgage": 14344, "beyonce": 20773, "ashe": 13402, "charleston": 10907, "fluid": 8331, "success": 3112, "##cre": 16748, "##\u09c0": 29916, "\u702c": 1905, "tend": 7166, "subsidy": 28768, "estadio": 14143, "thirties": 26313, "packing": 14743, "[unused738]": 743, "phillies": 15711, "##istles": 28738, "declaring": 13752, "local": 2334, "glamorgan": 23861, "tying": 15233, "sultanate": 21308, "kamen": 22099, "inventory": 12612, "baba": 14208, "crates": 27619, "periodicals": 21855, "imagined": 8078, "uses": 3594, "describing": 7851, "highland": 10983, "mechanically": 27846, "unfortunate": 15140, "apartment": 4545, "pots": 18911, "participant": 13180, "oracle": 14721, "regret": 9038, "fife": 20537, "illumination": 21203, "lashes": 16008, "rely": 11160, "pa": 6643, "ironic": 19313, "##sef": 20106, "goofy": 27243, "##bread": 27035, "paws": 24392, "hobbs": 23748, "heiress": 20020, "churchyard": 19812, "crabs": 26076, "mw": 12464, "treason": 14712, "drew": 3881, "\u0995": 1353, "crush": 10188, "##bf": 29292, "##\u0435\u0432\u0438\u0447": 22646, "rayon": 26810, "laird": 21964, "##ed": 2098, "137": 14989, "hovering": 16349, "razor": 15082, "zimbabwe": 11399, "##hips": 19801, "awkwardly": 18822, "##tani": 17681, "diffuse": 28105, "##ods": 20620, "descriptive": 22726, "haifa": 21303, "manufacturers": 8712, "marshes": 19257, "francis": 4557, "##laus": 28128, "##lah": 14431, "grasslands": 26183, "cheerleading": 25721, "directorial": 21635, "##ead": 13775, "tak": 27006, "arrested": 4727, "1646": 28783, "uv": 23068, "##nca": 20909, "galley": 27124, "almeida": 29555, "269": 25717, "norm": 13373, "builder": 12508, "gabby": 27183, "ars": 29393, "jennifer": 7673, "##ddling": 21814, "##rage": 24449, "amplitude": 22261, "mangrove": 29340, "sees": 5927, "##\u0909": 29849, "why": 2339, "inspected": 20456, "##\u05e6": 29809, "##rator": 16259, "\u5b9a": 1822, "az": 17207, "kingdom": 2983, "leaves": 3727, "lego": 23853, "on": 2006, "offered": 3253, "nj": 19193, "vortex": 23463, "monstrous": 21668, "voss": 24878, "##lein": 19856, "ensembles": 21528, "sadler": 29012, "mp3": 23378, "inception": 12149, "##sam": 21559, "considerations": 16852, "tinted": 25577, "ashford": 26545, "continent": 9983, "doubts": 13579, "poor": 3532, "elton": 19127, "\u0965": 1345, "minister": 2704, "ending": 4566, "progressive": 6555, "tapped": 10410, "fide": 26000, "module": 11336, "##ola": 6030, "##rge": 20800, "##agawa": 20812, "spines": 20352, "fleeting": 25085, "patiently": 19080, "tumors": 21434, "partner": 4256, "##oli": 10893, "wealth": 7177, "able": 2583, "hysterical": 25614, "np": 27937, "lois": 15815, "sumatra": 18262, "electrically": 29103, "diabetes": 14671, "##nagar": 14346, "punishment": 7750, "posthumously": 12770, "rev": 7065, "dwellings": 16707, "frankly": 19597, "##ava": 12462, "highness": 17114, "##chment": 22729, "decides": 7288, "partnered": 12404, "[unused389]": 394, "##llen": 12179, "swallowing": 18468, "wheeling": 29142, "##proof": 18907, "declines": 26451, "bane": 25163, "sausage": 24165, "\u0635": 1284, "integrating": 22380, "cities": 3655, "disused": 26958, "blackness": 19573, "futile": 24495, "bn": 24869, "chopin": 25479, "##nic": 8713, "pest": 20739, "shook": 3184, "replaced": 2999, "feeder": 21429, "connected": 4198, "vocal": 5554, "dizzy": 14849, "[unused88]": 89, "##nesia": 21509, "mukherjee": 27040, "mystic": 17477, "franchise": 6329, "obesity": 24552, "operator": 6872, "differently": 11543, "[unused6]": 7, "kindly": 19045, "earning": 7414, "rabbis": 25602, "argus": 25294, "##ama": 8067, "##erence": 20935, "##craft": 10419, "beams": 13110, "1840s": 19308, "arrogance": 24416, "##vita": 28403, "##gis": 17701, "##\u5b89": 30346, "togo": 23588, "##inking": 29377, "diplomatic": 8041, "75": 4293, "[unused657]": 662, "darkened": 13755, "crop": 10416, "emission": 15760, "denote": 19090, "revelation": 11449, "oasis": 18128, "wink": 16837, "copying": 24731, "50th": 12951, "facade": 8508, "amounted": 18779, "basque": 13915, "rent": 9278, "anniversary": 5315, "vase": 18781, "##ear": 14644, "interventions": 19388, "strategic": 6143, "ruins": 8435, "\u0997": 1355, "compared": 4102, "ruler": 7786, "officials": 4584, "##eng": 13159, "weddings": 20429, "fell": 3062, "[unused866]": 871, "destroy": 6033, "##lo": 4135, "paperback": 13611, "sandals": 24617, "stitches": 25343, "chestnut": 15655, "serving": 3529, "nope": 16780, "##\u4f50": 30290, "nik": 23205, "classics": 10002, "grasped": 15517, "manly": 19385, "[unused754]": 759, "##etti": 18319, "probable": 15596, "pittsburgh": 6278, "cook": 5660, "ballad": 11571, "##nio": 27678, "sincere": 18006, "immaculate": 19532, "[unused577]": 582, "presidential": 4883, "mouthful": 28462, "##ragan": 28905, "##udes": 22087, "outburst": 27719, "enrichment": 27226, "bbc": 4035, "\u201d": 1524, "organic": 7554, "1774": 17593, "approached": 5411, "mcdowell": 25005, "\u5b97": 1821, "1697": 28690, "tab": 21628, "##kel": 11705, "buren": 29470, "edgar": 9586, "[unused816]": 821, "equivalence": 27841, "relaxed": 8363, "##mise": 28732, "\u0291": 1137, "sumner": 23922, "##sie": 11741, "beside": 3875, "leaks": 29324, "reid": 9027, "ik": 20912, "steering": 9602, "donald": 6221, "acknowledge": 13399, "excavated": 15199, "automated": 12978, "nectar": 24816, "informs": 15670, "\u65b0": 1862, "projected": 11310, "educator": 11490, "puppet": 13997, "##icum": 22167, "early": 2220, "38th": 22051, "negligence": 27988, "effects": 3896, "##ively": 14547, "employing": 15440, "reflecting": 10842, "##ude": 12672, "##systems": 29390, "##aging": 16594, "provoke": 27895, "federation": 4657, "##oese": 23379, "diagnosed": 11441, "relic": 24933, "indictment": 24265, "shame": 9467, "##ioned": 19798, "fairs": 21947, "\u03b1": 1155, "studies": 2913, "downstream": 13248, "ottawa": 8166, "gut": 9535, "whereby": 13557, "maroon": 22222, "curse": 8364, "knockout": 11369, "rna": 12987, "peyton": 17931, "academics": 15032, "hillary": 18520, "agents": 6074, "tr": 19817, "rc": 22110, "##bled": 23242, "democrat": 7672, "eating": 5983, "##pot": 11008, "amour": 21518, "dwarfs": 28984, "ripping": 17039, "shaun": 16845, "debt": 7016, "turtles": 16489, "1992": 2826, "slid": 4934, "panicked": 16035, "galen": 21062, "delilah": 23006, "width": 9381, "saints": 6586, "mayoral": 23578, "defences": 16828, "runner": 5479, "monterey": 19860, "##lynn": 27610, "atmospheric": 12483, "fulfilled": 16829, "tasted": 12595, "crane": 11308, "excluded": 12421, "1864": 6717, "##wald": 11191, "tens": 15295, "unusual": 5866, "depending": 5834, "##iza": 21335, "ascot": 29036, "lightweight": 12038, "##ivar": 28739, "ominous": 23504, "diverted": 18356, "kate": 5736, "##\u03b3": 29721, "recruits": 15024, "1754": 22593, "torn": 7950, "addicted": 23042, "##\u05d6": 29793, "barked": 17554, "##\u0bae": 29925, "[unused156]": 161, "##inga": 28234, "inaugurated": 11070, "encoding": 17181, "[unused76]": 77, "vibrating": 24987, "[unused393]": 398, "spelled": 11479, "eve": 6574, "winger": 16072, "fucked": 21746, "reign": 5853, "mammal": 25476, "##rdi": 17080, "middlesex": 13654, "antiques": 27763, "merchandise": 16359, "carriage": 9118, "[unused545]": 550, "ushered": 23815, "##<": 29629, "charlie": 4918, "saturn": 14784, "hint": 9374, "graduates": 10845, "advocates": 13010, "[unused235]": 240, "virginity": 26970, "unbearable": 24257, "mildly": 19499, "1960s": 4120, "alderman": 18977, "concluding": 16228, "appetite": 18923, "railway": 2737, "society": 2554, "nowadays": 13367, "utrecht": 18361, "amanda": 8282, "civilians": 9272, "ideology": 13165, "socrates": 26772, "archie": 13255, "motorola": 29583, "[unused254]": 259, "narrower": 22546, "volleyball": 7454, "clarke": 8359, "##\u057e": 29782, "displaying": 14962, "fling": 27655, "occurrences": 27247, "hackney": 28425, "builders": 16472, "europa": 12124, "tremendous": 14388, "demographic": 15982, "congregation": 7769, "toyota": 11742, "crash": 5823, "broadcasters": 18706, "##ngen": 25997, "[unused368]": 373, "constituted": 11846, "gary": 5639, "##\u10d5": 29979, "\u305d": 1660, "widened": 8723, "##rts": 21217, "commence": 22825, "lister": 27177, "did": 2106, "iihf": 26904, "cater": 23488, "inability": 13720, "blush": 16688, "byrd": 17845, "men": 2273, "tony": 4116, "jin": 9743, "vocals": 2955, "##aceae": 18339, "triggered": 13330, "error": 7561, "yorkshire": 7018, "decreed": 28447, "quite": 3243, "\u897f": 1947, "##yer": 10532, "telangana": 23764, "assemble": 21365, "bikes": 18105, "stockton": 19161, "furiously": 20322, "academia": 16926, "mainland": 8240, "community": 2451, "##mers": 16862, "exact": 6635, "##zza": 20715, "##onic": 12356, "chili": 20238, "recalled": 7383, "foam": 17952, "flagship": 10565, "##\u00b5": 29659, "510": 23475, "injuring": 22736, "legitimacy": 22568, "opinion": 5448, "##wear": 16689, "voters": 7206, "migrating": 28636, "sect": 17831, "[unused743]": 748, "stranded": 15577, "##ya": 3148, "downed": 20164, "primary": 3078, "##lda": 15150, "disorders": 10840, "spilling": 18054, "involuntary": 26097, "[unused813]": 818, "polymers": 27216, "##bil": 14454, "talks": 7566, "maintained": 5224, "dail": 26181, "[unused114]": 119, "##ructured": 26134, "[unused470]": 475, "##enas": 26474, "##lash": 27067, "relations": 4262, "haas": 22996, "oldham": 18285, "##boats": 19468, "joining": 5241, "accolades": 27447, "##tsu": 10422, "##raphic": 20721, "molten": 23548, "wadi": 28380, "##rned": 21119, "dispersed": 15484, "testimony": 10896, "##eit": 20175, "fae": 17282, "\u30e1": 1726, "botswana": 19414, "cool": 4658, "##aus": 20559, "sunderland": 15518, "alliances": 21277, "\u09b7": 1375, "fourteenth": 15276, "indians": 6505, "dina": 26146, "gaga": 23332, "explicit": 13216, "##\u10dc": 29985, "##xes": 20156, "argent": 23157, "##nburg": 22642, "humour": 17211, "songs": 2774, "##ors": 5668, "caucasian": 23368, "masks": 15806, "motorway": 13119, "illness": 7355, "stupid": 5236, "heterosexual": 28229, "paragraph": 20423, "camille": 16675, "purchasing": 13131, "##\u2075": 30074, "angered": 18748, "tar": 16985, "breeders": 20823, "39": 4464, "##over": 7840, "donated": 6955, "principality": 18018, "[unused525]": 530, "range": 2846, "potion": 26722, "\u30de": 1723, "cruiser": 10844, "doctorate": 8972, "moran": 17866, "veterans": 8244, "##\u099b": 29893, "##loading": 18570, "investigation": 4812, "documenting": 23138, "selects": 27034, "boating": 23639, "sr": 5034, "tam": 17214, "zombie": 11798, "mccarthy": 12584, "martyrs": 18945, "apparently": 4593, "siemens": 22108, "prompting": 15870, "##tok": 18715, "yeah": 3398, "disciplinary": 17972, "hours": 2847, "constantin": 27991, "ames": 19900, "##odle": 26156, "spur": 12996, "backstroke": 28373, "\u79be": 1927, "affected": 5360, "uncertainty": 12503, "billionaire": 22301, "preservation": 8347, "vol": 5285, "toes": 10393, "rival": 6538, "educational": 4547, "children": 2336, "defence": 4721, "##hoff": 17896, "stale": 26729, "jimmy": 5261, "pardon": 14933, "##unds": 26698, "neighbourhoods": 27535, "pathogen": 26835, "drawing": 5059, "irs": 25760, "##itt": 12474, "\u30a1": 1692, "##\u207f": 30080, "delhi": 6768, "dream": 3959, "##bone": 14417, "craved": 25155, "maneuver": 17519, "##itan": 25451, "bombs": 9767, "##ang": 5654, "authorization": 20104, "immortality": 20107, "noises": 14950, "party": 2283, "idf": 24011, "duck": 9457, "\u2033": 1532, "outing": 26256, "##ted": 3064, "##boys": 24916, "demonstration": 10467, "##charged": 22620, "sweetness": 23210, "##drich": 23335, "nascar": 11838, "##ani": 7088, "extending": 8402, "##\u00a1": 29644, "precedent": 20056, "##bola": 24290, "1974": 3326, "##\u1d65": 30045, "##eia": 27958, "stereo": 12991, "##fly": 14151, "##blood": 26682, "##rval": 26585, "lead": 2599, "kamal": 21911, "julius": 10396, "##\u6c37": 30421, "accused": 5496, "spartan": 20670, "##ght": 13900, "affirmed": 19768, "lover": 7089, "amin": 24432, "thing": 2518, "\u2665": 1625, "##\u306d": 30196, "mexican": 4916, "aim": 6614, "jon": 6285, "mediated": 19872, "limited": 3132, "##gpur": 25758, "vito": 25550, "necessitated": 29611, "rematch": 18229, "meteor": 23879, "##ft": 6199, "france": 2605, "bile": 23974, "duran": 22959, "judd": 20128, "\u30df": 1724, "britney": 29168, "##aid": 14326, "nazis": 13157, "hundred": 3634, "roommate": 18328, "marcos": 14810, "##\u4e94": 30279, "xiii": 15031, "spaces": 7258, "intuitive": 29202, "glancing": 10167, "\u0261": 1116, "embedded": 11157, "##ath": 8988, "clit": 17962, "clothing": 5929, "##sb": 19022, "\u0445": 1200, "xander": 29019, "cia": 9915, "##\u0995": 29889, "ios": 16380, "gotta": 10657, "\u6709": 1873, "##ssee": 29522, "##eles": 26741, "edge": 3341, "dod": 26489, "##\u3088": 30210, "consoles": 22659, "##ute": 10421, "##jah": 18878, "indicator": 17245, "gotham": 22814, "yacht": 12187, "bronx": 14487, "memo": 24443, "belong": 7141, "accountant": 17907, "stumbling": 19730, "boilers": 20412, "separation": 8745, "##\u1169": 30011, "counterattack": 27835, "##wled": 28365, "##pheus": 22809, "lynn": 9399, "[unused954]": 959, "fingertips": 12206, "jogging": 28233, "318": 27003, "\u05e3": 1260, "ache": 12336, "##\u062e": 29821, "oricon": 22237, "##zo": 6844, "##rogate": 21799, "collecting": 9334, "1890": 6193, "##ntial": 19909, "microscopic": 26396, "teenage": 9454, "during": 2076, "grounded": 16764, "extinct": 8548, "medallion": 22541, "##etta": 16549, "reasonable": 9608, "##ais": 15593, "hon": 10189, "laptop": 12191, "ware": 16283, "likelihood": 16593, "##ments": 8163, "hush": 20261, "attract": 9958, "pradesh": 7970, "##toy": 29578, "harm": 7386, "lebanon": 8341, "nickname": 8367, "buckle": 22853, "soloist": 16504, "unbroken": 29505, "kong": 4290, "hilton": 15481, "[unused253]": 258, "eighties": 27690, "napoleon": 8891, "jumper": 21097, "freaked": 22783, "##pus": 12207, "##kai": 11151, "straps": 19702, "spanish": 3009, "helmut": 24515, "\u8eca": 1954, "considers": 10592, "evident": 10358, "pseudo": 18404, "##\u30bf": 30235, "hawk": 9881, "sophia": 9665, "perez": 10730, "tournament": 2977, "performs": 10438, "yourself": 4426, "cyclic": 23750, "eduardo": 14846, "lexington": 14521, "pearl": 7247, "##ates": 8520, "year": 2095, "au": 8740, "540": 20263, "##\u9673": 30498, "speculation": 12143, "leaning": 6729, "beginnings": 16508, "gentle": 7132, "[unused147]": 152, "criticised": 10648, "[unused524]": 529, "##gies": 17252, "[unused372]": 377, "devin": 23601, "serviced": 22858, "governors": 11141, "ours": 14635, "acceptance": 9920, "opaque": 28670, "jumps": 14523, "whimper": 28544, "vague": 13727, "difficulties": 8190, "ghanaian": 27202, "##\u6728": 30401, "whereas": 6168, "tracey": 25984, "play": 2377, "gospel": 8036, "strike": 4894, "##cology": 19824, "harlem": 14864, "maurice": 7994, "##mar": 7849, "stephens": 15037, "##veda": 28614, "saharan": 24505, "derivative": 13819, "chile": 7029, "artist": 3063, "##eyer": 20211, "michaels": 17784, "meridian": 17984, "investment": 5211, "marylebone": 28537, "1987": 3055, "[unused308]": 313, "[unused49]": 50, "pilasters": 26752, "##vres": 24790, "[unused490]": 495, "##his": 24158, "coloration": 28757, "jeep": 14007, "hating": 22650, "##jo": 5558, "##nche": 26091, "bail": 15358, "brakes": 13627, "thirds": 12263, "##\u9053": 30483, "pseudonym": 13881, "##ad": 4215, "preliminary": 8824, "terrified": 10215, "partridge": 26079, "##dong": 17679, "##cion": 10446, "##dict": 29201, "yang": 8675, "cypress": 22183, "##\u209c": 30099, "lithuania": 9838, "organize": 10939, "[unused214]": 219, "##joy": 24793, "secondly": 16378, "persecuted": 27666, "penthouse": 22855, "ethnic": 5636, "\u0442": 1197, "##inal": 13290, "##yo": 7677, "attitudes": 13818, "ward": 4829, "domination": 17882, "[unused773]": 778, "uncanny": 28953, "over": 2058, "chen": 8802, "registering": 25719, "desperate": 7143, "##jured": 26949, "##rigues": 22934, "screen": 3898, "sore": 14699, "##tri": 18886, "\u044e": 1209, "##\u062d": 29820, "raw": 6315, "mixed": 3816, "franks": 21310, "##tzer": 29546, "\u00be": 1093, "propped": 16863, "depicted": 8212, "##sum": 17421, "elliott": 9899, "##\u2070": 30071, "segregation": 18771, "sixteenth": 14683, "acclaim": 10761, "disperse": 28736, "january": 2254, "##\u5fa1": 30373, "##\u0e32": 29958, "unpaid": 23850, "##lib": 29521, "regeneration": 20045, "dauphin": 29102, "mab": 26661, "riot": 11421, "filtering": 22910, "midfield": 23071, "rejects": 19164, "carrie": 13223, "encourage": 8627, "drifting": 15013, "##nig": 25518, "[unused120]": 125, "looted": 27775, "##lance": 23078, "##|": 29641, "[unused553]": 558, "institutes": 12769, "praise": 8489, "[unused850]": 855, "okay": 3100, "thus": 2947, "vs": 5443, "hugely": 27564, "[unused782]": 787, "##uted": 12926, "thug": 26599, "instantly": 6880, "##ired": 27559, "segunda": 19071, "connacht": 27062, "##tsa": 27110, "hip": 5099, "mechanism": 7337, "challenge": 4119, "columbia": 3996, "capitals": 15433, "repression": 22422, "bedroom": 5010, "climates": 24734, "peshawar": 28777, "creator": 8543, "guildford": 26353, "heavyweight": 8366, "84": 6391, "360": 9475, "sing": 6170, "##hol": 14854, "softly": 5238, "robertson": 9923, "czech": 5569, "toast": 15174, "stigma": 26453, "fulfillment": 29362, "theodore": 10117, "safely": 9689, "grape": 14722, "##ia": 2401, "metaphor": 19240, "cultivation": 13142, "identifiable": 27800, "reeves": 17891, "1200": 14840, "##ko": 3683, "##atz": 20501, "balkan": 17581, "pine": 7222, "##\u5c0f": 30355, "republicans": 10643, "consent": 9619, "reasons": 4436, "xu": 15990, "##70": 19841, "proportional": 14267, "oral": 8700, "##ographic": 13705, "##aith": 22465, "wit": 15966, "##wick": 7184, "##nr": 16118, "patch": 8983, "pleasantly": 27726, "cooked": 12984, "can": 2064, "slabs": 28761, "workshops": 9656, "reality": 4507, "delle": 24121, "\u0644": 1294, "1860s": 15914, "statues": 11342, "premature": 21371, "regis": 20588, "peasants": 13193, "cubs": 12469, "bucharest": 14261, "##mates": 15416, "mum": 12954, "calculated": 10174, "##cc": 9468, "tatar": 29241, "##51": 22203, "summons": 24814, "femme": 26893, "1853": 8933, "##rud": 28121, "slapping": 22021, "blur": 14819, "derives": 12153, "psi": 17816, "galway": 14370, "defeat": 4154, "dunbar": 23034, "appearance": 3311, "laughs": 11680, "margins": 17034, "625": 22810, "decision": 3247, "tended": 11121, "vascular": 21449, "contrary": 10043, "##kir": 23630, "port": 3417, "##rro": 18933, "noticeably": 25327, "89": 6486, "cyclones": 26069, "membership": 5779, "ir": 20868, "obsolete": 15832, "theory": 3399, "[unused960]": 965, "greco": 18180, "gene": 4962, "norms": 17606, "[unused622]": 627, "pyramid": 11918, "directors": 5501, "fan": 5470, "agustin": 26889, "[unused901]": 906, "eucalyptus": 27111, "widen": 21255, "applicants": 17362, "##nor": 12131, "shaggy": 25741, "partisans": 20762, "coventry": 13613, "exactly": 3599, "transcription": 14193, "pablo": 11623, "ladies": 6456, "meanings": 15383, "[unused304]": 309, "gamma": 13091, "selfish": 14337, "amazon": 9733, "grandfather": 5615, "territorial": 7894, "##\u2295": 30139, "##otho": 29288, "invest": 15697, "collapsing": 22724, "switched": 7237, "shrine": 9571, "bombay": 11831, "\u211d": 1579, "china": 2859, "qualities": 11647, "rashid": 22080, "assemblies": 17720, "norwich": 12634, "##station": 20100, "##\u2093": 30092, "blaine": 20002, "judaism": 13725, "hottest": 20930, "nightclub": 15479, "\u0986": 1348, "inventions": 21644, "foundry": 19853, "##int": 18447, "##quin": 12519, "\u00ab": 1077, "burundi": 28836, "writhing": 26185, "clearing": 8430, "betrayed": 12056, "1933": 4537, "tugging": 17100, "height": 4578, "##\u8857": 30472, "feb": 13114, "corporations": 11578, "aquitaine": 24973, "negro": 12593, "promotion": 4712, "erotic": 14253, "prefers": 19233, "##bi": 5638, "hal": 11085, "kiran": 22403, "indiana": 5242, "projects": 3934, "musik": 28076, "rendering": 14259, "aba": 19557, "\u00a4": 1070, "[unused448]": 453, "erroneously": 29411, "attendant": 16742, "afghanistan": 7041, "##\u961d": 30496, "[unused578]": 583, "sacramento": 11932, "visibly": 19397, "accredited": 11459, "##arium": 17285, "##urable": 23086, "abuses": 21078, "tame": 24763, "##ool": 13669, "\u0250": 1109, "awhile": 19511, "putin": 22072, "generals": 11593, "sox": 9175, "ribbon": 10557, "pronouns": 26028, "dangerously": 20754, "##ion": 3258, "bloomington": 26372, "fail": 8246, "configured": 26928, "stripes": 13560, "crazed": 28343, "##rika": 23778, "damage": 4053, "irrelevant": 22537, "trident": 26515, "null": 19701, "kay": 10905, "##eber": 22669, "catcher": 13795, "rhone": 22351, "bandwidth": 20235, "##osh": 17369, "##lma": 19145, "workout": 27090, "keen": 10326, "##ier": 3771, "urgently": 25478, "cooler": 14976, "indo": 11424, "referring": 7727, "sudan": 10411, "radiant": 23751, "\u03b9": 1163, "knowledge": 3716, "1942": 3758, "\u5bfa": 1827, "bulldogs": 15120, "dancer": 8033, "dispatch": 18365, "##\u0641": 29833, "rudder": 24049, "gram": 13250, "##xt": 18413, "gonzaga": 26840, "upcoming": 9046, "replied": 3880, "##cum": 24894, "wavy": 23098, "regal": 21279, "macquarie": 23903, "\u72ac": 1908, "bruises": 18438, "deficit": 15074, "unauthorized": 24641, "690": 28066, "[unused676]": 681, "##\u2080": 17110, "49": 4749, "reflect": 8339, "hourly": 21462, "tore": 9538, "hopeless": 20625, "##out": 5833, "##meral": 28990, "improves": 24840, "coma": 16571, "relation": 7189, "propaganda": 10398, "32nd": 20628, "##tec": 26557, "gladstone": 21765, "##iga": 13340, "editorial": 8368, "collaborator": 18843, "goalscorer": 28602, "##eth": 11031, "inside": 2503, "what": 2054, "1893": 6489, "misleading": 22369, "##\u0142": 18818, "avoids": 26777, "[unused669]": 674, "mapped": 17715, "oskar": 28626, "curtis": 9195, "##ssed": 29417, "##\u1109": 29997, "presently": 12825, "[unused358]": 363, "\u9234": 1965, "\u706b": 1906, "fired": 5045, "campaigned": 16196, "related": 3141, "fat": 6638, "glide": 21096, "##vb": 26493, "johan": 13093, "insurgency": 23939, "##logy": 6483, "delayed": 8394, "churches": 5231, "surveyor": 17169, "##emia": 17577, "##jet": 15759, "profession": 9518, "\u5fb7": 1848, "miracle": 9727, "rochdale": 26109, "diablo": 28841, "albania": 10407, "##gly": 25643, "bout": 10094, "##gio": 11411, "theta": 23963, "[unused762]": 767, "shrugs": 23822, "darius": 14861, "forces": 2749, "##\u30c3": 30237, "##\"": 29613, "picture": 3861, "mandatory": 10915, "elena": 9060, "hurrying": 27951, "jurist": 22757, "accidents": 13436, "byte": 24880, "enterprises": 9926, "duluth": 28218, "weapon": 5195, "deafening": 28840, "clinton": 7207, "[unused786]": 791, "##lovic": 29356, "raju": 25098, "expected": 3517, "outraged": 23558, "shrieked": 22383, "skyscraper": 24581, "conditional": 18462, "##arth": 22425, "##cles": 18954, "sylvie": 26009, "creamy": 24519, "mckenzie": 18506, "junta": 22450, "goddess": 7804, "shiny": 12538, "decree": 10037, "fabric": 8313, "abbey": 6103, "##cable": 21170, "ou": 15068, "paddle": 20890, "##man": 2386, "\u0915": 1315, "earth": 3011, "cornell": 10921, "isotope": 28846, "##`": 29639, "lamp": 10437, "##kova": 18810, "##sett": 21678, "instant": 7107, "mentioned": 3855, "toxicity": 22423, "throttle": 24420, "indochina": 27053, "groningen": 29070, "adherents": 25712, "##fort": 13028, "peacefully": 21614, "[unused149]": 154, "responsibility": 5368, "complied": 26946, "fill": 6039, "yd": 21076, "memorabilia": 28663, "adults": 6001, "finger": 4344, "horns": 11569, "##oj": 29147, "501": 16202, "tech": 6627, "267": 25491, "furniture": 7390, "1983": 3172, "scare": 12665, "propagation": 20594, "kid": 4845, "ibm": 9980, "##pel": 11880, "trinidad": 11856, "commando": 15054, "pcs": 27019, "hats": 16717, "pages": 5530, "##fixed": 23901, "friedrich": 8896, "commercials": 12698, "inquiries": 27050, "##tley": 18492, "##life": 15509, "\u2229": 1604, "[unused692]": 697, "341": 28358, "##ilo": 22360, "##oue": 27872, "strict": 9384, "wary": 15705, "immediate": 6234, "ordered": 3641, "gloucester": 13370, "\u00bf": 1094, "essential": 6827, "ea": 19413, "##gar": 6843, "rapidly": 5901, "similarly": 6660, "humble": 15716, "renaming": 24944, "arrest": 6545, "calendar": 8094, "expansion": 4935, "drowning": 14759, "entertainment": 4024, "fundamentally": 24670, "krakow": 14576, "motorcycles": 18580, "deliberate": 15063, "tyrant": 26508, "avoid": 4468, "##ault": 23505, "nadia": 14942, "##\u1167": 30010, "##lving": 25780, "longevity": 26906, "neue": 27713, "warning": 5432, "obsessed": 15896, "cell": 3526, "##\u2044\u2084": 27392, "agreements": 10540, "##17": 16576, "sha": 21146, "##brate": 22008, "\u116e": 1478, "##\u10dd": 29986, "nickel": 15519, "ivanov": 26333, "carefully": 5362, "151": 16528, "##tte": 4674, "##\u05e1": 29804, "garland": 17017, "slide": 7358, "breakout": 25129, "puts": 8509, "pavel": 18635, "##ation": 3370, "petit": 17268, "fundamental": 8050, "fifties": 25942, "##58": 27814, "volley": 28073, "demetrius": 28367, "##lum": 12942, "##fs": 10343, "towers": 7626, "integers": 24028, "##des": 6155, "daytona": 18226, "targeted": 9416, "1997": 2722, "##cheon": 28099, "inhaled": 15938, "##42": 20958, "##eed": 13089, "compulsory": 14770, "[unused530]": 535, "##lowe": 27663, "social": 2591, "asteroids": 26732, "issues": 3314, "nothing": 2498, "weekend": 5353, "mutually": 20271, "loads": 15665, "sired": 26940, "1842": 10008, "divine": 7746, "##gged": 15567, "bitterly": 19248, "##\u208a": 30086, "conserve": 27749, "adhere": 25276, "detailing": 17555, "samuel": 5212, "catalyst": 16771, "julian": 6426, "sudanese": 25603, "##owed": 15096, "artifacts": 10471, "[unused764]": 769, "accountability": 17842, "nonstop": 25493, "speculated": 15520, "matching": 9844, "struggling": 8084, "glared": 9400, "1996": 2727, "inclusive": 18678, "terror": 7404, "telecom": 18126, "dickson": 22076, "slowly": 3254, "encryption": 21999, "kb": 21677, "exchanged": 10573, "university": 2118, "##der": 4063, "##\u0630": 29822, "hu": 15876, "potato": 14557, "300": 3998, "indian": 2796, "1790": 13393, "reasoning": 13384, "farming": 7876, "tel": 10093, "[unused79]": 80, "castle": 3317, "\u00a33": 28182, "slovenia": 10307, "##ching": 8450, "lever": 15929, "shed": 8328, "activist": 7423, "##bid": 17062, "sapphire": 21965, "stunning": 14726, "##rca": 18992, "greyhound": 21220, "##\u0f53": 29965, "probability": 9723, "ridge": 5526, "abyss": 22159, "##pis": 18136, "halloween": 14414, "scripted": 22892, "retained": 6025, "examination": 7749, "[unused239]": 244, "politician": 3761, "explosion": 7738, "improving": 9229, "majestic": 22337, "reform": 5290, "mondays": 28401, "##arable": 25236, "vinyl": 8877, "fur": 6519, "##kura": 28260, "##\u00b4s": 21932, "##inda": 23938, "\u0917": 1317, "slade": 18048, "straits": 18849, "finalized": 23575, "icons": 18407, "##ada": 8447, "cracking": 15729, "dense": 9742, "1926": 4881, "##yp": 22571, "tara": 10225, "glory": 8294, "powerplant": 19526, "##\u0926": 29861, "dismay": 20006, "buddhist": 7992, "polymer": 17782, "334": 29562, "##bes": 12681, "winning": 3045, "niall": 21889, "bent": 6260, "kneeling": 16916, "unhappy": 12511, "##\u751f": 30436, "##zia": 12871, "jessie": 10934, "memorial": 3986, "##pad": 15455, "atheist": 23503, "kepler": 28219, "##ck": 3600, "[unused652]": 657, "max": 4098, "fenton": 27096, "workplace": 16165, "fond": 13545, "##rites": 28884, "insides": 19008, "\u0f54": 1430, "lutheran": 10034, "deeper": 6748, "feared": 8615, "across": 2408, "nrl": 20686, "clumsy": 22902, "##burg": 4645, "molecules": 10737, "##ivision": 24607, "georg": 12062, "sins": 15516, "greenish": 23753, "helmets": 22674, "[unused918]": 923, "subdued": 20442, "##phone": 9864, "permanent": 4568, "bypassed": 27539, "saxon": 10038, "chart": 3673, "glenn": 9465, "##wg": 27767, "##iol": 20282, "scarce": 18782, "dia": 22939, "heap": 16721, "orthogonal": 28721, "centralized": 22493, "##rrow": 28597, "karachi": 15381, "display": 4653, "changing": 5278, "##igh": 18377, "##anies": 28064, "advances": 9849, "nevada": 7756, "##sity": 17759, "transformations": 21865, "quinn": 8804, "lays": 19764, "2003": 2494, "##\u062f": 15394, "##leton": 19263, "mused": 22335, "##cule": 21225, "105": 8746, "breaking": 4911, "renegade": 28463, "histoire": 20088, "cabaret": 19685, "begged": 12999, "used": 2109, "thee": 14992, "orleans": 5979, "docked": 25727, "opposed": 4941, "jurassic": 19996, "adversary": 27248, "hosting": 9936, "team": 2136, "viper": 17947, "efficiently": 18228, "##rang": 24388, "##\u110b": 29999, "corbett": 24119, "wraps": 19735, "reluctance": 21662, "##ono": 17175, "ruled": 5451, "parliament": 3323, "##eld": 14273, "musically": 21385, "barking": 19372, "hides": 17382, "bowing": 26690, "purchased": 4156, "##sin": 11493, "escorted": 13127, "y": 1061, "expelled": 10016, "crowe": 25657, "feasible": 22945, "swaying": 21826, "bahia": 22474, "##\u30c4": 30238, "whisky": 21265, "additionally": 5678, "analogy": 23323, "mayors": 21941, "chosen": 4217, "casual": 10017, "essentially": 7687, "marries": 19941, "malvern": 28082, "##\u0283": 29696, "cakes": 22619, "feud": 13552, "royalist": 20796, "\u2ea9": 1632, "invasive": 17503, "##omy": 16940, "ambiguity": 27637, "##\u306b": 30194, "pain": 3255, "home": 2188, "radicals": 23618, "tin": 9543, "unclear": 10599, "demise": 13614, "cdp": 8561, "fallen": 5357, "debris": 11385, "mascot": 13314, "mei": 19734, "procedural": 24508, "##\u02e4": 29719, "aftermath": 10530, "robbins": 18091, "cheeks": 6029, "##nda": 8943, "dangling": 18737, "rotate": 24357, "colonies": 8355, "communism": 15523, "folded": 6999, "omitted": 16647, "##inia": 23309, "specialising": 23315, "reconciled": 28348, "flux": 19251, "tn": 28286, "jaenelle": 20757, "discussion": 6594, "level": 2504, "asteroid": 12175, "##tate": 12259, "empathy": 26452, "##ison": 10929, "captivity": 16187, "passports": 19494, "slug": 23667, "trusts": 20278, "carey": 11782, "eliminated": 5892, "borrowed": 11780, "bryce": 19757, "bel": 19337, "offense": 10048, "##dner": 28001, "ut": 21183, "chapman": 11526, "personal": 3167, "u2": 23343, "##uber": 21436, "copyright": 9385, "221": 19594, "manitoba": 10512, "parody": 12354, "trousers": 15292, "##\u5973": 30341, "thousand": 4595, "capcom": 26861, "dictatorship": 18944, "clever": 12266, "[unused784]": 789, "##/": 29626, "barre": 23189, "mo": 9587, "stylized": 19551, "slope": 9663, "##llah": 18599, "##\u7a7a": 30456, "creative": 5541, "##che": 5403, "promotions": 15365, "\u203f": 1534, "backstage": 20212, "protections": 28548, "misses": 22182, "spiked": 25362, "crops": 8765, "compiled": 9227, "crore": 21665, "clearer": 24509, "leicestershire": 20034, "##dic": 14808, "experimented": 20918, "tufts": 25252, "##hum": 28600, "##idi": 28173, "##ats": 11149, "##35": 19481, "##lized": 28931, "pedal": 15749, "vocabulary": 16188, "madman": 28441, "souza": 26598, "cosmetic": 25536, "sandwich": 11642, "diagonal": 19754, "bautista": 27845, "chester": 8812, "claude": 8149, "alla": 25699, "element": 5783, "##ente": 15781, "planning": 4041, "succeeds": 21645, "giles": 13287, "funded": 6787, "##ction": 7542, "##oped": 24174, "hammond": 11309, "2002": 2526, "sighting": 29426, "do": 2079, "carmine": 18791, "tattoos": 18395, "olympian": 25977, "isil": 19600, "retaliation": 18695, "subsp": 24807, "##\u738b": 30435, "artisans": 26818, "intently": 16170, "robbie": 12289, "support": 2490, "winnipeg": 11093, "rounding": 26939, "[unused752]": 757, "[unused427]": 432, "freshly": 20229, "retrieval": 26384, "slain": 19668, "atkinson": 18646, "##lton": 13947, "dennis": 6877, "mi": 2771, "1727": 25350, "##plication": 21557, "rites": 17105, "cds": 14340, "##tom": 20389, "leigh": 11797, "##uer": 13094, "lifespan": 26462, "inappropriate": 15884, "rpg": 22531, "stein": 14233, "entry": 4443, "407": 28941, "vietnamese": 9101, "##\u043a\u0430": 28598, "cringed": 23952, "mighty": 10478, "marne": 25823, "1724": 26423, "computing": 9798, "gil": 13097, "faces": 5344, "##\u0259": 29681, "##hot": 12326, "pep": 27233, "shareholder": 18668, "duane": 27319, "##pe": 5051, "##ulf": 21007, "enrique": 15769, "expose": 14451, "pumped": 16486, "supply": 4425, "nikolay": 28494, "##ience": 13684, "area": 2181, "##issa": 21205, "gmina": 7061, "phillip": 10852, "##\u0e01": 29945, "labeled": 12599, "##\u5f73": 30371, "wallis": 24029, "architectural": 6549, "190": 11827, "##tip": 25101, "neutrality": 21083, "irene": 12855, "##nett": 15361, "metabolism": 18089, "spine": 8560, "grumbled": 17030, "aubrey": 18961, "##castle": 23662, "neuroscience": 23700, "surveyed": 12876, "gave": 2435, "contractors": 16728, "horse": 3586, "reg": 19723, "brake": 13428, "##orescence": 20030, "susquehanna": 26361, "spire": 19823, "reacting": 24868, "turks": 12896, "##belt": 21561, "criticism": 6256, "paints": 23262, "relinquished": 26566, "rocker": 24779, "##\u7cf9": 30460, "\u1103": 1457, "abandonment": 22290, "\u00a9": 1075, "nutritional": 28268, "reach": 3362, "median": 3991, "ravine": 23188, "##building": 25820, "1822": 12307, "\u05d0": 1241, "cure": 9526, "somehow": 5064, "algae": 18670, "cops": 10558, "[unused401]": 406, "##\u8fb6": 30482, "[unused564]": 569, "weasel": 29268, "##person": 27576, "##llin": 21202, "\u2191": 1584, "factor": 5387, "client": 7396, "language": 2653, "aperture": 18892, "wcw": 24215, "proposals": 10340, "fictitious": 23577, "regain": 12452, "##llis": 21711, "##yi": 10139, "boxed": 27554, "craving": 26369, "guyana": 18786, "##\u03bc": 29728, "##\u3081": 30206, "lac": 18749, "openly": 10132, "gables": 27008, "andy": 5557, "mushrooms": 23827, "outspoken": 22430, "\u52a0": 1779, "##fia": 22749, "endless": 10866, "##sport": 20205, "231": 20304, "emergence": 14053, "collections": 6407, "murderous": 25303, "socio": 17522, "broad": 5041, "skating": 10080, "multinational": 20584, "workings": 24884, "1883": 7257, "##pid": 23267, "guillermo": 21070, "[unused975]": 980, "##\u057a": 29780, "mater": 16289, "secrecy": 20259, "[unused774]": 779, "sufficiently": 12949, "pyrenees": 22696, "slumped": 14319, "52nd": 26898, "##bb": 10322, "narrowed": 8061, "glare": 10982, "paid": 3825, "into": 2046, "turbo": 15386, "outside": 2648, "stokes": 18716, "##stra": 20528, "##vi": 5737, "[unused588]": 593, "##ield": 12891, "oct": 13323, "nemesis": 21363, "enable": 9585, "amino": 13096, "##grate": 22780, "##wyn": 11761, "monarchs": 19799, "modulation": 25502, "\u3072": 1673, "viruses": 18191, "supportive": 16408, "peaks": 11373, "1746": 24507, "forested": 15205, "coven": 25248, "stake": 8406, "[unused208]": 213, "atomic": 9593, "seduce": 23199, "proper": 5372, "touchdowns": 10183, "##rled": 27501, "judgement": 16646, "institute": 2820, "daylight": 11695, "##\u056b": 29772, "contemplating": 25247, "juno": 20788, "[unused720]": 725, "patio": 19404, "subcontinent": 26125, "194": 19955, "1815": 10679, "ic": 24582, "jungle": 8894, "##aya": 12186, "##imated": 20592, "##horpe": 22044, "footsteps": 9717, "government": 2231, "domain": 5884, "murder": 4028, "unix": 19998, "##\u306e": 30197, "##mut": 28120, "joao": 16304, "statutes": 18574, "planes": 9738, "medal": 3101, "[unused616]": 621, "1679": 27924, "##oco": 24163, "undeveloped": 29341, "\u02bb": 1145, "pristine": 27375, "\u624b": 1858, "##cos": 13186, "advocate": 8175, "espana": 20678, "##fast": 24333, "nedra": 28240, "traveled": 6158, "office": 2436, "##ump": 24237, "io": 22834, "exhibiting": 22922, "dq": 25410, "larson": 21213, "##olis": 20872, "lid": 11876, "sicilian": 22584, "displacement": 13508, "\u03c7": 1177, "##ry": 2854, "crotch": 28629, "##\u02e1": 29716, "domenico": 18638, "encouragement": 15846, "extracts": 27059, "morton": 11164, "centred": 16441, "divides": 20487, "fresno": 20840, "##ice": 6610, "scan": 13594, "interpreted": 10009, "decay": 13121, "wichita": 18614, "\u30a3": 1694, "laden": 14887, "gerais": 29220, "screenplay": 9000, "segment": 6903, "thereby": 8558, "buzz": 12610, "rann": 26312, "laurence": 10883, "scratched": 15047, "rustic": 27471, "roberts": 7031, "severe": 5729, "discourse": 15152, "frequent": 6976, "jays": 18930, "relied": 13538, "vicious": 13925, "encounter": 8087, "##\u57ce": 30330, "peninsula": 6000, "hadley": 21681, "legislatures": 27977, "knowing": 4209, "158": 17696, "expedition": 5590, "blurred": 18449, "medicare": 27615, "qualifiers": 18956, "definition": 6210, "manchester": 5087, "erected": 7019, "weekdays": 19759, "ndp": 21915, "painted": 4993, "he": 2002, "please": 3531, "##ioms": 29178, "##hear": 26560, "##inkles": 28562, "acquitted": 18538, "everton": 18022, "slightly": 3621, "themed": 11773, "##anum": 27975, "##\u6b63": 30414, "dev": 16475, "##rip": 29443, "antagonist": 17379, "text": 3793, "##tly": 14626, "funds": 5029, "unnecessary": 14203, "[unused818]": 823, "distillery": 24870, "!": 999, "1843": 10075, "sly": 18230, "sunset": 10434, "goose": 13020, "curiously": 16484, "780": 28601, "confess": 18766, "tickets": 9735, "ankles": 15392, "create": 3443, "obscured": 23649, "vine": 15351, "schwartz": 16756, "peaked": 6601, "cl": 18856, "##ades": 18673, "600": 5174, "\u099a": 1356, "coach": 2873, "quantitative": 20155, "carlo": 9758, "rovers": 9819, "##ein": 12377, "ratio": 6463, "##\u2074": 30073, "\u062c": 1275, "proportions": 19173, "painfully": 16267, "bacterial": 17341, "ebook": 26885, "marriage": 3510, "##\u570b": 30326, "migrant": 20731, "abortion": 11324, "macon": 20025, "saxophone": 8283, "bryan": 8527, "hindu": 7560, "##nts": 7666, "hyun": 21108, "refined": 15514, "visions": 12018, "trinity": 7124, "disruption": 20461, "##aw": 10376, "mutual": 8203, "proficiency": 26293, "gasps": 23813, "yong": 18999, "scary": 12459, "discs": 15303, "lucifer": 24184, "disastrous": 16775, "##vet": 19510, "announcing": 13856, "helena": 10269, "belief": 6772, "\u798f": 1926, "##lley": 25105, "interviewed": 10263, "modeling": 11643, "colonists": 15526, "##del": 9247, "##\u5ba3": 30349, "collaborative": 12317, "[unused189]": 194, "##rac": 22648, "tenderness": 24605, "noted": 3264, "[unused123]": 128, "consciously": 24447, "##gre": 17603, "happy": 3407, "220": 10545, "radiating": 23229, "trailed": 11145, "[unused421]": 426, "##iring": 24771, "hooded": 21592, "##icle": 25128, "horrible": 9202, "brigade": 4250, "marry": 5914, "##ryn": 18143, "britten": 29429, "harta": 26283, "[unused627]": 632, "excerpts": 24962, "\u4e2d": 1746, "rue": 13413, "benches": 19571, "peugeot": 26385, "##jit": 18902, "crosses": 7821, "shire": 13182, "subjects": 5739, "[unused775]": 780, "worship": 7425, "ten": 2702, "\u02e4": 1154, "lithuanian": 10333, "blond": 8855, "cunning": 23626, "cries": 12842, "##ral": 7941, "even": 2130, "deficiency": 18888, "organizational": 13296, "##ctable": 23576, "knesset": 27899, "##hra": 13492, "politics": 4331, "trainee": 26758, "authentic": 14469, "part": 2112, "##swick": 27720, "quarters": 7728, "timer": 25309, "verity": 22178, "##gist": 24063, "\u0131": 1104, "bruce": 5503, "##rga": 28921, "cloudy": 24706, "craft": 7477, "##yria": 20379, "novella": 20674, "rodeo": 18936, "slang": 21435, "shout": 11245, "horn": 7109, "aus": 17151, "##ndra": 17670, "supervised": 13588, "##stic": 10074, "##otic": 20214, "\u10d8": 1445, "shock": 5213, "treaties": 16013, "\u767a": 1914, "##quet": 12647, "##fle": 21031, "\u060c": 1268, "catalan": 13973, "languages": 4155, "##rama": 14672, "##oza": 25036, "midday": 22878, "emory": 25853, "brit": 28101, "magnesium": 24983, "lullaby": 29149, "milk": 6501, "345": 23785, "violated": 14424, "markedly": 29295, "benz": 17770, "##hold": 12640, "\u0446": 1201, "viewers": 7193, "glover": 20012, "spare": 8622, "booklet": 19271, "amiga": 24126, "aggregate": 9572, "scrambling": 25240, "fremantle": 20358, "fallon": 16443, "##ulsion": 23316, "##thed": 23816, "albany": 10283, "cairns": 21731, "penal": 18476, "intensified": 15767, "hamburger": 24575, "interpreter": 19555, "marche": 28791, "##tis": 7315, "##yev": 17240, "mlb": 10901, "relaxing": 19613, "\u3055": 1656, "dunkirk": 29467, "southbound": 19751, "accommodations": 26167, "campos": 26925, "cpu": 17368, "48": 4466, "hungarian": 5588, "##hill": 7100, "##von": 17789, "dissatisfaction": 28237, "412": 25873, "tears": 4000, "##ains": 28247, "choir": 6596, "contrast": 5688, "huntington": 16364, "[unused211]": 216, "visitation": 28877, "played": 2209, "amassed": 22151, "beacon": 14400, "congresses": 24460, "##mania": 27010, "macleod": 23075, "\u014b": 1106, "brewery": 12161, "married": 2496, "magnus": 10045, "judgment": 8689, "bathing": 17573, "\u0f42": 1426, "##rky": 15952, "mack": 11349, "lu": 11320, "abby": 9460, "iq": 26264, "\u0638": 1287, "##]": 29636, "sucks": 19237, "barlow": 17803, "climbs": 18881, "manifest": 19676, "equator": 26640, "evaluate": 16157, "##tell": 23567, "[unused871]": 876, "guineas": 22385, "##tial": 20925, "managing": 6605, "##\u1161": 30006, "ruby": 10090, "stellar": 17227, "barley": 21569, "despite": 2750, "ignores": 26663, "dar": 18243, "[unused296]": 301, "accents": 24947, "francaise": 18427, "##rew": 15603, "tailor": 22701, "##onia": 12488, "uta": 28981, "somewhere": 4873, "faintly": 18587, "tirana": 24631, "dressed": 5102, "plunged": 16687, "annabelle": 24722, "##lem": 16930, "um": 8529, "soyuz": 29412, "incapable": 19907, "windshield": 19521, "sung": 7042, "##cl": 20464, "capitol": 9424, "evade": 26399, "nes": 24524, "pebbles": 28962, "dug": 8655, "beech": 21760, "cambridgeshire": 24197, "momma": 23603, "cradled": 23774, "spike": 9997, "reflex": 22259, "logan": 6307, "[unused883]": 888, "walsall": 29054, "remembers": 17749, "tonight": 3892, "universe": 5304, "##uce": 18796, "craftsman": 26286, "mitochondrial": 23079, "overboard": 27089, "conductors": 23396, "##itude": 18679, "attracted": 6296, "program": 2565, "susanna": 26681, "spices": 21729, "apostle": 20121, "technicians": 20202, "bars": 6963, "timor": 19746, "##\u0255": 29680, "columbian": 25882, "fusion": 10077, "saving": 7494, "intense": 6387, "virgin": 6261, "serpent": 16517, "lombardy": 27728, "tax": 4171, "reorganized": 14137, "casinos": 27300, "[unused962]": 967, "herrera": 23527, "candidacy": 17057, "accomplished": 8885, "celebrations": 12035, "\u0909": 1313, "erase": 22505, "deal": 3066, "sorted": 19616, "musica": 21137, "clicks": 29225, "michelle": 9393, "##mp": 8737, "formulation": 20219, "gillian": 22358, "##avs": 29553, "sets": 4520, "richards": 9712, "nmi": 22484, "##pressive": 27484, "thrash": 27042, "##thesis": 25078, "##15": 16068, "mel": 11463, "trusting": 19836, "grouped": 15131, "devil": 6548, "adjust": 14171, "##bia": 11607, "shopping": 6023, "lakes": 6597, "collateral": 24172, "##bula": 28507, "subgroup": 20576, "1967": 3476, "unstable": 14480, "##fahan": 28975, "##ulla": 22187, "occupations": 23374, "##l": 2140, "##arts": 20591, "muller": 12304, "##\u0f56": 29967, "[unused702]": 707, "peach": 18237, "##rita": 17728, "[unused757]": 762, "reformation": 13708, "guitar": 2858, "sales": 4341, "unofficial": 11982, "travelling": 8932, "cartel": 21680, "exits": 16639, "defensive": 5600, "opener": 16181, "clash": 13249, "stole": 10312, "##ige": 25538, "scheme": 5679, "surplus": 15726, "rape": 9040, "\u5149": 1770, "sentiment": 15792, "sylvester": 20016, "shivering": 19197, "fantasy": 5913, "transition": 6653, "pudding": 29593, "tipperary": 17333, "salsa": 26509, "ben": 3841, "##sen": 5054, "emblem": 16199, "navigate": 22149, "wardrobe": 17828, "quarries": 27069, "##~": 29643, "zhou": 14367, "reproduced": 22296, "kenneth": 8856, "shrewsbury": 18174, "revolt": 10073, "scully": 25686, "stolen": 7376, "couple": 3232, "##tail": 14162, "gorman": 25693, "exiting": 22371, "dr": 2852, "parades": 26635, "establishments": 17228, "##cope": 16186, "charges": 5571, "1764": 21488, "seoul": 10884, "unit": 3131, "comparatively": 20172, "##\u0580": 29784, "focused": 4208, "cleavage": 28691, "##\u4e2d": 30272, "creditors": 23112, "madly": 29179, "bloom": 13426, "1751": 24440, "undisclosed": 18206, "syrian": 9042, "clinics": 17865, "battleship": 17224, "##ln": 19666, "\u09a8": 1366, "##cede": 22119, "##wide": 22517, "salt": 5474, "claw": 15020, "tortured": 12364, "##para": 28689, "numerical": 15973, "missy": 25019, "rank": 4635, "forerunner": 23993, "[unused347]": 352, "novice": 23131, "repository": 22409, "emptied": 21764, "ava": 10927, "georgia": 4108, "##xie": 16898, "##dance": 25514, "ph": 6887, "horses": 5194, "gmbh": 18289, "australia": 2660, "extravagant": 27856, "##sea": 17310, "closed": 2701, "accusation": 19238, "##mission": 25481, "moines": 23286, "eat": 4521, "[unused197]": 202, "[unused229]": 234, "bassist": 9858, "blinds": 28279, "idiots": 28781, "\u1d2c": 1490, "##lon": 7811, "onstage": 23542, "ground": 2598, "scratching": 20291, "demi": 27668, "integer": 16109, "fox": 4419, "effortlessly": 29483, "darmstadt": 28381, "elite": 7069, "project": 2622, "realizing": 9301, "cotton": 6557, "##nse": 12325, "carmel": 19443, "enhance": 11598, "##37": 24434, "russian": 2845, "ramp": 13276, "din": 11586, "temperance": 23372, "tuned": 15757, "##ee": 4402, "seats": 4272, "[unused267]": 272, "gentlemen": 11218, "experimental": 6388, "ornaments": 24005, "wedge": 17632, "perspectives": 15251, "clown": 15912, "\u6b63": 1888, "##hein": 26496, "1908": 5316, "aye": 13442, "##vre": 12229, "[unused51]": 52, "##lifting": 26644, "##hat": 12707, "hotels": 9275, "stared": 3592, "limp": 14401, "proportion": 10817, "yue": 27163, "thirty": 4228, "tightened": 8371, "##cars": 20745, "gastropod": 10953, "analysts": 18288, "##fe": 7959, "##mana": 24805, "francesca": 15409, "dose": 13004, "realm": 8391, "holt": 12621, "volga": 26459, "danzig": 26669, "advised": 9449, "fellowship": 7881, "tottenham": 18127, "##iface": 29164, "son": 2365, "##vinsky": 27704, "articulated": 20742, "republished": 24476, "##partisan": 26053, "largest": 2922, "##nous": 18674, "chicks": 20649, "cocaine": 16034, "electrification": 23679, "buffalo": 6901, "##lick": 25230, "kawasaki": 27324, "suppressed": 13712, "mine": 3067, "lucivar": 21401, "package": 7427, "\u00a3100": 27708, "2017": 2418, "rory": 14285, "##iness": 9961, "##bba": 22414, "coa": 28155, "##ater": 24932, "provence": 19923, "casa": 14124, "seam": 25180, "intention": 6808, "\u4eee": 1761, "##\u3072": 30199, "resign": 12897, "stamford": 22469, "touched": 5028, "archaeologists": 19254, "[unused500]": 505, "domino": 23968, "##oum": 24778, "appointing": 28050, "##hire": 20908, "whimpered": 26184, "##fight": 20450, "netting": 26909, "cyber": 16941, "implant": 27159, "##dial": 27184, "morales": 17103, "novi": 21574, "##rrell": 14069, "252": 22898, "persian": 4723, "edit": 10086, "edmonton": 10522, "es": 9686, "##worm": 22769, "spying": 22624, "ineffective": 20694, "##ley": 3051, "\u05e5": 1262, "khan": 4967, "rewarded": 14610, "amnesia": 29222, "ceramics": 17314, "guided": 8546, "resolutions": 18853, "[unused881]": 886, "tracks": 3162, "##suke": 16867, "[unused494]": 499, "bunny": 16291, "352": 28906, "blackpool": 17444, "seconds": 3823, "predatory": 21659, "halt": 9190, "tapestry": 25213, "##ge": 3351, "hospitality": 15961, "##yme": 25219, "situations": 8146, "registry": 15584, "disc": 5860, "games": 2399, "outline": 12685, "slump": 28702, "##uri": 9496, "know": 2113, "consular": 27326, "rejoin": 25261, "enhancing": 20226, "vanilla": 21161, "residences": 14094, "earlier": 3041, "##tow": 18790, "deputies": 11964, "closest": 7541, "rains": 15811, "normally": 5373, "trout": 13452, "[unused341]": 346, "wiltshire": 17045, "remains": 3464, "newscast": 20306, "##ection": 18491, "wave": 4400, "kant": 26044, "organisations": 8593, "pei": 26850, "vivo": 24269, "monroe": 9747, "manny": 16320, "##inski": 19880, "dissatisfied": 25956, "pianist": 9066, "you": 2017, "[unused387]": 392, "matthias": 17885, "\u05d8": 1249, "[unused212]": 217, "journal": 3485, "h\u2082o": 24833, "\u0281": 1128, "keys": 6309, "stepfather": 21481, "inclusion": 10502, "flaps": 26570, "duval": 23929, "youth": 3360, "weighing": 15243, "[unused438]": 443, "23rd": 13928, "semantic": 21641, "##mined": 25089, "dollars": 6363, "subsidiaries": 20178, "pleasing": 24820, "que": 10861, "ownership": 6095, "alto": 10766, "holland": 7935, "rendered": 10155, "\u043f": 1194, "ever": 2412, "wage": 11897, "geo": 20248, "caleb": 10185, "tight": 4389, "##kala": 26907, "elsa": 23452, "##\u5341": 30309, "miocene": 26926, "violin": 6710, "seated": 8901, "withdraw": 10632, "collector": 10018, "##eche": 27635, "merrill": 16239, "firearm": 23646, "##gui": 25698, "spd": 23772, "compass": 16681, "[unused29]": 30, "patrols": 14703, "designate": 24414, "followers": 8771, "similarity": 14402, "cutler": 24975, "\u062b": 1274, "2007": 2289, "##wich": 12414, "##trum": 24456, "[unused38]": 39, "apartheid": 17862, "\u0435": 1185, "challenges": 7860, "governmental": 10605, "lionel": 14377, "##cene": 17968, "[unused14]": 15, "chandler": 13814, "\u51fa": 1774, "harlow": 22545, "ops": 23092, "150": 5018, "diane": 12082, "collection": 3074, "##ware": 8059, "another": 2178, "mood": 6888, "oblivious": 18333, "ne": 11265, "##\u2660": 30150, "sussex": 9503, "##dal": 9305, "\u00fe": 1101, "##\u308b": 30213, "protestants": 19592, "[unused157]": 162, "reverse": 7901, "[unused554]": 559, "plaintiffs": 23953, "nikola": 24794, "failed": 3478, "dice": 18740, "kindness": 16056, "sava": 28350, "economical": 21791, "kentucky": 5612, "hee": 18235, "pictured": 15885, "##hiff": 25798, "gains": 12154, "classifications": 26739, "##routed": 25849, "##biology": 21685, "stretched": 7121, "gaunt": 27534, "consultative": 28581, "gatherings": 21403, "rippled": 26862, "##ption": 16790, "gall": 26033, "invade": 18445, "patrice": 29527, "grading": 26886, "[unused479]": 484, "nobles": 13969, "boardwalk": 29496, "alley": 8975, "alternative": 4522, "1806": 12518, "##sies": 14625, "[unused809]": 814, "##ttes": 14581, "needles": 17044, "audition": 14597, "premium": 12882, "##ntino": 25318, "collisions": 28820, "##\u4eba": 30282, "has": 2038, "microscope": 24635, "suggestions": 15690, "\u6210": 1854, "person": 2711, "imitation": 20017, "weigh": 17042, "scripts": 14546, "[unused621]": 626, "mcdonald": 9383, "remove": 6366, "##\u203a": 30068, "\u094b": 1343, "wal": 24547, "borg": 28709, "##rata": 14660, "hugo": 9395, "##mps": 25370, "##cated": 12921, "##wyl": 27740, "##rith": 24292, "##sic": 19570, "georgian": 9166, "yeast": 21957, "soviet": 3354, "##efined": 28344, "flower": 6546, "ursula": 20449, "programmers": 28547, "hut": 12570, "nod": 7293, "flush": 13862, "boxer": 10423, "cellar": 15423, "flashlight": 15257, "##bl": 16558, "gaius": 19564, "lancashire": 9638, "audible": 19525, "##tries": 21011, "emilio": 18644, "1688": 24082, "edict": 24754, "paler": 24489, "quincy": 16141, "guise": 21980, "violation": 11371, "attacker": 17346, "##hta": 22893, "sensible": 21082, "##\u043e": 14150, "##ffle": 18142, "##\u9752": 30501, "minds": 9273, "lavish": 22689, "forgot": 9471, "showcase": 13398, "shrubs": 18812, "tuck": 18029, "layer": 6741, "gamer": 27911, ")": 1007, "expects": 24273, "##uppe": 29547, "##iya": 8717, "artifact": 20785, "solutions": 7300, "hines": 25445, "patterns": 7060, "##\uff5e": 30521, "##chal": 18598, "promising": 10015, "ordained": 9492, "\u2030": 1530, "gender": 5907, "##dr": 13626, "hesitation": 13431, "##\u0441": 29747, "reliability": 15258, "destructive": 15615, "password": 20786, "humanity": 8438, "emerald": 14110, "##analysis": 25902, "harlan": 24276, "bounds": 19202, "distinguishing": 20852, "gunnar": 26138, "heck": 17752, "mohan": 18529, "inform": 12367, "\u3089": 1685, "assembled": 9240, "fuller": 12548, "humiliation": 21171, "reserves": 8269, "diseases": 7870, "haven": 4033, "##vot": 22994, "sidewalks": 28386, "265": 20549, "##ivating": 17441, "cape": 4880, "cottage": 9151, "albrecht": 25542, "floods": 14295, "grafton": 28680, "precedence": 23359, "microsoft": 7513, "powerless": 25192, "##\u2217": 30125, "##oit": 28100, "##stand": 21515, "cortex": 17132, "quezon": 26564, "##tl": 19646, "johnny": 5206, "extra": 4469, "classroom": 9823, "inducted": 8120, "ensuing": 13831, "bala": 21451, "welles": 23447, "horseback": 19926, "comprehension": 26683, "depicts": 11230, "feral": 18993, "62": 5786, "hammered": 25756, "theatre": 3004, "disney": 6373, "##aly": 20766, "ina": 27118, "nominally": 24207, "dallas": 5759, "requesting": 17942, "\u00b7": 1087, "mcgee": 22034, "geoffrey": 11023, "arrows": 12563, "motorized": 26172, "##orne": 23846, "sob": 17540, "1899": 6166, "stubborn": 14205, "pinto": 25066, "soloists": 27516, "##aga": 16098, "specializes": 16997, "beit": 28236, "##while": 19927, "chad": 9796, "##kas": 13716, "sh": 14021, "highlight": 12944, "zipper": 22082, "##\u6f22": 30430, "helen": 6330, "viz": 26619, "feasibility": 24010, "gina": 17508, "##\u4e4b": 30275, "petty": 11612, "acc": 16222, "study": 2817, "vines": 16702, "\u5973": 1815, "##ign": 23773, "75th": 25092, "inventor": 12235, "argued": 5275, "jake": 5180, "orange": 4589, "##rral": 24988, "##fect": 25969, "##$": 29615, "##ishing": 21837, "unified": 10562, "phoenix": 6708, "##izes": 10057, "smiling": 5629, "dat": 23755, "##qa": 19062, "##ett": 6582, "characteristic": 8281, "sprinter": 19938, "flows": 6223, "courageous": 26103, "contests": 15795, "[unused977]": 982, "##\u03bb": 29727, "##stein": 8602, "snooker": 26448, "[unused204]": 209, "fitzroy": 21870, "##sd": 16150, "boost": 12992, "hockey": 3873, "##\u05e5": 29808, "nfl": 5088, "eli": 12005, "polling": 17888, "begging": 12858, "reference": 4431, "typical": 5171, "drum": 6943, "##lles": 20434, "scouts": 10158, "border": 3675, "##eron": 26534, "##tropical": 25528, "effectiveness": 12353, "bulldog": 28628, "eclipse": 13232, "kendrick": 25341, "argentina": 5619, "warmed": 17336, "##ruff": 26919, "ting": 28642, "interfering": 24324, "head": 2132, "docks": 15093, "hacked": 28719, "bakery": 18112, "hail": 16889, "swords": 10689, "responsible": 3625, "##din": 8718, "rm": 28549, "##rley": 12866, "flip": 11238, "estimates": 10035, "bach": 10384, "system": 2291, "[unused415]": 420, "diagrams": 26309, "mori": 22993, "arose": 10375, "feature": 3444, "##wei": 19845, "arroyo": 23882, "##onis": 27296, "task": 4708, "constitutional": 6543, "chargers": 18649, "mosque": 8806, "##id": 3593, "##\u3001": 30161, "place": 2173, "[unused57]": 58, "miniature": 12973, "\u6cbb": 1900, "##tara": 27115, "##\u5065": 30294, "tequila": 26791, "margin": 7785, "salvage": 18340, "sheep": 8351, "brain": 4167, "##\u09ac": 29904, "pe": 21877, "gap": 6578, "##\u1d58": 30042, "faltered": 26015, "[unused492]": 497, "observatory": 9970, "hero": 5394, "cnn": 13229, "methane": 24481, "southeast": 4643, "porcelain": 17767, "##hur": 24572, "##ni": 3490, "\u30ec": 1734, "balancing": 20120, "zenith": 28672, "##urgent": 27176, "birth": 4182, "ivy": 7768, "spotlight": 17763, "inhibition": 23586, "kannada": 13873, "multiplayer": 17762, "decca": 21079, "point": 2391, "##fr": 19699, "slippery": 22274, "prehistoric": 14491, "##grapher": 18657, "nfc": 22309, "increasing": 4852, "1907": 5528, "hailey": 21664, "scores": 7644, "hiroshi": 26882, "evan": 9340, "destroying": 9846, "deities": 17091, "wears": 11651, "\u00b1": 1081, "latvian": 14698, "heel": 12073, "214": 19936, "intend": 13566, "\u056b": 1225, "##gel": 12439, "proponents": 20401, "##lore": 20186, "realms": 18814, "undergoes": 29129, "districts": 4733, "[unused679]": 684, "##ifies": 14144, "shoving": 15866, "manhattan": 7128, "##ulate": 9869, "##nified": 25201, "cracks": 15288, "##hara": 11077, "canada": 2710, "\u0f60": 1433, "supplier": 17024, "leger": 26523, "compromise": 12014, "incredibly": 11757, "violence": 4808, "soc": 27084, "massimo": 28080, "examiner": 19684, "tuba": 29242, "calling": 4214, "eaton": 17642, "##words": 22104, "harder": 6211, "soho": 23771, "\u00b6": 1086, "##you": 29337, "##len": 7770, "muttering": 22581, "##ulio": 24825, "\u028e": 1135, "sen": 12411, "131": 14677, "wheels": 7787, "##rrick": 24999, "godzilla": 26631, "camden": 13267, "spicy": 25482, "iqbal": 28111, "yugoslavia": 8936, "##ab": 7875, "tasmania": 12343, "##urized": 28405, "lipstick": 22359, "mirza": 18366, "advisory": 7319, "##ndon": 19333, "psychotic": 27756, "transvaal": 28336, "applications": 5097, "lady": 3203, "##mbit": 28878, "carmen": 11425, "distinction": 7835, "hilly": 22800, "carved": 7844, "moe": 22078, "which": 2029, "rooms": 4734, "##ptive": 24971, "swearing": 25082, "##notes": 20564, "##ove": 21818, "mainly": 3701, "lew": 24992, "staggering": 26233, "lock": 5843, "boulevard": 8459, "1775": 14276, "cousins": 12334, "##earing": 27242, "utility": 9710, "chelsea": 9295, "pill": 17357, "sweaty": 19889, "cunningham": 13652, "developing": 4975, "landfill": 28382, "fiery": 15443, "##mun": 23041, "circle": 4418, "knocked": 6573, "milling": 22491, "safety": 3808, "sealed": 10203, "say": 2360, "reza": 26323, "dams": 17278, "340": 16029, "25th": 10965, "pricing": 20874, "tie": 5495, "eighteenth": 12965, "licenses": 15943, "annum": 28907, "mackenzie": 11407, "##uro": 10976, "\u00a5": 1071, "avengers": 14936, "relocating": 26811, "poetic": 13805, "##uga": 16377, "blankly": 26344, "upton": 26900, "loft": 19459, "##az": 10936, "outputs": 27852, "slopes": 10314, "conical": 24750, "hamburg": 8719, "camilla": 26902, "bulging": 27569, "nightstand": 23135, "pads": 19586, "fangs": 11738, "calls": 4455, "free": 2489, "crystals": 14438, "renovated": 10601, "baron": 5797, "trains": 4499, "labels": 10873, "birthday": 5798, "avail": 24608, "zone": 4224, "diameter": 6705, "##\u66f2": 30396, "awkward": 9596, "victor": 5125, "##\u057d": 29781, "carrot": 25659, "##rse": 22573, "##v": 2615, "southwest": 4943, "feed": 5438, "corp": 13058, "skipping": 25978, "benefit": 5770, "pandora": 19066, "wehrmacht": 23443, "1100": 22096, "grounds": 5286, "##oxide": 28479, "sundays": 14803, "##vern": 23062, "zionist": 21379, "lara": 13679, "##\u30ec": 30260, "daniels": 13196, "##rry": 12244, "dictator": 21237, "##tose": 22282, "directional": 20396, "##aar": 26526, "horizontally": 23190, "chi": 9610, "would": 2052, "logo": 8154, "##forth": 15628, "selling": 4855, "mbe": 20301, "oh": 2821, "ends": 4515, "##lav": 14973, "30th": 13293, "witnesses": 9390, "\u8279": 1939, "handles": 16024, "##utable": 23056, "\u300f": 1644, "1845": 9512, "710": 27671, "representing": 5052, "whatever": 3649, "iranian": 7726, "piled": 17835, "sermons": 20855, "peace": 3521, "52": 4720, "tree": 3392, "mayfield": 27224, "\u516b": 1771, "\u5c0f": 1829, "chairperson": 19072, "horne": 24084, "scouting": 14299, "pneumonia": 18583, "encompassing": 19129, "heroic": 14779, "friction": 15012, "sulfur": 17864, "[unused739]": 744, "attending": 7052, "axial": 26819, "raced": 8255, "[SEP]": 102, "\u05dd": 1254, "##hil": 19466, "lunatic": 26594, "##\u0e27": 29955, "##tama": 28282, "##rea": 16416, "##mei": 26432, "\u30cb": 1716, "##rp": 14536, "##lium": 21816, "when": 2043, "environment": 4044, "headquartered": 9403, "depends": 9041, "##sso": 24137, "lobby": 9568, "##idium": 28742, "##walk": 17122, "replacements": 23936, "metis": 26057, "ak": 17712, "dinners": 29236, "##una": 9521, "it": 2009, "dated": 6052, "shrines": 22562, "rahman": 14364, "firing": 7493, "familiar": 5220, "priced": 21125, "rock": 2600, "ruben": 19469, "\u09aa": 1367, "mohammed": 12619, "questioning": 11242, "##tori": 29469, "##en": 2368, "##nae": 17452, "##ando": 28574, "declaration": 8170, "##rzy": 28534, "##cola": 26289, "awarding": 21467, "suites": 19796, "paranoia": 27890, "caress": 21753, "##ious": 6313, "brisbane": 7717, "renewal": 14524, "redemption": 18434, "980": 25195, "##kovic": 14733, "memorandum": 20336, "suffrage": 15178, "robots": 13507, "tempered": 22148, "##rz": 15378, "##get": 18150, "neville": 14871, "passionate": 13459, "ajax": 18176, "aged": 4793, "labyrinth": 24239, "[unused329]": 334, "\u044c": 1207, "##lan": 5802, "mohawk": 22338, "##gong": 17036, "tenderly": 26596, "outcomes": 13105, "liberated": 19553, "##mu": 12274, "solids": 26778, "southwestern": 8772, "pursed": 21954, "##eran": 23169, "gail": 18576, "malls": 25943, "bilbao": 25427, "tourists": 9045, "fashioned": 13405, "1980s": 3865, "##\u5317": 30307, "reflected": 7686, "carpenter": 10533, "commemorated": 19131, "mind": 2568, "females": 3801, "gabon": 23129, "cognition": 26497, "##\u091f": 29856, "\u0916": 1316, "cinemas": 19039, "torch": 12723, "fronts": 21430, "##metric": 12589, "francesco": 11400, "problematic": 18636, "##arte": 24847, "evangelist": 24036, "##ask": 19895, "[unused411]": 416, "ares": 23631, "roach": 20997, "supreme": 4259, "\u05d9": 1250, "##rek": 16816, "moscow": 4924, "exhibits": 10637, "contents": 8417, "prolonged": 15330, "rowe": 20538, "##\u5fd7": 30377, "withdrew": 6780, "image": 3746, "[unused919]": 924, "inspired": 4427, "intriguing": 23824, "components": 6177, "undone": 25757, "barrister": 19805, "\u092e": 1331, "traders": 13066, "archduke": 27463, "cushions": 27205, "alloys": 28655, "##\u0939": 29875, "grandparents": 14472, "abduction": 23415, "wrote": 2626, "emerges": 19391, "cupped": 13740, "interference": 11099, "tribunal": 12152, "##\ufb02": 30511, "faerie": 27498, "hunched": 20498, "state": 2110, "donna": 10972, "airline": 8582, "genealogy": 26684, "##gaon": 27073, "assumes": 15980, "clinic": 9349, "highlighted": 11548, "stamp": 11359, "##patient": 24343, "wild": 3748, "##idia": 29342, "branching": 23346, "##\u30e9": 30257, "##ipe": 15457, "warsaw": 8199, "copa": 10613, "estimated": 4358, "throwing": 6886, "##gram": 13113, "losses": 6409, "proposing": 21991, "##38": 22025, "invaded": 10836, "reasonably": 16286, "tonga": 20188, "dip": 16510, "vie": 20098, "fry": 14744, "##nary": 24041, "inversion": 28527, "sports": 2998, "banjo": 16698, "##hearted": 27693, "##\u65b0": 30388, "eaten": 8828, "literal": 18204, "buster": 18396, "staten": 24161, "kelvin": 24810, "merchants": 10310, "hamilton": 5226, "helm": 16254, "\u09b8": 1376, "uprising": 10138, "##tosis": 25950, "del": 3972, "learning": 4083, "perkins": 13601, "##lace": 19217, "credentials": 22496, "airways": 13095, "##cat": 11266, "bases": 7888, "flexible": 12379, "along": 2247, "chin": 5413, "##86": 20842, "thong": 27468, "microscopy": 29105, "[unused973]": 978, "mughal": 17877, "cloud": 6112, "rally": 8320, "228": 22238, "clues": 15774, "##vial": 18660, "\u1105": 1458, "allmusic": 10477, "gear": 6718, "khalid": 21828, "croft": 28983, "duo": 6829, "elijah": 14063, "baku": 16807, "assets": 7045, "1803": 12651, "[unused623]": 628, "economically": 15318, "delay": 8536, "vivian": 13801, "silent": 4333, "framed": 10366, "youths": 19634, "##men": 3549, "[unused50]": 51, "superfamily": 24169, "critic": 6232, "[unused134]": 139, "notoriety": 23215, "hess": 23484, "[unused265]": 270, "lincolnshire": 16628, "portrayed": 6791, "tombs": 16623, "remarks": 12629, "##esis": 19009, "roy": 6060, "##lard": 20822, "##hetic": 20086, "restrict": 21573, "survivor": 12084, "loving": 8295, "francais": 22357, "ginger": 14580, "transmitters": 26288, "categories": 7236, "fulfill": 13883, "pantry": 27796, "##mation": 28649, "hope": 3246, "42": 4413, "clyde": 12085, "arjun": 26024, "company": 2194, "316": 23980, "comb": 22863, "classmate": 23175, "mortimer": 17416, "(": 1006, "kilda": 22633, "##dion": 29573, "uncover": 26944, "looting": 29367, "fledgling": 25954, "overtook": 28920, "bologna": 14102, "motive": 15793, "##held": 24850, "\u09c0": 1380, "fried": 13017, "satirical": 17251, "[unused423]": 428, "##tist": 16774, "\u05e0": 1257, "##ncy": 9407, "\u1109": 1461, "ragged": 14202, "truss": 24224, "contributing": 8020, "puzzle": 11989, "settling": 9853, "conquered": 11438, "gerhard": 21037, "eliminating": 15349, "##nger": 11392, "\u4f0a": 1762, "columns": 7753, "##mo": 5302, "##\u6625": 30393, "##ez": 9351, "libel": 26201, "polgara": 27041, "businesses": 5661, "lgbt": 12010, "##iser": 17288, "##\u05df": 29802, "drifted": 10070, "queen": 3035, "boom": 8797, "inferior": 14092, "rampant": 25883, "anchorage": 21086, "##fp": 22540, "[unused377]": 382, "nomination": 6488, "##som": 25426, "completed": 2949, "dimensions": 9646, "theodor": 21448, "several": 2195, "une": 16655, "detecting": 25952, "##\u0644": 23673, "brands": 9639, "northamptonshire": 21367, "congress": 3519, "monarchy": 12078, "robbers": 28019, "clinch": 29119, "singers": 8453, "salzburg": 18369, "usaf": 18531, "##lica": 19341, "occasions": 6642, "singular": 13048, "wider": 7289, "knows": 4282, "##lence": 22717, "collective": 7268, "##rane": 18053, "##rat": 8609, "merchant": 6432, "purchases": 17402, "exams": 13869, "retrospective": 15354, "unreleased": 13270, "courthouse": 10816, "nike": 18368, "satisfy": 13225, "downloadable": 26720, "funny": 6057, "better": 2488, "toured": 7255, "traded": 7007, "gan": 25957, "hostages": 19323, "##ies": 3111, "allow": 3499, "explanations": 17959, "elevation": 6678, "kg": 4705, "rep": 16360, "simultaneously": 7453, "##trust": 24669, "blinding": 19709, "versus": 6431, "programmed": 16984, "expanding": 9186, "infectious": 16514, "sacrificed": 20268, "##sell": 23836, "gerald": 9659, "wan": 14071, "manipulated": 20063, "backgrounds": 15406, "having": 2383, "##dlow": 27002, "previously": 3130, "[unused828]": 833, "1648": 22533, "migrated": 13447, "actually": 2941, "##yes": 23147, "compounds": 10099, "auf": 21200, "rescue": 5343, "harmonic": 19452, "happens": 6433, "##odon": 28716, "haute": 18535, "pensions": 22024, "reunite": 25372, "sponsor": 10460, "admitted": 4914, "##zak": 20685, "conferences": 9281, "cutting": 6276, "rosy": 26851, "julie": 7628, "enjoy": 5959, "peterborough": 17587, "causing": 4786, "1560": 29185, "pits": 14496, "dow": 23268, "##guide": 28582, "dinosaur": 15799, "vote": 3789, "##\u110c": 30000, "acts": 4490, "deed": 15046, "strategically": 23972, "pains": 20398, "amazingly": 29350, "##hwa": 18663, "ignore": 8568, "##phate": 24556, "somali": 16831, "##bial": 21102, "ho": 7570, "bowled": 19831, "raj": 11948, "magazine": 2932, "##ero": 10624, "britain": 3725, "##sibility": 28255, "coronation": 12773, "satellites": 14549, "absence": 6438, "##rine": 11467, "relying": 18345, "electrons": 15057, "\u5730": 1802, "gemma": 19073, "##\u2208": 30124, "beasts": 15109, "##dome": 26173, "instability": 18549, "primetime": 18474, "##aq": 20784, "##ount": 21723, "courier": 18092, "needy": 23927, "newer": 10947, "##ouk": 27967, "clarinet": 12089, "shouldered": 29383, "figure": 3275, "nylon": 27201, "##lets": 13461, "salute": 17664, "spat": 14690, "[unused783]": 788, "angola": 13491, "airport": 3199, "montpellier": 28153, "[unused35]": 36, "following": 2206, "evidence": 3350,
[...]
